{"vocabulary": {" d": 559, "de": 7380, "e ": 7777, " de": 582, "de ": 7381, " de ": 583, " s": 1636, "sp": 15568, "po": 14000, "on": 13319, "ns": 12708, "s ": 15164, " sp": 1732, "spo": 15584, "pon": 14033, "ons": 13388, "ns ": 12709, " spo": 1736, "spon": 15586, "pons": 14038, "ons ": 13389, " b": 384, "be": 6535, "eh": 8036, "ho": 9536, "oo": 13419, "or": 13476, "rt": 14955, "t ": 15861, " be": 402, "beh": 6549, "eho": 8042, "hoo": 9553, "oor": 13432, "ort": 13559, "rt ": 14956, " beh": 410, "oort": 13436, "ort ": 13560, " t": 1798, "to": 16239, "ot": 13624, " to": 1836, "tot": 16295, "ot ": 13625, " tot": 1845, "tot ": 16296, " h": 894, "he": 9425, "et": 8667, " he": 912, "het": 9466, "et ": 8668, " het": 921, "het ": 9467, " g": 821, "ge": 9109, "es": 8586, "sl": 15481, "la": 11084, "ac": 5426, "ch": 6914, "ht": 9593, " ge": 833, "ges": 9161, "esl": 8629, "sla": 15482, "lac": 11094, "ach": 5440, "cht": 6975, "ht ": 9594, " ges": 846, "esla": 8630, "acht": 5447, "cht ": 6976, "ha": 9368, "al": 5687, "li": 11320, "ic": 9715, "cl": 7084, "lo": 11504, "na": 12193, "a ": 5348, " ha": 895, "hal": 9385, "ali": 5729, "lic": 11335, "icl": 9763, "clo": 7091, "lon": 11527, "ona": 13329, "na ": 12194, " hal": 902, "hali": 9387, "alic": 5732, "ona ": 13330, " e": 672, "en": 8276, "n ": 12171, " en": 710, "en ": 8277, " en ": 711, " f": 759, "fa": 8871, "am": 5796, "mi": 11909, "il": 10004, "ie": 9812, " fa": 760, "fam": 8886, "ami": 5823, "mil": 11939, "ili": 10026, "lie": 11346, "ie ": 9813, " fam": 766, "fami": 8887, "amil": 5828, "mili": 11941, "ilie": 10030, "lie ": 11347, " c": 477, "in": 10103, "ni": 12499, "id": 9787, "da": 7311, "ae": 5539, "e.": 7795, ". ": 4591, " ch": 500, "cha": 6921, "lin": 11378, "ini": 10163, "nid": 12520, "ida": 9789, "dae": 7326, "e. ": 7796, " cha": 501, "chal": 6924, "alin": 5738, "lini": 11384, "nida": 12521, "idae": 9792, " w": 1972, "we": 17406, "te": 15985, "sc": 15248, "ap": 5991, "pp": 14072, "pe": 13882, "el": 8144, "ij": 9971, "jk": 10689, "ke": 10818, " we": 1980, "wet": 17435, "ete": 8681, "ten": 16034, "ens": 8346, "nsc": 12716, "sch": 15257, "hap": 9398, "app": 6012, "ppe": 14075, "pel": 13894, "eli": 8179, "lij": 11364, "ijk": 9979, "jke": 10691, "ke ": 10819, " wet": 1990, "wete": 17436, "eten": 8684, "tens": 16044, "ensc": 8349, "nsch": 12717, "scha": 15259, "chap": 6927, "happ": 9399, "appe": 6014, "ppel": 14077, "peli": 13898, "elij": 8184, "lijk": 11365, "ijke": 9981, "jke ": 10692, " n": 1294, "aa": 5374, "m ": 11705, " na": 1296, "naa": 12199, "aam": 5381, "am ": 5797, " naa": 1298, "naam": 12200, "aam ": 5382, " v": 1914, "va": 17111, "an": 5856, " va": 1916, "van": 17134, "an ": 5857, " van": 1918, "van ": 17135, "so": 15511, " so": 1718, "soo": 15548, " soo": 1726, "soor": 15549, "er": 8428, "rd": 14395, "d ": 7295, "wer": 17427, "erd": 8457, "rd ": 14396, " wer": 1988, "werd": 17429, "erd ": 8458, "vo": 17273, "r ": 14243, " vo": 1946, "voo": 17294, "or ": 13477, " voo": 1953, "voor": 17295, "oor ": 13433, "ee": 7954, "rs": 14923, "st": 15644, " ee": 687, "eer": 7971, "ers": 8534, "rst": 14947, "st ": 15645, " eer": 689, "eers": 7974, "erst": 8544, "rst ": 14948, "ld": 11184, "di": 7485, "ig": 9919, "g ": 9069, "gel": 9129, "eld": 8158, "ldi": 11195, "dig": 7510, "ig ": 9920, " gel": 840, "geld": 9132, "eldi": 8161, "ldig": 11198, "dig ": 7511, "ep": 8401, "pu": 14156, "ub": 16599, "bl": 6633, "ce": 6869, "gep": 9152, "epu": 8420, "pub": 14158, "ubl": 16607, "bli": 6642, "ice": 9733, "cee": 6882, " gep": 844, "gepu": 9153, "epub": 8421, "publ": 14160, "ubli": 16608, "blic": 6643, "lice": 11338, "icee": 9736, "ceer": 6883, "eerd": 7973, " i": 952, " in": 979, "in ": 10104, " in ": 980, " 1": 90, "19": 4829, "91": 5219, "10": 4744, "0 ": 4633, " 19": 130, "191": 4836, "10 ": 4745, " 191": 134, "do": 7592, " do": 623, "doo": 7616, " doo": 632, "door": 7617, " k": 1060, "ku": 10986, "ud": 16640, "n.": 12187, " ku": 1116, "ude": 16645, "del": 7410, "in.": 10108, "n. ": 12188, "deli": 7413, "elin": 8187, "in. ": 10109, "バス": 29253, "って": 29059, "てし": 29073, "しま": 29025, "い、": 28972, "なっ": 29118, "った": 29054, "ける": 29000, "るが": 29189, "が、": 28993, "こと": 29001, "かし": 28989, "しい": 29015, "する": 29026, "ると": 29194, "して": 29021, "ウン": 29215, "した": 29018, "」と": 28960, "た。": 29034, "ない": 29112, "、こ": 28929, "この": 29004, "れて": 29202, "てい": 29065, "いた": 28975, "。こ": 28944, "は、": 29159, "また": 29164, "とい": 29094, "いう": 28974, "よう": 29171, "うに": 28981, "にな": 29138, "たが": 29040, "に「": 29129, "と呼": 29108, "いる": 28978, "る。": 29185, "。 ": 28937, "てしま": 29074, "なった": 29119, "るが、": 29190, "、この": 28930, "れてい": 29203, "ていた": 29066, "た。こ": 29037, "。この": 28945, "という": 29095, "ように": 29172, "うにな": 28982, "になっ": 29139, "ったが": 29057, "たが、": 29041, "いる。": 28979, "る。 ": 29186, "れていた": 29204, "た。この": 29038, "ようにな": 29173, "になった": 29140, "ったが、": 29058, "いる。 ": 28980, "ts": 16372, "su": 15752, "ut": 17011, "ti": 16121, "ar": 6034, "sut": 15788, "uti": 17022, "tin": 16172, "ina": 10110, "nal": 12222, "ala": 5695, "lar": 11128, "ar ": 6035, "tina": 16174, "inal": 10116, "alar": 5700, "lar ": 11129, " (": 19, "(i": 4454, "i̇": 10614, "ng": 12457, "gi": 9186, "iz": 10524, "zc": 17795, "e:": 7797, ": ": 5335, " (i": 43, "ngi": 12472, "gil": 9200, "liz": 11418, "e: ": 7798, "iliz": 10037, "uu": 17043, "t'": 15862, "'i": 4389, "a)": 5356, "):": 4494, "'in": 4393, "): ": 4495, "ka": 10766, "ad": 5481, "a'": 5351, "'d": 4378, " ka": 1062, "kan": 10786, "ana": 5865, "nad": 12207, "ada": 5487, "a'd": 5352, "'da": 4379, "da ": 7312, " kan": 1067, "kana": 10788, "anad": 5869, "nada": 12209, "a'da": 5353, "'da ": 4380, " a": 222, "lb": 11169, "ta": 15873, " al": 277, "alb": 5701, "lbe": 11172, "ber": 6568, "ert": 8546, "rta": 14961, "ta ": 15874, " alb": 281, "albe": 5703, "lber": 11173, "bert": 6576, "erta": 8549, "rta ": 14962, "bö": 6761, "öl": 18349, "lg": 11308, "si": 15380, "nd": 12314, " bö": 468, "böl": 6762, "lge": 11310, "esi": 8618, "sin": 15417, "ind": 10127, "nde": 12328, " böl": 469, "esin": 8623, "sind": 15420, "inde": 10130, "nde ": 12329, "ca": 6786, "ga": 9077, "ry": 15062, "y'": 17588, " ca": 479, "cal": 6805, "alg": 5725, "lga": 11309, "gar": 9093, "ary": 6145, "'de": 4381, " cal": 483, "'de ": 4382, " y": 2030, "ya": 17598, "aş": 6451, "şa": 18749, "rl": 14714, "r.": 14253, " ya": 2032, "yaş": 17617, "aşa": 6452, "şar": 18752, "arl": 6098, "rla": 14716, "ar.": 6038, "r. ": 14254, " yaş": 2040, "yaşa": 17618, "aşar": 6453, "arla": 6100, "rlar": 14719, "lar.": 11131, "ar. ": 6039, "ek": 8121, "k ": 10758, " te": 1807, "tek": 16016, "ek ": 8122, " tek": 1815, "tek ": 16017, "ba": 6480, "şı": 18774, "ın": 18644, " ba": 385, "baş": 6523, "aşı": 6459, "şın": 18776, "ına": 18646, " baş": 401, "aşın": 6460, "ına ": 18647, "gr": 9277, "ru": 15006, "up": 16889, "p ": 13821, " gr": 872, "gru": 9296, "rup": 15033, "up ": 16890, " gru": 877, "grup": 9299, " o": 1372, "ol": 13194, "lu": 11602, "uş": 17092, "şt": 18765, "tu": 16416, "ur": 16910, " ol": 1408, "olu": 13252, "luş": 11644, "uşt": 17094, "ştu": 18768, "tur": 16441, "uru": 16964, "rur": 15037, "url": 16949, " olu": 1413, "oluş": 13256, "luşt": 11645, "uştu": 17095, "ştur": 18769, "ve": 17155, " ve": 1921, "ve ": 17156, " ve ": 1922, " p": 1458, "pa": 13827, "as": 6158, "if": 9902, "fi": 8943, "ik": 9986, " pa": 1461, "pas": 13866, "asi": 6175, "sif": 15404, "ifi": 9911, "fik": 8959, "ik ": 9987, " pas": 1472, "sifi": 15405, "ifik": 9914, "gü": 9352, "ün": 18414, "ne": 12373, "ey": 8801, "y ": 17587, " gü": 890, "gün": 9353, "üne": 18419, "ney": 12442, "ey ": 8802, " gün": 891, "ney ": 12443, "at": 6214, "ab": 5393, "sk": 15453, "kl": 10885, "rı": 15147, "ı ": 18605, " at": 345, "ata": 6220, "tab": 15881, "aba": 5395, "bas": 6509, "ask": 6181, "skl": 15464, "kla": 10886, "arı": 6152, "rı ": 15148, " ata": 347, "taba": 15882, "abas": 5399, "bask": 6512, "klar": 10888, "ları": 11137, "arı ": 6153, "le": 11208, " il": 969, "ile": 10018, "le ": 11209, " ile": 971, "ile ": 10019, "nt": 12752, " an": 302, "ant": 5954, "nti": 12783, "tik": 16158, " ant": 313, "anti": 5958, "tik ": 16159, "ak": 5656, "kı": 11041, "nl": 12596, "lı": 11690, "ık": 18618, "yak": 17601, "akı": 5683, "kın": 11045, "ınl": 18650, "nlı": 12606, "lık": 11692, "ıkl": 18621, " yak": 2034, "ıkla": 18622, "gö": 9346, "ös": 18365, "rm": 14735, "iş": 10601, "ir": 10280, " gö": 887, "gös": 9350, "öst": 18366, "ste": 15668, "ter": 16050, "erm": 8511, "rmi": 14752, "miş": 11975, "işt": 10606, "şti": 18766, "tir": 16185, "ir.": 10284, " gös": 889, "göst": 9351, "öste": 18367, "ster": 15678, "term": 16061, "ermi": 8514, "mişt": 11977, "işti": 10607, "ştir": 18767, "tir.": 16187, "ir. ": 10285, "シャ": 29227, "ャー": 29264, "リー": 29276, "ー・": 29311, "フィ": 29256, "ィー": 29212, "ール": 29309, "ルド": 29279, "ン・": 29293, "ベル": 29260, "ド・": 29251, "ュー": 29265, "セン": 29239, "ター": 29241, "ーテ": 29303, "ティ": 29245, "ィン": 29211, "ある": 28969, "。1": 28938, "93": 5232, "37": 5021, "7年": 5169, "年に": 29414, "され": 29006, "れた": 29200, "ラレ": 29270, "ック": 29242, "があ": 28994, "あり": 28967, "り、": 29184, "リン": 29275, "れる": 29206, "5,": 5073, ",0": 4504, "00": 4649, "ンド": 29292, "ーン": 29310, "ンに": 29285, "るこ": 29191, "0,": 4640, "まで": 29166, "でき": 29086, "きる": 28997, "プロ": 29259, "カー": 29217, "ーク": 29297, "クラ": 29222, "とし": 29097, "ット": 29243, "およ": 28985, "よび": 29176, "行わ": 29500, "われ": 29208, "ーティ": 29304, "ある。": 28970, "。19": 28939, "193": 4845, "937": 5241, "された": 29008, "れた。": 29201, "あり、": 28968, "される": 29012, "れる。": 29207, ",00": 4505, "000": 4655, "ること": 29192, "10,": 4746, "0,0": 4642, "できる": 29087, "として": 29098, "してい": 29022, "ている": 29068, "および": 28986, "行われ": 29501, "る。こ": 29187, "されて": 29010, "1937": 4852, "された。": 29009, "される。": 29013, ",000": 4506, "している": 29024, "ている。": 29069, "されてい": 29011, "れている": 29205, "ro": 14787, "oc": 13020, "cc": 6856, "co": 7099, "o ": 12962, "bar": 6503, "aro": 6114, "roc": 14801, "occ": 13025, "cco": 6864, "co ": 7100, " bar": 394, "baro": 6507, "(p": 4463, "pt": 14144, "t:": 15871, " (p": 52, "t: ": 15872, "câ": 7273, "ân": 18072, " es": 731, "esc": 8600, "cân": 7274, "ând": 18073, "nda": 12320, "dal": 7336, "alo": 5757, "lo ": 11505, " esc": 733, "când": 7275, "alo ": 5758, "pá": 14180, "ág": 18020, ") ": 4489, " pá": 1543, "gin": 9202, "a) ": 5357, "gina": 9203, " é": 2146, "é ": 18155, " é ": 2147, " u": 1874, "um": 16803, " um": 1886, "um ": 16804, " um ": 1887, "lm": 11479, "me": 11834, " fi": 784, "fil": 8961, "ilm": 10046, "lme": 11485, "me ": 11835, " fil": 790, "film": 8962, "ilme": 10048, "fr": 9017, "ra": 14259, "nc": 12272, "ês": 18237, " fr": 806, "fra": 9018, "ran": 14315, "anc": 5876, "ês ": 18238, " fra": 807, "fran": 9020, "ranc": 14317, "ri": 14582, " di": 603, "dir": 7532, "iri": 10304, "rig": 14623, "igi": 9932, "gid": 9194, "ido": 9807, "do ": 7593, " dir": 613, "diri": 7536, "irig": 10305, "rigi": 14626, "ido ": 9808, " po": 1501, "por": 14044, " por": 1515, "por ": 14045, "dr": 7646, "ré": 15113, "and": 5882, "ndr": 12357, "ré ": 15114, " and": 306, "andr": 5890, "té": 16512, "éc": 18163, "hi": 9474, "né": 12901, "é,": 18156, ", ": 4503, " té": 1868, "chi": 6939, "hin": 9499, "iné": 10218, "é, ": 18157, "chin": 6945, "tr": 16309, "re": 14428, "ea": 7801, "est": 8652, "str": 15711, "tre": 16327, "rea": 14435, "ead": 7808, "ado": 5513, " est": 737, "estr": 8660, "stre": 15713, "trea": 16329, "read": 14438, "ado ": 5514, "em": 8225, " em": 705, "em ": 8226, " em ": 706, "97": 5285, "76": 5161, "6 ": 5104, "197": 4888, "976": 5293, "76 ": 5162, " 197": 140, "1976": 4895, " e ": 673, "pr": 14088, "ag": 5563, "go": 9250, "za": 17762, " pr": 1523, "pro": 14111, "rot": 14865, "ota": 13626, "tag": 15899, "ago": 5585, "gon": 9260, "oni": 13363, "niz": 12577, "iza": 10526, "zad": 17769, " pro": 1527, "prot": 14123, "rota": 14866, "tago": 15903, "agon": 5587, "goni": 9261, "niza": 12578, "izad": 10529, "zado": 17771, "gé": 9341, "ér": 18206, " gé": 883, "éra": 18207, "rar": 14331, "ard": 6064, "ard ": 6065, "eu": 8728, "u ": 16565, "dep": 7435, "epa": 8403, "par": 13856, "rdi": 14412, "die": 7501, "ieu": 9892, "eu ": 8729, " dep": 595, "depa": 7436, "epar": 8404, "ardi": 6068, "is": 10324, "sa": 15187, "ll": 11432, " is": 994, "isa": 10331, "sab": 15192, "abe": 5403, "bel": 6558, "ell": 8193, "lle": 11449, "abel": 5404, "bell": 6563, "elle": 8197, "lle ": 11450, "dj": 7562, "ja": 10623, "i.": 9652, " ad": 244, "jan": 10637, "ani": 5909, "ni.": 12503, "i. ": 9653, "ni. ": 12504, "ss": 15606, "ci": 6991, "ia": 9656, "io": 10221, " as": 339, "ass": 6189, "sso": 15632, "soc": 15519, "oci": 13037, "cia": 6997, "iat": 9692, "ati": 6243, "tio": 16180, "ion": 10234, "on ": 13320, " ass": 343, "asso": 6194, "ssoc": 15634, "soci": 15520, "ocia": 13038, "ciat": 7003, "iati": 9696, "atio": 6248, "tion": 16181, "ion ": 10235, " r": 1564, "ec": 7864, "rc": 14381, " re": 1577, "rec": 14443, "ech": 7874, "che": 6929, "her": 9456, "erc": 8452, "rch": 14386, "he ": 9426, " rec": 1579, "rech": 14445, "eche": 7877, "cher": 6936, "erch": 8455, "rche": 14388, "che ": 6930, " et": 738, " et ": 739, "au": 6290, "uv": 17045, "eg": 7997, " sa": 1643, "sau": 15235, "uve": 17047, "veg": 17167, "ega": 7999, "rde": 14405, " sau": 1654, "egar": 8003, "gard": 9096, "arde": 6067, "rde ": 14406, " l": 1130, "l'": 11058, "'h": 4388, "oi": 13153, " l'": 1131, "l'h": 11068, "his": 9508, "ist": 10376, "sto": 15702, "toi": 16257, "oir": 13160, "ire": 10296, "re ": 14429, " l'h": 1134, "hist": 9511, "isto": 10381, "toir": 16258, "oire": 13162, "ire ": 10297, "sy": 15801, "y-": 17595, "-e": 4545, "n-": 12186, "-f": 4548, " ro": 1607, "roi": 14820, "ois": 13163, "iss": 10369, "ssy": 15640, "-en": 4546, "en-": 8282, "-fr": 4549, "nce": 12276, "ce ": 6870, " roi": 1611, "rois": 14822, "oiss": 13165, "issy": 10375, "-en-": 4547, "-fra": 4550, "ance": 5878, "nce ": 12277, "(a": 4440, "a.": 5366, ".s": 4627, "s.": 15180, "h.": 9366, "f.": 8869, ".)": 4594, "),": 4490, " (a": 30, "), ": 4491, "90": 5214, "190": 4833, "900": 5216, "00 ": 4650, " 190": 133, " /": 84, "/ ": 4630, " / ": 85, " 2": 143, "20": 4944, " 20": 149, "200": 4948, "00,": 4651, "0, ": 4641, " 200": 151, "2000": 4950, "00, ": 4652, " m": 1203, "mé": 12133, "ém": 18187, "mo": 12006, " mé": 1281, "émo": 18190, "moi": 12022, "d'": 7296, "'u": 4410, "un": 16827, " d'": 560, "d'u": 7302, "'un": 4411, "un ": 16828, " d'u": 565, "d'un": 7303, "'un ": 4412, "iè": 10556, "èc": 18140, "e,": 7789, " si": 1694, "siè": 15445, "ièc": 10557, "ècl": 18141, "cle": 7088, "le,": 11211, "e, ": 7790, " siè": 1705, "sièc": 15446, "iècl": 10558, "ècle": 18142, "le, ": 11212, "03": 4704, "3 ": 4996, "003": 4661, "03 ": 4705, "2003": 4953, "003 ": 4662, "(v": 4471, " (v": 60, "voi": 17280, "ir ": 10281, "voir": 17281, "oir ": 13161, " da": 568, "dan": 7344, "ans": 5947, " dan": 576, "dans": 7350, "ans ": 5948, " la": 1139, "la ": 11085, " la ": 1140, "bi": 6590, "ib": 9702, "og": 13124, "ph": 13931, "e)": 7783, " bi": 421, "bib": 6595, "ibl": 9709, "lio": 11387, "iog": 10231, "ogr": 13139, "gra": 9278, "rap": 14327, "aph": 6002, "phi": 13936, "hie": 9482, "e) ": 7784, " bib": 423, "bibl": 6596, "ibli": 9711, "blio": 6646, "ogra": 13140, "grap": 9283, "raph": 14328, "aphi": 6003, "小说": 29392, "阿米": 29520, "米尔": 29489, "国家": 29370, "3年": 5027, "之后": 29331, "27": 4982, "。他": 28954, "苏联": 29498, "，而": 29998, "他的": 29342, "生活": 29476, "一些": 29313, "，其": 29992, "其中": 29352, "的人": 29482, "），": 29983, "因此": 29367, "的一": 29481, "认为": 29506, "表示": 29503, "一部": 29316, "部分": 29515, "自己": 29496, "，他": 29989, "，但": 29991, "是一": 29453, "的第": 29483, "第二": 29488, "”。": 28920, "阿米尔": 29521, " 한": 4319, "한국": 29953, "에서": 29790, "서 ": 29731, " 한국": 4321, "에서 ": 29791, " 성": 4177, "가 ": 29527, " 사": 4166, "사용": 29729, "기 ": 29567, " 사용": 4168, " 시": 4189, "시작": 29758, "한 ": 29952, " 시작": 4190, " 정": 4266, "는 ": 29588, " 알": 4199, " 수": 4182, "수 ": 29742, " 수 ": 4183, " 없": 4206, "으나": 29815, "나,": 29578, "나, ": 29579, " 등": 4110, "등 ": 29653, " 등 ": 4111, " 중": 4276, "국 ": 29548, " 문": 4141, "이 ": 29828, "되었": 29631, "던 ": 29617, "기에": 29572, "에 ": 29783, "기에 ": 29573, " 그": 4061, "와 ": 29806, " 함": 4324, "함께": 29959, "께 ": 29576, " 함께": 4325, "함께 ": 29960, " 함께 ": 4326, " 도": 4095, "을 ": 29824, " 것": 4042, "것으": 29535, "으로": 29817, "로 ": 29675, "것으로": 29536, "으로 ": 29818, " 추": 4290, "된다": 29635, "다.": 29595, "된다.": 29636, "다. ": 29596, "된다. ": 29637, "족 ": 29896, "그 ": 29554, " 그 ": 4062, " 집": 4282, "단을": 29607, "단을 ": 29608, " 통": 4302, "하는": 29935, "하는 ": 29936, " 지": 4278, "자 ": 29874, " 계": 4049, " 발": 4150, " 다": 4080, "다른": 29603, "른 ": 29687, " 다른": 4081, "다른 ": 29604, " 다른 ": 4082, "이나": 29832, "나 ": 29577, "이나 ": 29833, " 피": 4312, "과 ": 29546, " 구": 4055, "하기": 29933, "하기 ": 29934, " 위": 4224, " 목": 4138, "적 ": 29883, " 신": 4191, " 나": 4074, " 표": 4310, " 쓰": 4193, "게 ": 29541, " 되": 4098, "었다": 29779, " 되었": 4099, "되었다": 29632, "었다.": 29780, " 되었다": 4100, "되었다.": 29633, "었다. ": 29781, " р": 3022, "ра": 23852, "аз": 20806, "зп": 22086, "по": 23750, "ол": 23460, "ло": 22744, "ож": 23407, "же": 21979, "ен": 21801, "но": 23137, "о ": 23269, " ра": 3024, "раз": 23871, "азп": 20822, "зпо": 22087, "пол": 23766, "оло": 23478, "лож": 22754, "оже": 23410, "жен": 21982, "ено": 21824, "но ": 23138, " раз": 3027, "разп": 23878, "зпол": 22088, "поло": 23770, "олож": 23483, "ложе": 22755, "ожен": 23412, "ено ": 21825, " е": 2719, "е ": 21662, " е ": 2720, " в": 2603, "в ": 21177, " в ": 2604, " п": 2976, "ли": 22698, "ит": 22329, "те": 24492, " по": 2990, "оли": 23471, "лит": 22717, "ите": 22334, "те ": 24493, " пол": 2999, "поли": 23768, "олит": 23473, "лите": 22718, "ите ": 22335, " н": 2899, "на": 22970, "а ": 20720, " на": 2900, "на ": 22971, " на ": 2901, "пл": 23742, "ла": 22643, "ан": 20897, "ни": 23062, "ин": 22254, "ат": 21005, "та": 24430, " пл": 2987, "пла": 23743, "лан": 22654, "ани": 20912, "нин": 23091, "ина": 22258, "нат": 23003, "ата": 21007, "та ": 24431, " пла": 2988, "план": 23744, "инат": 22261, "ната": 23004, "ата ": 21008, "ана": 20899, "ана ": 20900, " и": 2776, "и ": 22112, " и ": 2777, "из": 22174, "зт": 22095, "то": 24582, "оч": 23674, "чн": 24981, "ия": 22385, "я ": 25207, " из": 2781, "изт": 22193, "точ": 24614, "очн": 23682, "чни": 24984, "ния": 23107, "ия ": 22386, "точн": 24615, "ния ": 23108, " к": 2807, "кр": 22571, "ай": 20830, "й ": 22398, " кр": 2838, "кра": 22572, "рай": 23882, "ай ": 20831, " кра": 2839, "край": 22573, " с": 3051, "са": 24178, "ам": 20885, "мо": 22916, "ок": 23447, "ко": 22516, "ов": 23302, "вс": 21363, "ск": 24234, "от": 23635, " са": 3055, "сам": 24182, "амо": 20895, "око": 23452, "ков": 22521, "овс": 23343, "вск": 21365, "ско": 24251, "кот": 22563, "ото": 23651, "то ": 24583, " сам": 3057, "само": 24183, "ковс": 22526, "овск": 23344, "вско": 21367, "скот": 24258, "кото": 22564, "ото ": 23652, "ле": 22666, "е.": 21665, "оле": 23464, "е. ": 21666, "съ": 24405, "ъщ": 25085, "що": 25050, " съ": 3109, "същ": 24411, "що ": 25051, " същ": 3112, " т": 3114, "ак": 20839, "ка": 22438, " та": 3115, "так": 24443, "ака": 20841, "ка ": 22439, " так": 3117, "така": 24445, "ака ": 20842, "се": 24199, " се": 3064, "се ": 24200, " се ": 3065, "ми": 22881, "ир": 22292, "нам": 22992, "ами": 20891, "мир": 22894, "ира": 22293, "ра ": 23853, " нам": 2908, "нами": 22993, "мира": 22895, "ира ": 22294, " б": 2572, "бл": 21105, "зо": 22080, "ос": 23601, "ст": 24328, "т ": 24425, " бл": 2584, "бли": 21110, "лиз": 22704, "изо": 22190, "ост": 23619, "ст ": 24329, " бли": 2585, "близ": 21111, "ост ": 23620, " д": 2678, "до": 21607, " до": 2702, "до ": 21608, " до ": 2703, "ини": 22266, "нит": 23095, "ните": 23096, "ви": 21248, "ош": 23684, "ша": 25000, "а,": 20723, " ви": 2614, "вит": 21269, "ито": 22342, "а, ": 20724, "ри": 23985, "ил": 22225, " ри": 3037, "рил": 24004, "ила": 22227, "ла ": 22644, "ила ": 22228, "ве": 21223, "ер": 21854, " ве": 2609, "вер": 21236, "ери": 21877, "ла,": 22645, " вер": 2612, "ла, ": 22646, " ка": 2809, "кат": 22462, "ато": 21021, " кат": 2816, "като": 22465, "ато ": 21022, "ся": 24420, "як": 25231, " вс": 2638, "вся": 21371, "яка": 25233, "ед": 21691, "дн": 21594, " ед": 2725, "едн": 21704, "дна": 21595, " едн": 2727, "една": 21705, "дна ": 21596, " о": 2935, " от": 2968, "от ": 23636, " от ": 2969, "тя": 24679, "ях": 25265, "х ": 24852, " тя": 3147, "тях": 24681, "ях ": 25266, " м": 2858, " мо": 2885, "мож": 22924, "же ": 21980, " мож": 2888, "може": 22925, "оже ": 23411, "да": 21499, " да": 2679, "да ": 21500, " да ": 2680, "бъ": 21162, "ъд": 25057, "де": 21534, " бъ": 2597, "ъде": 25058, "де ": 21535, "ид": 22153, "дя": 21656, "ян": 25246, "вид": 21252, "яна": 25247, " вид": 2616, "ис": 22303, "со": 24284, "ки": 22481, "вис": 21267, "исо": 22311, "сок": 24293, "оки": 23451, "кит": 22497, " вис": 2619, "висо": 21268, "исок": 22312, "ките": 22498, " ч": 3208, "ча": 24934, "ас": 20981, "ти": 24529, " ча": 3209, "час": 24942, "аст": 20994, "сти": 24352, "ти ": 24530, " час": 3210, "част": 24944, "асти": 20997, "сти ": 24353, "ел": 21760, "о.": 23275, "сел": 24209, "ело": 21774, "лот": 22765, "о. ": 23276, " сел": 3068, "село": 24211, "лото": 22766, "dia": 7489, "ian": 9680, "nte": 12771, "te ": 15986, " dia": 605, "dian": 7492, "iant": 9686, "ante": 5957, "nte ": 12772, "des": 7455, "tes": 16073, "es ": 8587, " des": 597, "dest": 7464, "este": 8655, "stes": 15679, "tes ": 16074, "os": 13578, "s,": 15175, "ger": 9154, "ere": 8462, "ren": 14493, "enc": 8295, "nci": 12289, "iam": 9677, "ame": 5817, "men": 11868, "ent": 8356, "nto": 12798, "tos": 16292, "os,": 13580, "s, ": 15176, " ger": 845, "gere": 9157, "eren": 8471, "renc": 14498, "enci": 8297, "ncia": 12291, "iame": 9679, "amen": 5820, "ment": 11877, "ento": 8364, "ntos": 12803, "tos,": 16294, "os, ": 13581, "od": 13056, "pod": 14011, "ode": 13066, "den": 7421, "end": 8299, "ndo": 12350, " pod": 1506, "pode": 14013, "oden": 13069, "dend": 7427, "endo": 8304, "ndo ": 12351, "se": 15289, " se": 1669, "ser": 15339, "er ": 8429, " ser": 1682, "ser ": 15340, "fe": 8901, "ei": 8049, "it": 10389, " fe": 775, "fei": 8911, "eit": 8094, "ito": 10431, "os ": 13579, " fei": 779, "feit": 8912, "eito": 8097, "itos": 10435, "tos ": 16293, " pe": 1477, "ela": 8150, " pel": 1480, "pela": 13896, "ela ": 8151, "ró": 15130, "óp": 18320, "pró": 14139, "pri": 14104, "ria": 14588, "ia ": 9657, " pró": 1532, "ria ": 14589, "mp": 12056, "emp": 8265, "mpr": 12080, "pre": 14094, "res": 14518, "esa": 8595, "sa ": 15188, " emp": 709, "empr": 8270, "mpre": 12081, "pres": 14100, "resa": 14522, "esa ": 8596, "(m": 4459, "ma": 11717, "ai": 5609, " (m": 48, "(ma": 4460, "mai": 11740, "ais": 5632, "is ": 10325, " (ma": 49, "mais": 11744, "ais ": 5633, "om": 13265, "mu": 12095, " co": 521, "com": 7116, "omu": 13311, " com": 527, "comu": 7125, "éd": 18169, "méd": 12134, "édi": 18170, " méd": 1282, "médi": 12135, "dia ": 7490, " gra": 873, "gran": 9282, "rand": 14318, "ande": 5887, "ndes": 12336, "des ": 7456, "s)": 15169, "sas": 15230, "s) ": 15170, "ou": 13661, " ou": 1448, "ou ": 13662, " ou ": 1449, "até": 6282, "té ": 16513, " até": 354, "até ": 6283, "sm": 15495, " me": 1224, "mes": 11886, "esm": 8631, "smo": 15503, "mo ": 12007, " mes": 1234, "mesm": 11889, "esmo": 8632, "smo ": 15504, "as ": 6159, "sas ": 15231, "rce": 14384, "cei": 6884, "eir": 8086, "ira": 10286, "ras": 14336, " ter": 1820, "terc": 16055, "erce": 8454, "eira": 8088, "ras ": 14337, "esp": 8637, "spe": 15574, "pec": 13885, "eci": 7882, "ial": 9672, "das": 7356, " esp": 735, "espe": 8639, "spec": 15575, "peci": 13886, "ecia": 7884, "cial": 7000, "iali": 9675, "aliz": 5741, "liza": 11419, "zada": 17770, "adas": 5493, "das ": 7357, " mo": 1254, "mon": 12031, "nit": 12567, "tor": 16282, "ora": 13482, "ram": 14308, "to ": 16240, " mon": 1260, "moni": 12034, "nito": 12571, "itor": 10434, "tora": 16284, "oram": 13487, "rame": 14311, "nto ": 12799, "ed": 7915, "red": 14451, "ede": 7925, " red": 1580, "rede": 14453, "(n": 4461, "no": 12641, "c)": 6780, " (n": 50, "noc": 12648, "tá": 16498, "áv": 18062, "l ": 11057, " no": 1339, "not": 12678, "áve": 18064, "vel": 17169, "el ": 8145, " not": 1349, "vel ": 17170, " o ": 1373, "nh": 12490, " ga": 822, "gan": 9089, "anh": 5907, "nho": 12497, "ho ": 9537, " gan": 826, "nho ": 12498, " ag": 263, "agi": 5576, "lid": 11343, "dad": 7322, "ade": 5496, "ilid": 10029, "lida": 11344, "idad": 9791, "dade": 7324, "ade ": 5497, "ef": 7979, "ên": 18234, " ef": 690, "efi": 7987, "fic": 8946, "ici": 9748, "ênc": 18235, "fici": 8949, "ênci": 18236, "cia ": 6998, "rol": 14828, "ol ": 13195, "rol ": 14829, "dos": 7625, " dos": 635, "dos ": 7626, "ob": 12991, "bj": 6630, "je": 10651, "iv": 10484, " ob": 1375, "obj": 13002, "bje": 6631, "jet": 10675, "eti": 8688, "tiv": 16200, "ivo": 10505, "vos": 17299, " obj": 1379, "obje": 13003, "tivo": 16205, "ivos": 10507, "vos ": 17300, " da ": 569, "sa.": 15191, "a. ": 5367, "r,": 14248, "bes": 6577, "ese": 8609, "sem": 15322, "eme": 8243, "mer": 11878, "er,": 8432, "r, ": 14249, " bes": 416, "esem": 8613, "seme": 15325, "er, ": 8433, ".,": 4598, " s.": 1641, "., ": 4599, "der": 7440, " der": 596, "der ": 7441, "t,": 15865, "gee": 9122, "ees": 7975, "st,": 15646, "t, ": 15866, " gee": 836, "eest": 7976, "st, ": 15647, "v.": 17109, "rr": 14905, "ay": 6369, "y,": 17593, " mu": 1267, "mur": 12111, "urr": 16959, "rra": 14906, "ray": 14357, "ay,": 6371, "y, ": 17594, " mur": 1273, "ay, ": 6372, " j": 1013, "j.": 10621, " j.": 1014, "jl": 10693, "ev": 8753, "d,": 7306, "bij": 6604, "lev": 11291, "eve": 8759, "ld,": 11186, "d, ": 7307, " bij": 425, "leve": 11293, "evel": 8761, "ld, ": 11187, "c.": 6784, "c. ": 6785, "j. ": 10622, " j. ": 1015, "h. ": 9367, "nd ": 12315, "and ": 5883, "gt": 9306, "n,": 12184, "far": 8890, "arr": 6121, "rri": 14915, "rin": 14648, "ing": 10149, "ngt": 12486, "gto": 9310, "ton": 16270, "on,": 13324, "n, ": 12185, " far": 768, "arri": 6124, "ring": 14654, "ingt": 10159, "ngto": 12487, "gton": 9311, "ton,": 16272, "on, ": 13325, "d.": 7309, " d.": 566, "d. ": 7310, " d. ": 567, "p.": 13825, " p.": 1459, "p. ": 13826, " p. ": 1460, "(2": 4432, "01": 4678, "11": 4755, "1)": 4736, " (2": 25, "(20": 4433, "201": 4960, "011": 4685, "1) ": 4737, " (20": 26, "2011": 4962, "th": 16092, " th": 1823, "the": 16097, " the": 1825, "the ": 16098, "sh": 15369, "ip": 10258, "rel": 14481, "lat": 11143, "nsh": 12727, "shi": 15375, "hip": 9505, "ip ": 10259, " rel": 1585, "rela": 14482, "elat": 8155, "lati": 11147, "ions": 10242, "onsh": 13394, "nshi": 12728, "ship": 15377, "hip ": 9506, "tw": 16463, "bet": 6581, "etw": 8719, "twe": 16466, "wee": 17410, "een": 7967, " bet": 417, "betw": 6583, "etwe": 8720, "twee": 16467, "ween": 17413, "een ": 7968, "are": 6072, "nta": 12759, "tal": 15917, "al ": 5688, " par": 1471, "pare": 13860, "aren": 6079, "rent": 14505, "enta": 8360, "ntal": 12765, "tal ": 15918, "im": 10062, "nm": 12607, " im": 974, "imp": 10093, "ris": 14670, "iso": 10363, "son": 15536, "nme": 12610, "nt ": 12753, " imp": 978, "impr": 10098, "pris": 14109, "riso": 14675, "ison": 10365, "nmen": 12611, "ent ": 8357, "of": 13114, "ff": 8931, "fs": 9035, " of": 1397, "off": 13118, "spr": 15589, "ng ": 12458, " off": 1400, "spri": 15592, "prin": 14107, "ing ": 10150, "ffe": 8933, "fen": 8915, "ndi": 12338, "din": 7521, "offe": 13119, "ffen": 8935, "fend": 8917, "endi": 8303, "ndin": 12345, "ding": 7525, "gl": 9222, "eng": 8314, "ngl": 12474, "gla": 9223, "lan": 11116, " eng": 716, "engl": 8317, "ngla": 12475, "land": 11120, "ds": 7663, " ne": 1312, "net": 12431, "eth": 8686, "erl": 8507, "nds": 12362, "ds.": 7667, "s. ": 15181, " net": 1327, "ethe": 8687, "ther": 16104, "erla": 8508, "rlan": 14718, "ands": 5891, "ds. ": 7668, "br": 6683, "h ": 9361, " br": 448, "bri": 6694, "rit": 14677, "iti": 10419, "tis": 16192, "ish": 10346, "sh ": 15370, " bri": 451, "brit": 6700, "riti": 14681, "itis": 10426, "ish ": 10347, "jo": 10703, "rn": 14762, " jo": 1042, "jou": 10715, "our": 13685, "urn": 16952, "rna": 14764, " jou": 1048, "jour": 10717, "ourn": 13687, "urna": 16953, "rnal": 14767, "nal ": 12223, "f ": 8866, "of ": 13115, " of ": 1398, "cr": 7167, "gy": 9339, " cr": 534, "cri": 7176, "rim": 14643, "imi": 10081, "min": 11945, "ino": 10182, "nol": 12655, "olo": 13239, "log": 11519, "ogy": 13143, " cri": 537, "crim": 7178, "rimi": 14646, "imin": 10084, "mino": 11953, "inol": 10184, "nolo": 12656, "olog": 13241, "logy": 11522, " 5": 192, "51": 5083, "1,": 4738, "1, ": 4739, " 4": 187, "41": 5045, "13": 4772, "3-": 5002, "-4": 4528, "43": 5049, "7.": 5146, "7. ": 5147, " म": 3874, "मह": 27827, "हा": 28275, "ार": 28415, "रा": 27974, "ाष": 28447, "ष्": 28171, "्ट": 28762, "ट्": 27447, "्र": 28827, "र,": 27916, " मह": 3879, "महा": 27830, "हार": 28281, "ारा": 28423, "राष": 27985, "ाष्": 28449, "ष्ट": 28174, "्ट्": 28769, "ट्र": 27448, "र, ": 27917, " महा": 3881, "राष्": 27986, "ाष्ट": 28450, "ष्ट्": 28176, "्ट्र": 28770, " १": 4013, "ई ": 27194, "१९": 28895, "० ": 28893, " १९": 4014, " क": 3657, "को": 27298, "ो ": 28711, " को": 3690, "को ": 27299, " को ": 3691, " भ": 3865, "भा": 27795, "रत": 27932, "त ": 27477, " भा": 3866, "भार": 27798, "ारत": 28420, "रत ": 27933, " भार": 3868, "भारत": 27799, "ारत ": 28421, "का": 27268, "ा ": 28336, " का": 3672, "का ": 27269, " का ": 3673, " र": 3907, "ाज": 28363, "ज्": 27422, "्य": 28815, "य ": 27867, " रा": 3913, "राज": 27977, "ाज्": 28364, "ज्य": 27425, "्य ": 28816, " राज": 3914, "राज्": 27978, "ाज्य": 28365, "ज्य ": 27426, " ब": 3844, "बन": 27766, "ना": 27645, "ाय": 28410, "या": 27887, " बन": 3850, "बना": 27767, "नाय": 27652, "ाया": 28412, "या ": 27888, " बना": 3851, "ाया ": 28413, " ग": 3700, "गय": 27335, " गय": 3705, "गया": 27336, " गया": 3706, "गया ": 27337, " थ": 3768, "था": 27539, "ा।": 28460, "। ": 28892, " था": 3769, "था।": 27546, "ा। ": 28461, " था।": 3771, "था। ": 27547, " इ": 3618, "इस": 27188, "स ": 28177, " इस": 3622, "इस ": 27189, " इस ": 3623, " द": 3776, "दि": 27577, "िन": 28495, "न ": 27624, " दि": 3782, "दिन": 27579, "िन ": 28496, " दिन": 3783, " ह": 3994, "हम": 28269, "म ": 27811, " हम": 3995, "र ": 27915, "्र ": 28828, "के": 27293, "े ": 28636, " के": 3685, "के ": 27294, " के ": 3686, "भी": 27806, "ी ": 28548, " भी": 3870, "भी ": 27807, " भी ": 3871, " न": 3799, "ाम": 28404, " ना": 3802, "नाम": 27650, "ाम ": 28405, " नाम": 3803, "नाम ": 27651, " स": 3961, "से": 28246, " से": 3988, "से ": 28247, " से ": 3989, " ज": 3722, "जा": 27398, "ान": 28386, "नत": 27634, "ते": 27512, " जा": 3732, "जान": 27405, "ते ": 27513, " जान": 3735, "है": 28302, "ै।": 28703, " है": 4004, "है।": 28310, "ै। ": 28704, " है।": 4008, "है। ": 28311, " श": 3952, "शु": 28147, "ुर": 28607, "रू": 28003, "ू ": 28618, " शु": 3957, "शुर": 28148, "ुरू": 28610, " शुर": 3958, "मे": 27854, "ें": 28639, "ं ": 27088, " मे": 3890, "में": 27855, "ें ": 28640, " में": 3891, "में ": 27856, " २": 4015, "जि": 27407, "िल": 28519, "ले": 28058, " जि": 3736, "िले": 28523, "ले ": 28059, "थे": 27555, "े।": 28681, " थे": 3774, "थे।": 27556, "े। ": 28682, " थे।": 3775, "थे। ": 27557, " उ": 3628, "उस": 27213, "सक": 28190, " उस": 3639, "उसक": 27215, "सके": 28198, " उसक": 3641, "उसके": 27216, "सके ": 28199, "बा": 27777, "ाद": 28383, "द ": 27560, " बा": 3854, "बाद": 27778, "ाद ": 28384, " बाद": 3855, "बाद ": 27779, "ये": 27907, "ये ": 27908, "ाए": 28354, "एँ": 27218, "ँ ": 27087, " व": 3932, "वर": 28082, "र्": 28014, "्त": 28775, "तम": 27488, "मा": 27831, " वर": 3934, "वर्": 28084, "र्त": 28022, "मान": 27836, "ान ": 28387, " वर्": 3935, "वर्त": 28085, "मान ": 27837, "इन": 27186, " इन": 3620, "इन ": 27187, " इन ": 3621, "लो": 28064, "ों": 28712, "लों": 28065, "ों ": 28713, "लों ": 28066, " छ": 3719, "ह ": 28263, " प": 3813, "प्": 27734, "शा": 28139, "ास": 28451, "सन": 28202, "नि": 27653, "िक": 28468, "क ": 27232, " प्": 3836, "प्र": 27737, "शास": 28142, "निक": 27654, "िक ": 28469, " प्र": 3837, "निक ": 27655, "वि": 28107, "िभ": 28500, "ाग": 28360, "गो": 27348, " वि": 3941, "विभ": 28115, "िभा": 28501, "भाग": 27796, "गों": 27349, " विभ": 3945, "गों ": 27350, "ित": 28481, "ित ": 28482, "कि": 27276, "िय": 28505, " कि": 3676, "किय": 27280, "िया": 28507, " किय": 3678, "किया": 27281, "िया ": 28508, "av": 6327, "vi": 17218, "nav": 12257, "avi": 6339, "vid": 17225, "ad ": 5482, " nav": 1310, "navi": 12258, "avid": 6341, "vida": 17227, "dad ": 7323, "74": 5157, "4,": 5035, "974": 5291, "4, ": 5036, "1974": 4893, "poc": 14006, "oco": 13044, " poc": 1505, "oco ": 13045, "ué": 17079, "és": 18215, "spu": 15593, "pué": 14176, "ués": 17080, "és ": 18216, "desp": 7462, "espu": 8643, "spué": 15595, "pués": 14177, "ués ": 17081, " q": 1558, "qu": 14219, "ue": 16664, " qu": 1559, "que": 14228, "ue ": 16665, " que": 1562, "que ": 14229, "rp": 14895, "tó": 16524, "ó ": 18307, "int": 10197, "erp": 8527, "rpr": 14900, "ret": 14531, "tó ": 16525, " int": 989, "inte": 10201, "nter": 12780, "terp": 16064, "erpr": 8528, "rpre": 14901, "pret": 14101, "ió": 10570, "ón": 18315, "can": 6816, "ció": 7052, "ión": 10572, "ón ": 18316, " can": 485, "canc": 6819, "anci": 5880, "ción": 7053, "ión ": 10573, "cé": 7278, "lí": 11674, "íc": 18253, "cu": 7213, "ul": 16767, "líc": 11676, "cul": 7225, "ula": 16772, "cula": 7227, "ula ": 16773, "pi": 13941, "pap": 13854, "api": 6004, "pil": 13955, "ill": 10040, "llo": 11470, " pap": 1470, "illo": 10045, "lon ": 11528, "(t": 4469, "i ": 9639, " (t": 58, "oi ": 13154, "ui": 16717, "qui": 14235, "ui ": 16718, " qui": 1563, "qui ": 14236, "reg": 14461, " reg": 1582, "rega": 14462, "r)": 14246, ").": 4492, "er)": 8430, "). ": 4493, " mer": 1233, " el": 699, "lla": 11442, " ell": 704, "ella": 8196, "lla ": 11443, "rá": 15097, "á ": 18009, "tar": 15943, "ará": 6149, "rá ": 15098, "cant": 6822, "anta": 5956, "ntar": 12768, "pl": 13978, "lé": 11669, "én": 18193, "spl": 15583, "did": 7498, "ndid": 12342, "dida": 7499, "ida ": 9790, "ver": 17189, "rsi": 14936, "sió": 15447, " ver": 1927, "vers": 17204, "ersi": 8541, "sión": 15448, " gl": 859, "glo": 9237, "lor": 11537, "ori": 13517, " glo": 863, "lori": 11541, "oria": 13519, "uy": 17062, "ale": 5713, "lel": 11250, "elu": 8217, "uya": 17063, "ya ": 17599, " ale": 284, "alel": 5717, "ara": 6040, "ra ": 14260, "para": 13858, "ara ": 6041, " un": 1890, "una": 16830, " una": 1893, "una ": 16831, " mi": 1238, "mis": 11958, " mis": 1247, "isa ": 10332, "med": 11844, "edi": 7929, "ano": 5940, "och": 13031, " med": 1226, "medi": 11847, "edia": 7930, "iano": 9685, "noch": 12649, "oche": 13033, "eb": 7842, " ce": 492, "cel": 6886, "ele": 8162, "leb": 11220, "ebr": 7858, "bra": 6684, "rad": 14279, " cel": 495, "cele": 6889, "eleb": 8165, "lebr": 11222, "ebra": 7859, "rada": 14281, "ada ": 5488, "tl": 16212, "l.": 11082, "rtl": 14990, "l. ": 11083, "ма": 22832, "ар": 20954, " ма": 2861, "мар": 22845, "ара": 20956, "рат": 23901, " мар": 2866, "(н": 4479, " (н": 68, "(на": 4480, " (на": 69, "(на ": 4481, "ал": 20857, "иа": 22121, "нс": 23179, "и:": 22118, " ит": 2800, "ита": 22331, "тал": 24449, "али": 20867, "иан": 22125, "анс": 20931, "нск": 23182, "ски": 24240, "ки:": 22487, "и: ": 22119, " ита": 2801, "итал": 22332, "тали": 24452, "анск": 20932, "нски": 23184, "ски:": 24242, "ки: ": 22488, "a,": 5362, " ma": 1207, "mar": 11776, "rat": 14341, "ate": 6227, "tea": 15992, "ea,": 7803, "a, ": 5363, " mar": 1219, "mara": 11778, "arat": 6053, "rate": 14344, "atea": 6231, "ea, ": 7804, "ме": 22859, "ес": 21902, "н ": 22965, " ме": 2869, "мес": 22875, "ест": 21915, "сте": 24347, "тен": 24512, "ен ": 21802, " мес": 2874, "мест": 22876, "есте": 21918, "стен": 24349, "тен ": 24513, "ди": 21566, "ек": 21746, "кт": 22591, " ди": 2698, "иал": 22122, "але": 20862, "лек": 22680, "ект": 21756, "кт ": 22592, "алек": 20865, "лект": 22682, "ath": 6240, "thi": 16108, "hia": 9476, "ia,": 9659, "ia, ": 9660, "я)": 25208, "ати": 21014, "тия": 24559, "рати": 23904, " г": 2656, "гр": 21475, "ад": 20778, "д ": 21494, " гр": 2672, "гра": 21476, "рад": 23867, "ад ": 20779, " гра": 2673, "град": 21478, "об": 23278, "бщ": 21158, "щи": 25044, " об": 2937, "общ": 23296, "бщи": 21160, "щин": 25045, " общ": 2943, "общи": 23298, "бщин": 21161, "щина": 25046, "ина ": 22259, " ю": 3238, "юж": 25187, "жн": 21997, "жна": 21998, "я,": 25209, "лия": 22727, "ия,": 22387, "я, ": 25210, "ия, ": 22388, "пр": 23788, "ро": 24052, "нц": 23216, "ци": 24898, " пр": 3007, "про": 23810, "ров": 24058, "ови": 23321, "вин": 21263, "инц": 22278, "нци": 23218, "ция": 24908, " про": 3011, "пров": 23813, "рови": 24062, "овин": 23324, "инци": 22279, "нция": 23219, "ция ": 24909, "ца": 24884, "пот": 23784, "оте": 23643, "енц": 21835, " пот": 3005, "ре": 23938, "ег": 21684, "ги": 21438, "ио": 22284, "он": 23517, " ре": 3031, "рег": 23946, "еги": 21686, "гио": 21441, "ион": 22286, "он ": 23518, " рег": 3033, "реги": 23947, "егио": 21687, "гион": 21442, "ба": 21082, "зи": 22057, "ик": 22208, "а.": 20726, " ба": 2573, "баз": 21086, "ази": 20814, "или": 22231, "лик": 22708, "ика": 22210, "та.": 24434, "а. ": 20727, " баз": 2575, "лика": 22709, "ката": 22463, "ата.": 21010, "та. ": 24435, " 3": 171, "30": 5005, " 30": 175, "300": 5007, " 300": 177, "300 ": 5008, " m ": 1204, "дм": 21592, "ор": 23561, "рс": 24111, "над": 22980, "адм": 20788, "мор": 22932, "орс": 23592, "рск": 24113, "ска": 24235, " над": 2904, "орск": 23593, "рска": 24114, "ска ": 24236, "чи": 24964, "очи": 23680, "чин": 24968, "на.": 22974, "очин": 23681, "чина": 24969, "на. ": 22975, "ие": 22159, "ет": 21923, "нас": 23000, "асе": 20984, "еле": 21764, "лен": 22686, "ени": 21809, "ние": 23070, "иет": 22169, "ето": 21933, " нас": 2911, "насе": 23001, "асел": 20985, "селе": 24210, "елен": 21766, "лени": 22689, "ение": 21811, "ниет": 23074, "ието": 22170, "ето ": 21934, "5 ": 5067, " 5 ": 193, "14": 4780, "1 ": 4734, " 14": 105, "41 ": 5046, "ду": 21643, "уш": 24808, "ши": 25008, " ду": 2714, "душ": 21647, "ши ": 25009, "(к": 4477, "къ": 22623, "ъм": 25069, "м ": 22825, " (к": 66, "към": 22624, "ъм ": 25070, "към ": 22625, "12": 4763, "2 ": 4931, "012": 4687, "12 ": 4764, " 201": 152, "2012": 4963, "012 ": 4688, "г.": 21418, " г.": 2657, ".).": 4596, ".). ": 4597, "rg": 14558, "hir": 9507, "iru": 10323, "urg": 16937, "rgi": 14569, "gie": 9195, " chi": 503, "chir": 6947, "urgi": 16940, "gie ": 9196, "omp": 13301, "ena": 8285, "nan": 12232, "comp": 7124, "ompr": 13307, "pren": 14099, "rena": 14497, "enan": 8288, "nant": 12237, "ant ": 5955, "inc": 10122, "cip": 7035, "ipa": 10260, "pal": 13843, "lem": 11251, " pri": 1526, "rinc": 14651, "inci": 10124, "ncip": 12296, "cipa": 7036, "ipal": 10261, "pale": 13846, "alem": 5718, "leme": 11254, "emen": 8248, "'a": 4367, "l'a": 11059, "abl": 5412, "bla": 6634, " l'a": 1132, " tu": 1855, "tum": 16437, "ume": 16815, "meu": 11898, "eur": 8738, "ur,": 16912, "ur, ": 16913, "ép": 18199, "hr": 9568, "ct": 7188, " né": 1364, "hre": 9573, "ect": 7902, "cto": 7201, "tom": 16264, "omi": 13283, "mie": 11927, "rect": 14449, "ecto": 7907, "tomi": 16268, "omie": 13286, "mie ": 11928, "él": 18184, " él": 2150, "arg": 6081, "larg": 11135, "(c": 4443, " (c": 33, "(co": 4445, " (co": 35, " le": 1150, " le ": 1151, "us": 16969, " pl": 1497, "plu": 13995, "lus": 11636, "us ": 16970, " plu": 1500, "plus": 13996, "lus ": 11637, "sou": 15557, "ouv": 13697, "ven": 17179, " sou": 1729, "ouve": 13698, "uven": 17050, "vent": 17187, " su": 1752, "sur": 15783, "éna": 18195, " sur": 1766, "nale": 12225, "ale ": 5714, "les": 11275, " les": 1159, "les ": 11276, "ang": 5900, "gli": 9230, "gang": 9091, "angl": 5905, "ngli": 12477, "glio": 9235, "lion": 11389, "sit": 15431, "itu": 10446, " sit": 1704, "situ": 15435, " à": 2128, "à ": 18008, " à ": 2129, "ox": 13769, "xi": 17562, "rox": 14887, "oxi": 13770, "xim": 17565, "mit": 11965, "ité": 10464, "imit": 10085, "ès": 18153, "ès ": 18154, "nn": 12615, "ée": 18171, "ann": 5931, "nné": 12639, "née": 12903, "ées": 18173, " ann": 310, "anné": 5939, "nnée": 12640, "nées": 12904, "ées ": 18174, "92": 5224, "192": 4840, "920": 5226, " 192": 135, "1920": 4841, "mm": 11987, "omm": 13290, "mmu": 11998, "mun": 12106, "une": 16847, "nes": 12423, "comm": 7122, "ommu": 13295, "mmun": 11999, "mune": 12109, "unes": 16851, "nes ": 12424, "isi": 10349, "ine": 10135, " voi": 1949, "isin": 10352, "sine": 15421, "ines": 10144, "d'a": 7297, "'ar": 4372, "arn": 6110, "rno": 14780, "nou": 12682, "vil": 17237, " d'a": 561, "d'ar": 7298, "nouv": 12684, "vill": 17239, "ille": 10043, "lle,": 11451, "nv": 12848, " go": 864, "gou": 9271, "ous": 13689, "uss": 16996, "ssa": 15610, "sai": 15203, "ain": 5618, "inv": 10207, "nvi": 12854, " gou": 870, "sain": 15204, "ne ": 12374, " une": 1895, "une ": 16848, "oin": 13158, "dre": 7650, "indr": 10133, "ndre": 12359, "dre ": 7651, "esu": 8663, "ure": 16931, "sure": 15785, "ure ": 16932, "vr": 17306, " lo": 1180, "lou": 11550, "uvr": 17053, "vre": 17308, "es,": 8590, " lou": 1189, "uvre": 17054, "res,": 14520, "es, ": 8591, "rv": 15042, "ess": 8646, "sse": 15615, "erv": 8559, "rvi": 15048, "vie": 17229, "ies": 9879, "dess": 7463, "esse": 8649, "sser": 15620, "serv": 15345, "ervi": 8562, "rvie": 15050, "ies ": 9880, "par ": 13857, "gn": 9242, " li": 1163, "lig": 11358, "ign": 9938, "gne": 9245, " lig": 1169, "igne": 9941, "gne ": 9246, "ov": 13708, "fer": 8919, "err": 8529, "rro": 14920, "rov": 14878, "ovi": 13720, "via": 17220, "iai": 9670, "air": 5629, " fer": 782, "ferr": 8925, "erro": 8533, "rovi": 14881, "aire": 5631, "s-": 15177, "-l": 4557, "ari": 6084, "lil": 11372, "pari": 13861, "aris": 6091, "nu": 12822, "con": 7126, "onn": 13374, "nnu": 12636, "nur": 12843, " con": 528, "conn": 7133, "uren": 16934, "ex": 8784, "xp": 17571, " ex": 750, "exp": 8793, "pan": 13850, "nsi": 12729, "sio": 15424, " exp": 755, "nsio": 12733, "sion": 15425, "dé": 7735, "iq": 10277, " dé": 660, "dém": 7737, "mog": 12020, "iqu": 10278, "ique": 10279, "cta": 7190, "tac": 15885, "acu": 5472, "lai": 11108, " spe": 1734, "pect": 13887, "ecta": 7904, "acul": 5473, "lair": 11110, "c ": 6778, " av": 364, "ave": 6334, "vec": 17161, "ec ": 7865, " ave": 366, "avec": 6336, "vec ": 17162, "éa": 18160, "cré": 7185, "réa": 15115, " cré": 540, "mb": 11808, "ux": 17060, "x ": 17548, "nom": 12657, "omb": 13272, "mbr": 11823, "bre": 6690, "reu": 14539, "eux": 8751, "ux ": 17061, " nom": 1344, "nomb": 12659, "ombr": 13275, "mbre": 11824, "eux ": 8752, "lot": 11549, "oti": 13640, "nts": 12812, "ts ": 16373, " lot": 1188, "isse": 10371, "ssem": 15618, "ents": 8366, "nts ": 12813, "ban": 6498, "anl": 5925, "nli": 12602, "eue": 8730, "ue.": 16668, " ban": 393, "ue. ": 16669, "dem": 7415, "rée": 15118, "ée ": 18172, " dem": 593, "deme": 7418, "'é": 4415, "l'é": 11075, "éca": 18164, "car": 6828, "art": 6133, " l'é": 1138, "cart": 6836, "art ": 6134, "du": 7675, " du": 647, "du ": 7676, " du ": 648, "hem": 9448, "emi": 8249, " che": 502, "chem": 6934, "emin": 8254, "min ": 11946, "fer ": 8920, "l'i": 11069, "ndu": 12365, "dus": 7701, "ust": 17001, "tri": 16337, "lis": 11397, "sat": 15232, " l'i": 1135, "l'in": 11070, "indu": 10134, "ndus": 12367, "dust": 7702, "ustr": 17007, "stri": 15714, "tria": 16339, "rial": 14592, "alis": 5739, "lisa": 11399, "isat": 10334, "sati": 15234, "sta": 15651, "tai": 15905, "ait": 5637, "it ": 10390, " res": 1590, "rest": 14529, "esta": 8654, "tait": 15908, "ait ": 5638, " un ": 1891, " vi": 1931, "lag": 11104, "age": 5568, "ge ": 9110, " vil": 1936, "illa": 10042, "llag": 11444, "lage": 11105, "age ": 5569, "agr": 5589, "gri": 9291, "ric": 14597, "ico": 9764, "col": 7110, "ole": 13211, " agr": 267, "rico": 14604, "icol": 9768, "cole": 7112, "ole ": 13212, "s'": 15167, " s'": 1638, "ppa": 14073, "pau": 13874, "vri": 17310, "appa": 6013, "rit ": 14678, "t.": 15869, "rog": 14816, "gre": 9286, "ssi": 15622, "siv": 15439, "ive": 10492, "vem": 17176, "nt.": 12757, "t. ": 15870, "prog": 14117, "rogr": 14818, "gres": 9290, "ress": 14528, "essi": 8650, "ssiv": 15631, "sive": 15441, "veme": 17178, "ent.": 8359, "nt. ": 12758, "bre ": 6691, "mme": 11991, "ces": 6907, "omme": 13292, "mmer": 11994, "merc": 11881, "ces ": 6908, "pass": 13868, "assa": 6191, "ssa ": 15611, "ua": 16577, "e-": 7791, "-v": 4577, "t-": 15867, "qua": 14222, "uat": 16597, "atr": 6262, "re-": 14432, "vin": 17241, " qua": 1561, "quat": 14227, "uatr": 16598, "atre": 6264, "ving": 17245, "tre ": 16328, "18": 4817, "89": 5200, "96": 5270, " 18": 118, "189": 4828, "96 ": 5271, " 189": 129, "seu": 15352, "eul": 8734, "ule": 16779, " seu": 1685, "ix": 10511, "x-": 17551, "-h": 4553, "hu": 9605, "hui": 9608, "uit": 16743, "uit ": 16744, "64": 5124, "4.": 5039, "196": 4877, "964": 5277, "4. ": 5040, " 196": 139, "1964": 4882, "mê": 12141, "êm": 18231, " mê": 1283, "mêm": 12142, "ême": 18232, " mêm": 1284, "même": 12143, "ême ": 18233, "hé": 9633, " ph": 1486, "se ": 15290, " se ": 1670, "rod": 14805, "odu": 13090, "dui": 7688, "uis": 16740, "prod": 14115, "rodu": 14809, "isit": 10354, " au": 355, "aut": 6321, "utr": 17030, " aut": 362, "autr": 6324, "utre": 17032, "tres": 16335, "res ": 14519, "ages": 5573, "ges ": 9162, "ys": 17711, "pay": 13876, "ays": 6388, "ys ": 17712, " pay": 1475, "ays ": 6389, "non": 12663, " non": 1345, "non ": 12664, "vis": 17250, "oie": 13157, " 세": 4178, "의 ": 29825, " 생": 4173, " 모": 4137, " 번": 4154, " 본": 4157, " 간": 4032, "도 ": 29624, "것이": 29539, "이다": 29836, " 것이": 4045, "이다.": 29837, "이다. ": 29838, " 호": 4333, " 대": 4090, "대한": 29615, " 대한": 4091, "대한 ": 29616, " 대한 ": 4092, " 분": 4160, " 여": 4210, " 이": 4233, "이어": 29846, "어 ": 29772, " 아": 4194, " 유": 4227, " 연": 4212, "면서": 29709, "면서 ": 29710, "이후": 29855, "에도": 29788, " 이후": 4237, "에도 ": 29789, " 기": 4072, "러 ": 29669, " 미": 4143, "용하": 29808, "하여": 29942, "여 ": 29795, "하여 ": 29943, " 오": 4216, "려 ": 29672, "다 ": 29594, " 더": 4093, " 작": 4258, "고 ": 29543, " 단": 4085, "리아": 29693, " 바": 4145, "스가": 29744, "스가 ": 29745, "되는": 29627, "되는 ": 29628, "것이 ": 29540, " 많": 4130, "그러": 29559, "러나": 29670, " 그러": 4066, "그러나": 29560, "러나 ": 29671, " 그러나": 4067, "그러나 ": 29561, "은 ": 29823, " 원": 4223, "이며": 29845, "며 ": 29703, " 우": 4221, " 같": 4035, "같은": 29533, " 같은": 4036, "같은 ": 29534, " 같은 ": 4037, " 진": 4281, "아니": 29762, " 가": 4028, "가장": 29528, "장 ": 29881, " 가장": 4029, "가장 ": 29529, " 가장 ": 4030, "운 ": 29810, " 예": 4215, " 자": 4255, "주 ": 29897, "진 ": 29911, "my": 12120, "yc": 17623, "sac": 15193, "acc": 5430, "cch": 6860, "har": 9400, "rom": 14835, "omy": 13313, " sac": 1646, "char": 6928, "cer": 6901, "rev": 14540, "evi": 8764, "sia": 15384, " cer": 497, "cere": 6905, "revi": 14542, "evis": 8768, "visi": 17251, "zo": 17901, " sc": 1659, "izo": 10541, "zos": 17914, "osa": 13584, " sch": 1662, "schi": 15261, "pom": 14032, "mbe": 11813, " pom": 1512, "uf": 16691, "l'u": 11073, "uff": 16694, "ffi": 8937, "cio": 7031, "io ": 10222, " l'u": 1137, "ffic": 8938, "icio": 9754, "cio ": 7032, "tt": 16386, "az": 6394, "zi": 17851, "oge": 13127, "get": 9166, "ett": 8713, "tta": 16388, "taz": 15970, "azi": 6402, "zio": 17873, "one": 13346, "ne,": 12376, "roge": 14817, "oget": 13129, "gett": 9167, "etta": 8714, "tazi": 15971, "azio": 6403, "zion": 17874, "ione": 10239, "one,": 13348, "ne, ": 12377, "emb": 8238, " sem": 1679, "semb": 15324, "embr": 8242, "bra ": 6685, " or": 1431, "orm": 13534, "rma": 14737, "ai ": 5610, "orma": 13536, "mai ": 11741, "o,": 12967, "rto": 14992, "to,": 16241, "o, ": 12968, "cert": 6906, "erto": 8552, "to, ": 16242, "si ": 15381, " si ": 1695, "sf": 15362, "rà": 15095, " tr": 1848, "tra": 16311, "asf": 6173, "sfe": 15363, "eri": 8486, "rir": 14669, "rà ": 15096, " tra": 1849, "tras": 16323, "sfer": 15364, "feri": 8922, "erir": 8499, " a ": 223, "oa": 12976, "oal": 12980, "ale,": 5715, "ntr": 12804, " men": 1232, "entr": 8365, "ntre": 12807, "all": 5743, " all": 287, "alla": 5746, "fin": 8964, " fin": 791, "fine": 8968, "ine ": 10136, "nno": 12631, "no ": 12642, "anno": 5936, "nno ": 12632, "ono": 13377, "part": 13865, "arto": 6139, "tono": 16276, "ono ": 13378, " i ": 953, "lav": 11152, "avo": 6347, "vor": 17296, "ri ": 14583, " lav": 1148, "lavo": 11154, "avor": 6349, "ori ": 13518, "di ": 7486, " di ": 604, " ri": 1596, "tru": 16356, "rut": 15040, "utt": 17036, "ttu": 16412, "ura": 16917, "raz": 14358, " ris": 1604, "rist": 14676, "istr": 10382, "stru": 15716, "trut": 16361, "ttur": 16413, "tura": 16443, "razi": 14360, "one ": 13347, "deg": 7403, "egl": 8018, "li ": 11321, " deg": 590, "degl": 7404, "egli": 8020, "gli ": 9231, " st": 1741, "abi": 5409, "bil": 6606, "lim": 11373, "ime": 10075, "ti ": 16122, " sta": 1743, "stab": 15655, "tabi": 15883, "abil": 5410, "bili": 6610, "lime": 11375, "imen": 10078, "enti": 8362, "nti ": 12784, " via": 1932, "via ": 17221, "odi": 13071, "paro": 13864, "arod": 6115, "57": 5095, "7,": 5143, "7, ": 5144, "con ": 7127, "tto": 16407, "etto": 8717, "tto ": 16408, "onc": 13337, "conc": 7128, "once": 13338, "nces": 12285, "cess": 6909, "ssio": 15629, " ed": 682, "dil": 7516, "izi": 10535, "zia": 17853, " edi": 685, "edil": 7932, "izia": 10536, "zia ": 17854, " gi": 852, " ap": 318, "pes": 13920, " app": 322, "ese ": 8610, "'e": 4383, "sul": 15769, "ull": 16786, "ll'": 11434, "l'e": 11065, "'es": 4386, "ern": 8516, " sul": 1761, "sull": 15771, "ll'e": 11436, "l'es": 11067, "'est": 4387, "tern": 16062, "erno": 8521, "rno ": 14781, " del": 592, "dell": 7414, "bb": 6527, "fab": 8873, "abb": 5400, "ica": 9719, "ca.": 6790, " fab": 761, "bric": 6695, "rica": 14599, "ica.": 9722, "ca. ": 6791, "'o": 4404, "op": 13440, "l'o": 11071, "ope": 13445, "per": 13908, "era": 8437, " l'o": 1136, "oper": 13448, "pera": 13910, "ha ": 9369, " ha ": 896, "cau": 6850, "aus": 6314, "usa": 16975, "ato": 6257, " cau": 490, "caus": 6851, "ausa": 6316, "ato ": 6258, "mess": 11890, "essa": 8648, "cas": 6837, " cas": 488, "teg": 16006, "egr": 8027, "nteg": 12776, "tegr": 16009, "egra": 8028, "bu": 6721, "uo": 16886, " bu": 454, "rte": 14967, "arte": 6136, "rte ": 14968, "mpi": 12066, "pie": 13952, "ieg": 9832, "gat": 9100, "impi": 10095, "egat": 8004, "gati": 9101, "ati ": 6244, "il ": 10005, " il ": 970, "sor": 15551, "org": 13514, "rge": 14564, " sor": 1727, "orge": 13516, "rger": 14567, "ere ": 8463, " nu": 1353, "num": 12833, "ero": 8522, "ros": 14858, "ose": 13588, " num": 1356, "nume": 12835, "umer": 16819, "mero": 11884, "eros": 8526, "rose": 14861, "ose ": 13589, "pol": 14025, "mic": 11918, "ich": 9739, " pol": 1511, "pole": 14027, "emic": 8252, "mich": 11921, "iche": 9743, "au ": 6291, " au ": 356, "avr": 6350, "ril": 14636, " avr": 368, "ril ": 14637, "17": 4804, "017": 4700, "2017": 4968, "vic": 17222, "rvic": 15049, "vice": 17223, "ices": 9738, "asa": 6164, "sam": 15213, "ama": 5802, "ma ": 11718, "ama ": 5803, "ont": 13399, " son": 1725, "sont": 15546, "ont ": 13400, " ac": 237, "act": 5466, "ctu": 7209, "tue": 16429, "uel": 16673, " act": 243, "actu": 5471, "uell": 16676, "llem": 11455, "eff": 7985, "fec": 8907, " eff": 691, "effe": 7986, "ffec": 8934, "fect": 8908, "ectu": 7909, "nk": 12585, " sh": 1690, "ink": 10173, "nka": 12587, "nse": 12719, "sen": 15329, "shin": 15376, "anse": 5950, "nsen": 12723, "sen ": 15330, "sé": 15826, " sé": 1782, "sér": 15832, "éri": 18211, "rie": 14609, " sér": 1784, "séri": 15833, "érie": 18213, "rie ": 14610, "7 ": 5139, "99": 5311, "199": 4910, "997": 5325, "97 ": 5286, " 199": 142, "1997": 4918, "997 ": 5326, "ls": 11568, "ils": 10055, "ls ": 11569, "ils ": 10056, "ét": 18220, " ét": 2154, "éta": 18221, "aie": 5613, "ien": 9855, " éta": 2155, "étai": 18222, "ient": 9863, "ég": 18176, " ég": 2149, "éga": 18177, "gal": 9084, "égal": 18178, "gale": 9085, "2.": 4942, "2. ": 4943, "ins": 10190, "ses": 15346, "inse": 10193, "ses ": 15347, "wa": 17367, " wa": 1974, "was": 17393, " was": 1978, "was ": 17394, "als": 5765, " als": 291, "als ": 5766, "rf": 14552, "fg": 8941, " er": 724, "erf": 8474, "fge": 8942, "gen": 9138, "nam": 12229, " erf": 727, "gena": 9142, "name": 12230, "ame ": 5818, "len": 11255, "olen": 13214, "len ": 11256, " een": 688, "oe": 13100, "oed": 13102, "ede ": 7926, "j ": 10618, "rti": 14982, "tij": 16156, "ij ": 9972, "arti": 6138, "bo": 6652, "oh": 13144, "ms": 12088, " bo": 437, "boh": 6660, "ohe": 13147, "hee": 9438, "eem": 7966, "ems": 8271, " boh": 440, "ko": 10909, " ko": 1100, "kon": 10920, "nin": 12549, " kon": 1103, "koni": 10924, "onin": 13368, "ning": 12551, "wen": 17426, "lau": 11149, " wen": 1987, "ence": 8296, "laus": 11151, "aus ": 6315, "ii": 9959, " ii": 964, "ii.": 9963, "ii. ": 9964, " 13": 103, "130": 4778, " z": 2059, "ze": 17804, " ze": 2079, "ze ": 17805, " ze ": 2080, "aar": 5386, "naar": 12201, "aar ": 5387, "men ": 11869, "geb": 9116, "rac": 14271, " geb": 834, "gebr": 9120, "brac": 6686, "rach": 14273, " er ": 725, "pg": 13930, " op": 1427, "gev": 9168, "evo": 8771, "voe": 17279, "ed ": 7916, " ta": 1799, "tan": 15932, " tan": 1804, "tant": 15940, "uw": 17055, "wd": 17405, " hu": 948, "toe": 16254, "oen": 13107, " toe": 1839, "oen ": 13108, "7-": 5145, "-j": 4555, " 17": 113, "jar": 10643, "ige": 9925, "rige": 14624, "ige ": 9926, "ez": 8811, "zz": 17963, "ezz": 8824, "zza": 17964, "za ": 17763, " ric": 1597, "rich": 14601, "ezza": 8825, "zza ": 17965, "met": 11891, " met": 1235, "met ": 11892, "32": 5011, "2-": 4940, " 32": 180, "i,": 9648, "ii,": 9961, "i, ": 9649, "ii, ": 9962, " die": 607, "die ": 7502, "aas": 5389, "ast": 6196, "ast ": 6197, "ok": 13177, " oo": 1425, "ook": 13424, "ok ": 13178, " ook": 1426, "ook ": 13425, "ew": 8774, "wo": 17486, "gew": 9169, "ewo": 8781, "wor": 17499, "ord": 13498, "en.": 8283, " gew": 849, "gewo": 9171, "word": 17500, "orde": 13501, "rden": 14410, "den.": 7424, "en. ": 8284, "rvo": 15053, "vol": 17283, "olg": 13219, "verv": 17206, "ervo": 8563, "volg": 17285, "olge": 13220, "lgen": 11311, "gens": 9147, "ens ": 8347, "hen": 9451, "dri": 7654, "rik": 14633, " hen": 919, "hend": 9453, "endr": 8305, "ndri": 12360, "rik ": 14634, "wü": 17543, "ür": 18425, "rb": 14370, "rbe": 14373, "ben": 6565, "en,": 8280, "en, ": 8281, "bis": 6622, "ssc": 15613, "cho": 6959, "hop": 9555, "op ": 13441, " bis": 430, "ssch": 15614, "scho": 15263, "u,": 16570, "u, ": 16571, " bre": 450, "bres": 6692, "-g": 4551, "in-": 10107, "-ge": 4552, "gem": 9135, "ema": 8231, "mal": 11751, "ingi": 10154, "ngin": 12473, "emal": 8234, "mali": 11755, "lin ": 11379, "kr": 10944, "gek": 9128, "ekr": 8136, "kro": 10952, "roo": 14850, "oon": 13429, "ond": 13339, "ond ": 13340, " nam": 1304, "taa": 15879, "aan": 5383, "orta": 13561, "aan ": 5384, "th ": 16093, " eli": 703, "elis": 8189, "abet": 5407, " aa": 225, "an.": 5863, " aan": 226, "an. ": 5864, "05": 4710, "05 ": 4711, "baa": 6482, "aard": 5388, "doc": 7601, "hte": 9599, " doc": 626, "doch": 7602, "ocht": 13036, "chte": 6977, "hter": 9602, "ter ": 16051, "agn": 5581, "es.": 8593, "agne": 5582, "nes.": 12426, "es. ": 8594, "rw": 15054, "erw": 8564, "rwa": 15055, "wac": 17371, "verw": 17207, "erwa": 8565, "wach": 17372, "hte ": 9600, " zo": 2095, "poo": 14040, "ool": 13426, "ols": 13245, "lse": 11576, " kr": 1107, "oon ": 13430, "zou": 17916, "rve": 15046, "erve": 8561, "rven": 15047, "kw": 11006, " kw": 1121, "kwa": 11007, "wam": 17381, " kwa": 1122, "kwam": 11008, " ni": 1331, "nie": 12523, "iet": 9888, " nie": 1333, "niet": 12530, "iet ": 9889, "mee": 11848, " mee": 1227, "meer": 11850, "eer ": 7972, "md": 11831, " om": 1415, "mda": 11832, "dat": 7359, "at ": 6215, "dat ": 7360, "ii ": 9960, " ii ": 965, "ju": 10726, " ju": 1051, "jun": 10733, "uni": 16856, "ni ": 12500, " jun": 1056, "juni": 10734, "uni ": 16857, "sti": 15681, "tie": 16144, "ier": 9865, "f. ": 8870, " sti": 1745, "stie": 15685, "tier": 16147, " hi": 923, "rdo": 14417, " hie": 924, "hier": 9486, "ierd": 9868, " op ": 1428, " sl": 1710, "sle": 15488, "lec": 11223, "hts": 9604, " sle": 1712, "lech": 11225, "echt": 7881, "chts": 6979, "9-": 5211, "ft": 9036, "jd": 10647, "lee": 11233, "eef": 7960, "eft": 7994, "fti": 9042, "ijd": 9974, "jd ": 10648, " lee": 1154, "eeft": 7961, "tijd": 16157, "ijd ": 9975, " al ": 278, "wed": 17409, "edu": 7947, "uwe": 17057, " wed": 1983, "'al": 4369, "tat": 15954, "l'al": 11060, "alim": 5737, "ntat": 12770, "tati": 15958, "iel": 9843, " ind": 983, "trie": 16342, "iell": 9847, "onv": 13410, "conv": 7138, "onvi": 13412, "vien": 17231, "rfa": 14554, "fai": 8880, "ite": 10405, "tem": 16027, "fait": 8882, "teme": 16031, "cro": 7182, "san": 15217, " cro": 538, "issa": 10370, "ssan": 15612, "sanc": 15220, "iot": 10252, "lt": 11582, "adu": 5526, "dul": 7691, "ult": 16794, "lte": 11588, "te.": 15990, "ulte": 16797, "te. ": 15991, "èr": 18149, "mén": 12136, "nag": 12212, "ère": 18150, "ména": 12137, "ère ": 18151, "site": 15433, "ite ": 10406, "sup": 15779, "upp": 16901, "ppl": 14081, "lém": 11672, " sup": 1765, "supp": 15781, "vit": 17253, "ita": 10395, "tam": 15926, " vit": 1941, "vita": 17254, "amin": 5829, "mine": 11949, "lc": 11179, "iu": 10470, "m.": 11712, "alc": 5706, "ciu": 7048, "ium": 10476, "um.": 16807, "m. ": 11713, "um. ": 16808, "-a": 4532, "de-": 7384, "e-a": 7792, "-a ": 4533, "gu": 9312, " lu": 1191, "lun": 11631, "ung": 16852, "ngu": 12488, "gul": 9324, "ul ": 16768, " lun": 1197, "lung": 11633, "eț": 8864, "ți": 18856, "ții": 18863, " vie": 1935, "wat": 17395, "ats": 6267, " wat": 1979, "son ": 15537, "fo": 8989, " fo": 797, "fos": 9010, "ost": 13609, " fos": 803, "fost": 9011, "ost ": 13610, "tere": 16057, "eres": 8473, "aț": 6465, "laț": 11167, "ați": 6468, "iil": 9967, "lați": 11168, "ații": 6471, "iile": 9968, "naț": 12265, "țio": 18867, "erna": 8518, "nați": 12266, "ațio": 6472, "țion": 18868, "iona": 10238, "onal": 13333, "tâ": 16504, "ât": 18082, "ât ": 18083, " din": 611, "din ": 7522, "vă": 17351, "ă ": 18466, "rsp": 14946, "cti": 7196, " per": 1482, "pers": 13918, "ecti": 7906, "ctiv": 7200, "că": 7286, "ă,": 18467, "dip": 7531, "ipl": 10269, "plo": 13994, "lom": 11525, "oma": 13267, "mat": 11790, "tic": 16132, "ică": 9785, "ă, ": 18468, " dip": 612, "omat": 13271, "mati": 11795, "atic": 6245, " câ": 555, "cât": 7276, "cât ": 7277, " ș": 2228, "și": 18845, " și": 2229, "și ": 18846, " și ": 2230, "ă.": 18469, " ec": 679, "eco": 7896, "ă. ": 18470, " eco": 681, "econ": 7898, "cono": 7134, "onom": 13380, "nomi": 12661, "omic": 13285, " era": 726, "era ": 8438, " cu": 541, "cun": 7233, "uno": 16870, "nos": 12674, "osc": 13586, "scu": 15281, "cut": 7243, "ut ": 17012, " cun": 548, "cuno": 7234, "unos": 16872, "nosc": 12676, "oscu": 13587, "scut": 15284, "cut ": 7244, " dr": 641, "rep": 14508, "ept": 8416, "pt ": 14145, " dre": 643, "sar": 15226, " emi": 708, "emis": 8255, "sar ": 15227, "eo": 8389, "neo": 12415, "ofi": 13121, "ofic": 13122, "icia": 9750, "ial ": 9673, "lui": 11622, " lui": 1196, "lui ": 11623, "ank": 5920, "kli": 10894, "rank": 14321, "klin": 10895, "oos": 13437, "sev": 15356, "elt": 8214, "lt ": 11583, "seve": 15357, "elt ": 8215, " î": 2157, "în": 18294, " în": 2160, "în ": 18295, " în ": 2161, "w ": 17362, "new": 12438, "ew ": 8775, " new": 1330, "new ": 12439, "yo": 17693, "rk": 14697, " yo": 2046, "yor": 17701, "ork": 13528, "rk ": 14698, " yor": 2049, "york": 17702, "ork ": 13529, "mea": 11840, "ea ": 7802, "prim": 14106, "rime": 14645, "cv": 7245, "fre": 9022, " fre": 808, "frec": 9023, "viz": 17257, "zit": 17877, "vizi": 17258, "ita ": 10396, "nor": 12667, " uno": 1897, "nor ": 12668, "mn": 12000, "emn": 8260, "mni": 12003, "itar": 10401, "tari": 15948, "ari ": 6085, "ră": 15144, "ăi": 18472, " str": 1747, " 193": 136, "ales": 5721, "eș": 8858, "șe": 18842, "reș": 14549, "eșe": 8859, "șed": 18843, " pre": 1525, "reșe": 14550, "eșed": 8860, "ședi": 18844, "edin": 7933, "dint": 7526, "cam": 6811, "rei": 14469, "ei ": 8050, " cam": 484, "came": 6813, "amer": 5821, "erei": 8467, "rei ": 14470, "rț": 15163, "ome": 13276, "come": 7120, "omer": 13279, "icc": 9732, "c) ": 6781, "ong": 13357, "ngr": 12481, "cong": 7131, "ongr": 13360, "ngre": 12482, "resu": 14530, "esul": 8664, "sul ": 15770, "bie": 6599, " bie": 424, "bien": 6601, "enal": 8287, "fă": 9065, "șu": 18852, "urat": 16923, "rat ": 14342, "rli": 14727, " ber": 415, "berl": 6573, "erli": 8510, "rlin": 14730, "af": 5546, " af": 256, "afi": 5553, "fir": 8971, "irm": 10314, " afi": 259, "firm": 8972, "irma": 10315, "rmat": 14746, "mat ": 11791, " că": 557, "că ": 7287, " că ": 558, "mot": 12046, "ott": 13654, "tou": 16298, "oul": 13675, " mot": 1263, "otto": 13658, "nf": 12445, "nț": 12954, "țe": 18855, "onf": 13353, "nfe": 12448, "inț": 10220, "nțe": 12957, "conf": 7130, "onfe": 13354, "nfer": 12449, "erin": 8497, "ste ": 15669, "pac": 13830, "ace": 5434, " pac": 1462, "pace": 13831, "ace ": 5435, "lă": 11687, "ală": 5787, "lă ": 11688, "mond": 12033, "ondi": 13343, "ndia": 12340, "dial": 7491, "ală ": 5788, "rin ": 14649, "al.": 5693, "al. ": 5694, " ace": 240, "aces": 5439, "cest": 6910, "dev": 7471, "eni": 8320, " dev": 600, "deve": 7473, "even": 8762, "veni": 17184, "enit": 8327, "nit ": 12568, "slo": 15492, "oga": 13126, "anu": 5961, "nul": 12830, " slo": 1713, "anul": 5963, "nul ": 12831, " ic": 957, "bm": 6650, " ib": 956, "bě": 6775, "ěh": 18557, " bě": 476, "běh": 6777, "hem ": 9449, "9.": 5212, "19.": 4831, "9. ": 5213, " 19.": 132, "19. ": 4832, "tí": 16519, "í,": 18246, "tol": 16260, "let": 11281, "etí": 8725, "í, ": 18247, " sto": 1746, "stol": 15704, "tole": 16261, "olet": 13216, "letí": 11288, " s ": 1637, "oz": 13776, "zv": 17940, "oj": 13168, "roz": 14889, "voj": 17282, "oje": 13169, "jem": 10669, " roz": 1620, "rů": 15160, "ům": 18805, "prů": 14140, "mys": 12122, "slu": 15494, "lu ": 11603, " prů": 1533, "v ": 17106, " v ": 1915, "dh": 7484, "ří": 18727, "í ": 18245, "ří ": 18728, "(s": 4468, "lá": 11663, "ář": 18070, "tv": 16457, "ví": 17341, " (s": 57, "klá": 10899, "stv": 15725, "tví": 16461, "ství": 15726, " ú": 2173, "dk": 7563, "pad": 13833, "kem": 10829, "kem ": 10830, "ký": 11032, "ýc": 18453, " ho": 933, "hor": 9556, "ors": 13555, "rsk": 14940, "ský": 15477, "kýc": 11034, "ých": 18454, "ch ": 6915, " hor": 940, "orsk": 13557, "skýc": 15479, "kých": 11035, "ých ": 18455, " ř": 2202, "ře": 18716, " ře": 2203, "sel": 15318, "esel": 8612, "sel ": 15319, "či": 18516, "ih": 9953, "ař": 6450, "iha": 9954, "uh": 16715, "hl": 9515, "íř": 18290, "ři": 18723, "bud": 6724, "uda": 16642, "ři ": 18724, " bud": 457, "(j": 4456, "jm": 10694, "tě": 16544, "ě ": 18551, " (j": 45, "jme": 10695, "eno": 8338, "nov": 12685, "tě ": 16545, "jmen": 10696, "meno": 11875, "enov": 8343, "novi": 12688, "vé": 17337, "ové": 13733, "vé ": 17338, "ové ": 13734, "hn": 9529, "chn": 6955, "hne": 9531, "nei": 12396, "eid": 8059, "ide": 9797, "chne": 6956, "eide": 8060, "ider": 9801, "p,": 13823, "lip": 11391, "p, ": 13824, "ilip": 10033, " š": 2217, "št": 18789, "án": 18033, "n)": 12178, "ště": 18790, "n) ": 12179, "pn": 13998, "ně": 12940, "pos": 14048, "stu": 15719, "tup": 16440, "ně ": 12941, " pos": 1516, "post": 14055, "ostu": 13616, "stup": 15722, "dc": 7372, "há": 9626, "áz": 18066, "ej": 8101, "jí": 10742, " od": 1391, "odc": 13063, "chá": 6988, "ház": 9627, "áze": 18067, "zej": 17817, "ejí": 8119, "jí ": 10743, " odc": 1394, "cház": 6989, "ejí ": 8120, " do ": 624, "dol": 7607, "olí": 13262, "lí ": 11675, "zd": 17798, "dn": 7575, "prá": 14132, "né ": 12902, " prá": 1530, "př": 14204, "by": 6742, "yt": 17722, "tk": 16208, "ky": 11010, " př": 1552, "pří": 14210, "byt": 6749, "ky ": 11011, " pří": 1555, "uj": 16752, " sk": 1707, "sku": 15467, "kup": 10997, "upu": 16907, "uje": 16753, "je ": 10652, " sku": 1709, "skup": 15469, "uje ": 16754, "aj": 5640, "ji": 10680, "maj": 11745, "aji": 5647, "tel": 16018, " maj": 1215, "itel": 10410, "tel ": 16019, "í.": 18248, "nst": 12744, "í. ": 18249, " pan": 1469, " з": 2747, "за": 22008, "им": 22241, "ае": 20796, " за": 2749, "зан": 22022, "ним": 23087, "има": 22243, "ает": 20797, "ет ": 21924, " зан": 2758, "зани": 22023, "аним": 20918, "нима": 23089, "ает ": 20798, "ят": 25254, "ое": 23399, "ято": 25261, "ое ": 23400, "сто": 24363, "есто": 21921, "сто ": 24364, "ип": 22289, "пт": 23824, "их": 22351, "хе": 24862, "тих": 24555, " а": 2544, "ав": 20739, "вт": 21373, "ке": 22475, "еф": 21941, "фа": 24823, "ль": 22781, "ьн": 25143, "ны": 23224, "ых": 25117, " ав": 2550, "авт": 20764, "вто": 21374, "ток": 24595, "аль": 20880, "льн": 22789, "ьны": 25150, "ных": 23233, "ых ": 25118, " авт": 2551, "авто": 20765, "альн": 20882, "льны": 22792, "ьных": 25152, "ных ": 23234, "ом": 23495, "тн": 24573, "пом": 23773, "оме": 23503, "стн": 24360, "тны": 24580, " пом": 3000, "естн": 21920, " ц": 3198, "це": 24888, "рк": 24027, "кв": 22471, "ей": 21736, " це": 3199, "цер": 24895, "ерк": 21882, "ркв": 24029, "ей ": 21737, " цер": 3203, "церк": 24896, "еркв": 21883, " ми": 2876, "ра.": 23856, " мир": 2878, "ра. ": 23857, "ру": 24129, "уп": 24763, "пн": 23749, "не": 23032, "йш": 22432, "ая": 21071, "кру": 22583, "руп": 24143, "упн": 24766, "ней": 23045, "ая ": 21072, " кру": 2841, "иг": 22146, "оз": 23417, "зн": 22075, "рел": 23964, "ели": 21767, "иги": 22148, "озн": 23426, "зна": 22076, "ная": 23017, "озна": 23427, "ная ": 23018, "рг": 23927, "га": 21420, "ац": 21046, " ор": 2960, "орг": 23566, "рга": 23928, "ган": 21423, "низ": 23075, "иза": 22176, "зац": 22032, "аци": 21047, " орг": 2961, "орга": 23567, "рган": 23929, "гани": 21424, "аниз": 20915, "низа": 23076, "изац": 22177, "заци": 22033, "ация": 21050, "сс": 24321, "си": 24216, "ии": 22196, "и,": 22114, " ро": 3038, "рос": 24096, "осс": 23617, "сси": 24322, "сии": 24219, "ии,": 22198, "и, ": 22115, " рос": 3043, "росс": 24097, "осси": 23618, "ссии": 24323, "ии, ": 22199, " у": 3148, "ук": 24732, "аи": 20828, " ук": 3153, "укр": 24736, "раи": 23881, "ине": 22264, "не ": 23033, " укр": 3154, "укра": 24737, "11 ": 4756, "011 ": 4686, "го": 21455, "од": 23367, " го": 2667, "год": 21461, "од ": 23368, " год": 2668, "по ": 23751, " по ": 2991, "сл": 24260, "лу": 22772, "у ": 24686, " чи": 3216, "чис": 24970, "исл": 22309, "слу": 24269, "лу ": 22773, " чис": 3217, "числ": 24971, "хо": 24869, "в,": 21180, "при": 23798, "рих": 24020, "ихо": 22354, "ход": 24871, "одо": 23388, "дов": 21611, "ов,": 23304, "в, ": 21181, " при": 3010, "одов": 23389, "ов, ": 23305, "ух": 24797, "тв": 24472, "ва": 21184, "дух": 21645, "ухо": 24798, "хов": 24870, "ове": 23315, "вен": 21231, "енс": 21827, "нст": 23186, "ств": 24341, "тва": 24473, "ва ": 21185, " дух": 2715, "духо": 21646, "ухов": 24799, "овен": 23318, "нств": 23187, "ства": 24342, "тва ": 24474, "ку": 22606, "ул": 24740, "ьт": 25164, "вы": 21396, " ку": 2842, "кул": 22614, "уль": 24748, "льт": 22797, "тов": 24587, "овы": 23347, "вых": 21401, " кул": 2843, "ульт": 24749, "вых ": 21402, "оо": 23544, "уж": 24721, "ий": 22202, "й,": 22399, " со": 3086, "соо": 24297, "оор": 23546, "ору": 23595, "руж": 24137, "уже": 24723, "ний": 23079, "ий,": 22204, "й, ": 22400, " соо": 3090, "руже": 24138, "ужен": 24725, "жени": 21983, "ений": 21813, "ий, ": 22205, "о,": 23271, " но": 2928, "но,": 23139, "о, ": 23272, "но, ": 23140, "ры": 24158, "ым": 25108, " не": 2916, "нек": 23046, "еко": 21751, "тор": 24605, "оры": 23598, "ым ": 25109, "отор": 23654, "торы": 24611, "оп": 23547, " оп": 2956, "опр": 23556, "ам ": 20886, " опр": 2959, "опро": 23558, "прос": 23819, "ач": 21054, "нач": 23013, "ача": 21055, "чал": 24939, "ало": 20875, "ло ": 22745, " нач": 2915, "нача": 23014, "ачал": 21056, "чало": 24940, "ало ": 20876, "15": 4785, "015": 4694, "15 ": 4786, "2015": 4966, "015 ": 4695, "ода": 23369, "да,": 21501, "года": 21462, "да, ": 21502, " не ": 2917, "ич": 22364, "че": 24949, "ву": 21377, " ко": 2826, "кол": 22539, "лич": 22721, "иче": 22367, "чес": 24960, "тву": 24488, "ву ": 21378, " кол": 2831, "коли": 22542, "личе": 22722, "ичес": 22369, "чест": 24962, "еств": 21917, "ству": 24346, "ую": 24815, "ющ": 25204, "еру": 21897, "ующ": 24819, "ющи": 25206, "щих": 25048, "бе": 21092, "ус": 24779, " бе": 2578, "бел": 21094, "лор": 22762, "рус": 24145, "усс": 24786, " бел": 2580, "русс": 24147, "лд": 22665, "мол": 22927, "дав": 21505, "ави": 20748, "ии ": 22197, " мол": 2889, "(в": 4475, "вк": 21279, "кл": 22503, "лю": 22800, "юч": 25200, " (в": 64, "вкл": 21282, "клю": 22511, "люч": 22803, "вклю": 21283, "ключ": 22512, "тр": 24618, "вь": 21403, "ье": 25128, "рид": 23996, "дне": 21598, "нес": 23057, "стр": 24369, "тро": 24635, "овь": 23348, "стро": 24373, "тров": 24636, "48": 5059, "てお": 29070, "おり": 28987, "ては": 29076, "その": 29030, "いて": 28977, "には": 29141, "。そ": 28949, "の一": 29156, "など": 29123, "なる": 29126, "では": 29089, "はな": 29161, "もの": 29169, "マキ": 29261, "から": 28992, "を受": 29209, "受け": 29358, "ており": 29071, "おり、": 28988, "。その": 28950, "ではな": 29091, "を受け": 29210, "には、": 29142, "いた。": 28976, "た。 ": 29035, "ており、": 29072, "していた": 29023, "ていた。": 29067, "nel": 12403, " nel": 1321, "nel ": 12404, "08": 4721, "8 ": 5172, "008": 4673, "08 ": 4722, "2008": 4958, "008 ": 4674, "nso": 12738, "sol": 15527, "oli": 13221, "cons": 7136, "onso": 13396, "soli": 15530, "olid": 13224, "rop": 14851, "opr": 13464, "prop": 14121, "ropr": 14856, "opri": 13466, "nz": 12875, "enz": 8376, "nza": 12877, "rese": 14524, "esen": 8614, "senz": 15336, "enza": 8377, "nza ": 12878, "rca": 14382, "cat": 6844, "erca": 8453, "cato": 6849, "cq": 7165, "acq": 5463, "cqu": 7166, "siz": 15444, "acqu": 5464, "quis": 14241, "izio": 10539, "del ": 7411, " ra": 1567, "amo": 5837, " ram": 1572, " ti": 1829, "ssu": 15638, "sue": 15763, "issu": 10374, "ssue": 15639, "sue ": 15764, "ova": 13709, "vac": 17118, "aca": 5428, " nov": 1351, "nova": 12686, "care": 6831, "are ": 6073, " lo ": 1181, "ava": 6328, "val": 17124, "aval": 6331, "val ": 17125, "uas": 16595, "asi ": 6176, "tera": 16054, "eram": 8442, "ente": 8361, "ded": 7395, "dic": 7494, " ded": 587, "dedi": 7397, "edic": 7931, "dica": 7495, "icat": 9730, "uz": 17067, "duz": 7704, "uzi": 17072, "oduz": 13094, "duzi": 7705, "uzio": 17073, " ar": 326, " art": 338, "rtic": 14983, "tico": 16139, "oli ": 13222, "per ": 13909, "aw": 6357, "awa": 6359, "way": 17396, "ay ": 6370, "way ": 17397, "fro": 9031, "om ": 13266, " fro": 810, "from": 9032, "rom ": 14836, "hom": 9549, "e).": 7787, " hom": 937, "home": 9550, "e). ": 7788, "ві": 21406, "ін": 25337, " ві": 2652, "він": 21414, "ін ": 25338, " він": 2655, "він ": 21415, "вед": 21225, "еде": 21696, "веде": 21226, "сп": 24306, "пі": 23840, "іш": 25371, "шн": 25025, "ну": 23207, " ус": 3161, "усп": 24785, "спі": 24316, "ну ": 23208, " усп": 3162, "'є": 4421, "кар": 22460, "ру ": 24130, " кар": 2815, "во": 21312, "лі": 22817, "іс": 25349, "а:": 20728, " во": 2626, "ока": 23449, "кал": 22452, "алі": 20884, "ліс": 22823, "іст": 25353, "ста": 24334, "а: ": 20729, "іста": 25354, "бер": 21096, "ере": 21868, "ре ": 23939, " бер": 2581, "бере": 21097, "уч": 24800, "ть": 24671, "ь ": 25120, " уч": 3165, "уча": 24801, "сть": 24382, "ть ": 24672, " уча": 3166, "учас": 24802, "асть": 21002, "сть ": 24383, " у ": 3149, "рт": 24121, "ах": 21038, "кон": 22552, "онц": 23541, "нце": 23217, "ерт": 21896, "рта": 24123, "тах": 24466, "ах ": 21039, " кон": 2833, "конц": 22556, "онце": 23542, " та ": 3116, "зб": 22035, "бі": 21174, "ір": 25348, "рн": 24042, "х,": 24853, " зб": 2764, "рни": 24046, "ник": 23081, "ках": 22466, "ах,": 21040, "х, ": 24854, "ника": 23083, "ах, ": 21041, " і": 3250, "і ": 25286, " і ": 3251, "пу": 23825, "ає": 21073, "є ": 25277, "вип": 21264, "пус": 23829, "уск": 24782, "ає ": 21074, "пуск": 23830, "уска": 24783, "ні": 23253, "сол": 24294, "оль": 23486, "ьні": 25153, "ні ": 23254, "ольн": 23489, "льні": 22793, "ьб": 25125, "бо": 21117, " ал": 2557, "льб": 22783, "ьбо": 25126, "бом": 21125, "оми": 23505, "ми ": 22882, " аль": 2559, "альб": 20881, "льбо": 22784, "ьбом": 25127, "нг": 23020, "гл": 21446, "и.": 22116, " си": 3071, "син": 24226, "инг": 22262, "нгл": 23022, "гли": 21452, "и. ": 22117, " син": 3074, "нгли": 23024, "рі": 24165, "ім": 25335, "крі": 22585, "ім ": 25336, "ог": 23352, " то": 3130, "тог": 24590, "ого": 23361, "го,": 21457, " тог": 3133, "того": 24591, "ого,": 23363, "го, ": 21458, "ує": 24820, "вик": 21259, "ико": 22217, "ону": 23539, "ує ": 24821, " вик": 2617, "вико": 21260, "икон": 22221, "ем": 21784, " те": 3120, "тем": 24509, "еми": 21792, " тем": 3123, "еми ": 21793, " «": 2116, "ік": 25325, "» ": 17997, "жел": 21981, "елі": 21783, "лік": 22821, "a-": 5364, "-3": 4527, "3,": 5000, " ov": 1451, "3, ": 5001, "єм": 25280, "мн": 22911, "чо": 24993, "ої": 23698, "ї ": 25386, "мни": 22913, "нич": 23103, "ої ": 23699, " л": 2848, "ге": 21433, "нд": 23025, " ле": 2850, "лег": 22669, "ген": 21434, "енд": 21806, "нда": 23026, "іч": 25367, "ічн": 25368, "чно": 24987, "ног": 23150, "го ": 21456, "ічно": 25370, "чног": 24989, "ного": 23151, "ого ": 23362, "св": 24189, "іт": 25359, "тл": 24570, "а»": 20730, " св": 3059, "сві": 24197, "віт": 21416, "а» ": 20731, " сві": 3063, "світ": 24198, "«б": 17990, "іл": 25328, "му": 22947, " «б": 2118, "біл": 21175, "іло": 25329, "лом": 22757, "ому": 23514, "му ": 22948, "ому ": 23515, " х": 3188, "хр": 24875, "ті": 24682, " хр": 3195, "рес": 23973, "сті": 24387, "рест": 23974, "78": 5165, "978": 5295, "78 ": 5166, "1978": 4897, "joh": 10706, "ohn": 13149, "hns": 9535, " joh": 1044, "john": 10708, "ohns": 13151, "nson": 12740, " aw": 370, "war": 17387, " awa": 371, "awar": 6360, "ward": 17389, "ded ": 7396, " an ": 303, " am": 294, " ame": 298, "meri": 11882, "eric": 8490, "ican": 9727, "can ": 6817, "tit": 16195, "tut": 16451, "ute": 17016, " ins": 988, "inst": 10196, "nsti": 12748, "stit": 15692, "titu": 16199, "itut": 10451, "tute": 16452, "ute ": 17017, "arc": 6058, "hit": 9512, "tec": 15997, "cts": 7207, " arc": 330, "arch": 6061, "rchi": 14389, "chit": 6949, "hite": 9513, "itec": 10407, "tect": 16000, "cts ": 7208, "gol": 9259, "old": 13206, "ld ": 11185, " gol": 866, "old ": 13207, "eda": 7921, "meda": 11846, "edal": 7923, "79": 5167, "9 ": 5206, "979": 5296, "79 ": 5168, "1979": 4898, " he ": 913, "bec": 6539, "eca": 7866, " bec": 405, "beca": 6540, "irs": 10320, " fir": 792, "firs": 8973, "irst": 10321, "ipi": 10267, "reci": 14446, "ecip": 7888, "cipi": 7038, "tz": 16489, "zk": 17880, "itz": 10456, "ker": 10837, "ker ": 10838, "ctur": 7211, "ture": 16444, "riz": 14694, "ize": 10532, "ize ": 10533, "mos": 12043, " mos": 1262, "most": 12045, "tig": 16151, "gio": 9206, "iou": 10254, "esti": 8656, "stig": 15687, "igio": 9934, "ious": 10255, "ous ": 13690, "nat": 12249, "rnat": 14770, "nati": 12253, "ral": 14302, "ural": 16920, "ral ": 14303, "rd.": 14399, "rd. ": 14400, "att": 6269, "tti": 16401, " att": 352, "atti": 6273, "tira": 16188, "iran": 10288, "rant": 14324, " ses": 1683, "bs": 6709, " cl": 515, "clu": 7092, "lub": 11607, "ubs": 16611, "bs ": 6710, " clu": 519, "club": 7093, "lubs": 11610, "ubs ": 16612, "mei": 11854, "eil": 8068, "leu": 11289, "urs": 16960, "rs ": 14924, " mei": 1229, "eill": 8072, "leur": 11290, "eurs": 8742, "urs ": 16961, "oue": 13669, "ueu": 16689, "joue": 10716, "deu": 7468, " deu": 599, "deux": 7470, "hè": 9630, "émi": 18189, "isp": 10366, "ères": 18152, "nna": 12617, "nay": 12260, "aya": 6375, "yan": 17603, "onna": 13375, "ayan": 6377, "dro": 7657, "oit": 13166, "its": 10438, " dro": 645, "its ": 10439, "fu": 9044, "dif": 7506, "iff": 9908, "fus": 9056, "usi": 16986, " dif": 608, "diff": 7508, " tv": 1860, "x,": 17549, "x, ": 17550, " ava": 365, "avan": 6332, "vant": 17139, "ntag": 12763, "tage": 15901, "pop": 14041, "opu": 13470, "pul": 14165, " pop": 1514, "popu": 14043, "opul": 13471, "pula": 14167, "rè": 15110, "aup": 6311, "upr": 16904, "prè": 14135, "rès": 15111, "près": 14136, "rès ": 15112, " pu": 1536, "ic ": 9716, " pub": 1537, "lic ": 11336, "rni": 14775, " gar": 827, "arni": 6113, "tad": 15890, "stad": 15657, "tade": 15893, "ades": 5503, "top": 16278, " top": 1843, "top ": 16279, "4 ": 5031, "14 ": 4781, " 14 ": 106, "est ": 8653, "urd": 16929, "sid": 15395, "idé": 9811, "dér": 7739, "onsi": 13395, "nsid": 12731, "mme ": 11992, "ham": 9390, "amp": 5841, "pio": 13960, "cham": 6925, "hamp": 9391, "ampi": 5844, "mpio": 12068, "pion": 13962, "ionn": 10241, "nnat": 12620, "nat ": 12250, " nat": 1308, "ug": 16698, "gb": 9105, " ru": 1621, "rug": 15016, "ugb": 16702, "gby": 9106, "by ": 6743, " rug": 1623, "rugb": 15017, "ugby": 16703, "de.": 7385, "onde": 13342, "de. ": 7386, "ço": 18122, "ço ": 18123, "có": 7283, " ja": 1016, "jac": 10627, " jac": 1018, "stá": 15733, "tá ": 16499, "está": 8662, "stá ": 15734, "loc": 11512, "oca": 13022, " loc": 1182, "loca": 11513, "ocal": 13023, "cali": 6809, " 7": 205, "etr": 8706, "tro": 16345, "metr": 11896, "etro": 8710, "tros": 16353, "ros ": 14859, "ll ": 11433, " tel": 1816, "tell": 16023, "ell ": 8194, "bal": 6494, "ta,": 15875, " bal": 392, "lata": 11145, "ta, ": 15876, " na ": 1297, " ori": 1436, "orie": 13521, "rien": 14617, " ci": 507, "cid": 7006, " cid": 508, "cida": 7007, "nab": 12202, "blu": 6649, "ro ": 14788, " den": 594, "dent": 7432, "ntro": 12809, "tro ": 16346, "cin": 7026, "into": 10203, "tei": 16011, "iro": 10317, "oste": 13612, "stei": 15673, "eiro": 8089, "iro ": 10318, "bir": 6618, " bir": 429, "bir ": 6619, "b.": 6478, "ya'": 17600, "b. ": 6479, " ent": 718, "ntra": 12806, "trad": 16315, " ig": 961, "igr": 9945, "rej": 14476, "eja": 8107, "ja ": 10624, "igre": 9947, "reja": 14477, "eja ": 8108, " nos": 1348, "nos ": 12675, "rre": 14908, "terr": 16065, "erre": 8531, "rren": 14912, "reno": 14503, "enos": 8342, "ro,": 14789, "ro, ": 14790, "sce": 15254, "cen": 6894, "desc": 7458, "esce": 8602, "scen": 15256, "cend": 6896, " as ": 340, "sca": 15250, "cad": 6796, "esca": 8601, "cada": 6797, "rip": 14665, "ipt": 10275, "pta": 14146, "crip": 7179, "ript": 14666, " on": 1417, " ond": 1420, "rva": 15043, "vad": 17119, "onse": 13393, "nser": 12724, "erva": 8560, "vado": 17120, "unt": 16877, "junt": 10735, "unto": 16881, "com ": 7117, " \"": 0, "eq": 8424, "equ": 8425, "uen": 16677, "eque": 8426, "quen": 14232, "eno ": 8339, " gu": 878, "gui": 9320, "uin": 16731, "nch": 12286, " gui": 881, "guin": 9322, "ald": 5709, "lde": 11191, "de,": 7382, "alde": 5711, "de, ": 7383, "ones": 13352, "vot": 17301, "oto": 13646, "mui": 12100, "tas": 15951, " mui": 1270, "muit": 12101, "uita": 16745, "itas": 10402, "tas ": 15952, "las": 11138, " vel": 1925, "vela": 17171, "elas": 8154, "las ": 11139, "s\"": 15165, "\".": 4345, "\". ": 4346, "umb": 16812, "mba": 11809, "ba ": 6481, "jos": 10712, "osé": 13620, "sé ": 15827, " jos": 1047, "josé": 10714, "osé ": 13621, "ao": 5987, " ao": 315, "ao ": 5988, " ao ": 316, " nor": 1347, "nort": 12673, "orte": 13562, "pré": 14137, "dio": 7527, " pré": 1531, "dio ": 7528, " ot": 1444, "man": 11758, "toma": 16266, "oman": 13269, "mana": 11761, "ana ": 5866, "marc": 11779, "arca": 6059, "cado": 6799, "uma": 16809, " uma": 1888, "uma ": 16810, "nca": 12273, " bra": 449, "bran": 6687, "anca": 5877, "-s": 4569, "bus": 6738, "-sa": 4570, "nt-": 12756, "geo": 9150, "eor": 8397, " bus": 462, "aint": 5624, "int-": 10199, "geor": 9151, "eorg": 8398, "rges": 14568, "has": 9408, " has": 906, "has ": 9409, "bui": 6726, "uil": 16728, "ilt": 10057, " bui": 458, "buil": 6727, " it": 1000, " its": 1003, "ty": 16473, " id": 958, "ity": 10452, "ty ": 16474, " ide": 959, "iden": 9799, "ntit": 12796, "ity ": 10453, " on ": 1418, "ree": 14455, " gre": 874, "gree": 9288, "reen": 14457, "mod": 12014, " mod": 1255, "mode": 12015, "odel": 13068, "env": 8371, "vir": 17248, "ron": 14842, " env": 719, "envi": 8372, "nvir": 12855, "iron": 10319, "wi": 17446, " wi": 1995, "wit": 17473, "ith": 10417, " wit": 2002, "with": 17474, "ith ": 10418, "ks": 10958, "ark": 6093, "rks": 14710, "ks ": 10959, "park": 13862, "ns.": 12712, "dens": 7431, "ns. ": 12713, "hey": 9472, "they": 16107, "hey ": 9473, "epr": 8413, " rep": 1588, "repr": 14511, "epre": 8414, "sent": 15335, "55": 5091, " 15": 107, "155": 4792, "55 ": 5092, "hec": 9434, "tare": 15947, "ares": 6080, "ted": 16001, "grat": 9284, "ated": 6232, "ted ": 16002, "spa": 15569, " spa": 1733, "spac": 15570, " 9": 213, " 9 ": 214, "ki": 10851, " ki": 1083, "kil": 10864, "ilo": 10051, " kil": 1085, "kilo": 10866, "ilom": 10053, "lome": 11526, "omet": 13281, "etre": 8708, "(6": 4438, "es)": 8588, " mil": 1245, "iles": 10022, "es) ": 8589, "sof": 15522, "oft": 13123, "ft ": 9037, " sof": 1722, "soft": 15523, "nne": 12621, "nec": 12385, "onne": 13376, "ting": 16176, "nks": 12592, " lin": 1172, "link": 11385, " 10": 95, " 10 ": 96, "sq": 15598, " sq": 1738, "squ": 15599, "uar": 16590, " squ": 1739, "squa": 15601, "quar": 14226, "cit": 7043, " cit": 512, "city": 7047, "re,": 14430, " cen": 496, "cent": 6898, "re, ": 14431, " 8": 209, " 8 ": 210, "mor": 12037, "ore": 13508, " mor": 1261, "more": 12039, "ore ": 13509, "tha": 16094, "han": 9392, " tha": 1824, "than": 16095, "han ": 9393, "8,": 5175, ",2": 4508, "200 ": 4949, " tre": 1850, "tree": 16331, "y.": 17596, "tod": 16251, "oda": 13058, "day": 7367, "ay.": 6373, "y. ": 17597, " tod": 1838, "toda": 16252, "ay. ": 6374, "o-": 12969, "še": 18781, "šen": 18782, "mě": 12159, "ěl": 18564, " mě": 1291, "měl": 12160, "ěl ": 18565, " měl": 1292, "bý": 6768, "ýt": 18461, " bý": 472, "být": 6769, "ýt ": 18462, " být": 473, "být ": 6770, "vy": 17322, "yu": 17725, "už": 17099, "ži": 18832, " vy": 1960, "uži": 17100, "žit": 18834, " k ": 1061, "vě": 17352, "pře": 14205, "pra": 14089, "rav": 14351, "vě ": 17353, " pře": 1553, "prav": 14092, " 11": 98, "110": 4760, "100": 4750, "22": 4971, " 12": 100, "neb": 12383, "ebo": 7855, "bo ": 6653, " neb": 1314, "nebo": 12384, "ebo ": 7856, "50": 5079, "150": 4790, "500": 5081, " 150": 109, "500 ": 5082, " č": 2190, "čí": 18531, "ín": 18271, " čí": 2200, "nsk": 12735, "já": 10741, "ák": 18022, "ků": 11052, "ů,": 18800, "ů, ": 18801, "čl": 18520, "nů": 12953, "ů ": 18799, " čl": 2197, "ič": 10583, "čn": 18521, "ní": 12910, "íh": 18261, "xpe": 17572, "ped": 13888, "ční": 18524, "níh": 12916, "ího": 18262, "expe": 8794, "pedi": 13889, "ního": 12917, "ího ": 18263, "sb": 15243, " sb": 1658, "bor": 6670, "oru": 13569, "ru ": 15007, "oru ": 13570, "ač": 6431, "če": 18509, "pot": 14056, "tla": 16213, "čen": 18510, "ení": 8384, "ní ": 12911, " pot": 1517, "čení": 18511, "ení ": 8385, "nep": 12416, "epo": 8411, "pok": 14024, "oko": 13183, " nep": 1324, "kor": 10929, "eji": 8110, " kor": 1105, " dn": 621, "dne": 7578, "23": 4973, "3.": 5003, " 23": 157, "3. ": 5004, " če": 2193, "čer": 18512, " čer": 2194, "červ": 18513, "venc": 17181, "94": 5244, "94 ": 5245, "yp": 17705, "lul": 11626, "lul ": 11627, "z ": 17757, " z ": 2060, "ké": 11018, "éh": 18181, "ské": 15473, "kéh": 11020, "ého": 18182, "nské": 12736, "skéh": 15475, "kého": 11021, "ého ": 18183, "ís": 18276, "vu": 17317, "íst": 18279, "tav": 15963, "avu": 6352, "vu ": 17318, "stav": 15665, " u ": 1875, "vn": 17269, "nost": 12677, "osti": 13613, "sti ": 15682, "-k": 4556, "ku ": 10987, "mí": 12144, " za": 2061, "zam": 17777, "amí": 5853, "řil": 18725, " zam": 2069, "js": 10720, "ejs": 8115, "jsk": 10722, "ejsk": 8117, "u.": 16575, "u. ": 16576, "dop": 7618, "ovo": 13726, "vod": 17277, "od ": 13057, " dop": 633, "opro": 13467, "prov": 14124, "rovo": 14883, "mu ": 12096, "dě": 7756, " dě": 669, "děl": 7760, "lal": 11112, "vý": 17345, "ý ": 18450, "lov": 11552, "ový": 13735, "vý ": 17346, "ový ": 13736, "g.": 9075, "ng.": 12462, "g. ": 9076, "ng. ": 12463, "kol": 10912, " kol": 1101, "kole": 10913, "lem ": 11252, "ny": 12862, "hod": 9540, "iny": 10212, "ny ": 12863, "odin": 13073, "iny ": 10213, " ran": 1573, "25": 4977, "5.": 5077, " 25": 161, "5. ": 5078, "nar": 12240, "zil": 17869, " nar": 1306, "jap": 10640, "apo": 6009, "ký ": 11033, " jap": 1023, "japo": 10642, "apon": 6011, "ský ": 15478, "sv": 15789, " sv": 1768, "az ": 6395, "ož": 13816, "že": 18829, "ný": 12928, "lož": 11558, "ože": 13818, "žen": 18831, "ený": 8386, "ný ": 12929, "ožen": 13819, "ěn": 18570, "chr": 6968, "hrá": 9587, "rán": 15101, "něn": 12946, "nýc": 12930, " chr": 505, "ných": 12931, "kř": 11051, "iž": 10609, "žn": 18836, "ík": 18264, "ník": 12918, "ků ": 11053, "uš": 17096, "ši": 18783, " ak": 274, "aki": 5665, "kic": 10857, "icu": 9778, "ima": 10068, "ima ": 10069, "iw": 10510, "kap": 10792, "pit": 13971, "itá": 10461, "tán": 16502, "án ": 18034, " kap": 1068, "apit": 6006, "wy": 17523, "wy ": 17524, "hei": 9440, "eih": 8067, " hei": 916, "óg": 18312, "gó": 9344, " dal": 574, "dal ": 7337, "řík": 18730, "kaz": 10807, "přík": 14211, "zas": 17785, " zas": 2073, "asta": 6198, "tave": 15965, "aven": 6337, "lod": 11516, "dě ": 7757, "ang ": 5901, "ím": 18267, "mez": 11903, "ezi": 8817, "tím": 16521, "ím ": 18268, " mez": 1237, "mezi": 11904, "l,": 11078, "il,": 10006, "l, ": 11079, "il, ": 10007, "ná": 12883, "ás": 18054, "vá": 17329, "oná": 13418, "nás": 12889, "ásl": 18056, "led": 11228, "edo": 7942, "dov": 7635, "ová": 13730, "ván": 17332, "pron": 14120, "násl": 12890, "ásle": 18057, "sled": 15489, "ován": 13732, "ván ": 17333, "u)": 16569, "imo": 10090, "mou": 12049, "）に": 29980, "によ": 29144, "よっ": 29174, "それ": 29032, "）と": 29979, "）の": 29981, "られ": 29181, "によっ": 29145, "よって": 29175, "amb": 5812, "mbi": 11815, "bit": 6625, "tus": 16448, "uth": 17020, "cus": 7242, "pla": 13979, "aga": 5565, "られる": 29183, "fina": 8966, "nali": 12226, "によって": 29146, "ambi": 5814, "then": 16102, "ntic": 12786, "ticu": 16140, "gali": 9086, "リア": 29273, "であ": 29079, "であり": 29082, "である": 29084, "であり、": 29083, "である。": 29085, "ある。 ": 28971, " ق": 3458, "قب": 26379, "بل": 25740, "ل ": 26461, " قب": 3462, "قبل": 26380, "بل ": 25741, " قبل": 3463, "قبل ": 26381, " ع": 3430, "عا": 26272, "ام": 25666, "م ": 26661, " عا": 3431, "عام": 26278, "ام ": 25667, " عام": 3432, "عام ": 26279, " ب": 3328, "با": 25701, "ال": 25553, "لض": 26568, "بط": 25728, "ط ": 26240, " با": 3332, "بال": 25709, "الض": 25615, " بال": 3334, " و": 3537, "وب": 26879, "بت": 25715, "تا": 25773, "ار": 25511, "ري": 26112, "يخ": 27004, "خ ": 25942, " وب": 3544, "تار": 25775, "اري": 25519, "ريخ": 26117, "يخ ": 27005, "تاري": 25776, "اريخ": 25520, "ريخ ": 26118, "21": 4969, "1/": 4743, "/2": 4632, " 21": 153, " أ": 3261, "أع": 25414, "عل": 26308, "لن": 26627, "ن ": 26768, " أع": 3272, " ا": 3290, "لب": 26499, "بغ": 25737, "غد": 26336, "دا": 25972, "اد": 25506, "دي": 26021, "ي ": 26972, " ال": 3296, "الب": 25569, "داد": 25979, "ادي": 25510, "دي ": 26022, " الب": 3300, " خ": 3393, "خط": 25958, "طة": 26245, "ة ": 25762, " خط": 3394, "طة ": 26246, " ه": 3528, "هد": 26842, "دم": 26003, "دم ": 26004, "لأ": 26466, "أس": 25409, "سو": 26177, "وا": 26863, "ر ": 26042, "الأ": 25555, "لأس": 26469, "وار": 26869, "ار ": 25512, " الأ": 3297, "الأس": 25558, "013": 4690, "13 ": 4773, "2013": 4964, "013 ": 4691, "ها": 26835, "اج": 25495, "جم": 25884, "مت": 26687, "ت ": 25769, "مت ": 26688, " د": 3398, "اع": 25534, "عش": 26301, "ش ": 26185, " دا": 3399, "داع": 25982, "اعش": 25540, "عش ": 26302, " داع": 3400, "داعش": 25983, "اعش ": 25541, " س": 3411, "سج": 26156, "جن": 25890, "ني": 26824, "ين": 27058, "ين ": 27059, " ف": 3449, "في": 26365, " في": 3455, "في ": 26366, " في ": 3456, "د ": 25966, "اد ": 25507, "داد ": 25980, "هم": 26851, "ما": 26667, "ا ": 25463, "هما": 26853, "ما ": 26668, "لت": 26511, "جي": 25897, "الت": 25577, "لتا": 26513, " الت": 3301, "التا": 25578, "وس": 26911, " وس": 3550, "لم": 26604, "مر": 26710, "رك": 26093, "زي": 26135, "ي.": 26973, "الم": 25638, "لمر": 26615, "ي. ": 26974, " الم": 3321, "المر": 25644, "ون": 26953, "نج": 26787, "حت": 25906, " ون": 3565, "حت ": 25907, " ت": 3355, "ته": 25826, "هر": 26848, "يب": 26988, "ب ": 25697, "يب ": 26989, "أك": 25418, "كث": 26431, "ثر": 25846, " أك": 3273, "أكث": 25419, "كثر": 26432, "ثر ": 25847, " أكث": 3274, "أكثر": 25420, "كثر ": 26433, " م": 3494, "من": 26745, " من": 3518, "من ": 26746, " من ": 3519, " 100": 97, "1000": 4752, "000 ": 4656, "مع": 26725, "عت": 26285, "تق": 25808, "قل": 26399, " مع": 3513, "تقل": 25810, "قل ": 26400, " .": 82, " . ": 83, "raa": 14266, "aad": 5375, "ads": 5523, "sli": 15491, "id ": 9788, " gem": 841, "geme": 9137, "emee": 8245, "meen": 11849, "eent": 7970, "(1": 4424, "38": 5023, "8)": 5173, " (1": 20, "(19": 4428, "938": 5242, "8) ": 5174, " (19": 24, "1938": 4853, "bur": 6736, " bur": 461, "burg": 6737, "urge": 16939, "mees": 11851, "47": 5057, "-1": 4519, "70": 5148, "0)": 4636, "194": 4855, "947": 5255, "-19": 4522, "970": 5287, "0) ": 4637, "1947": 4863, "1970": 4889, "bin": 6613, " bin": 427, "nche": 12287, "hij": 9489, " hij": 926, "hij ": 9490, "cie": 7010, "ovin": 13722, "vinc": 17243, "ncie": 12293, "cier": 7014, "iera": 9867, "46": 5055, "946": 5254, "46 ": 5056, " 194": 137, "1946": 4862, "95": 5258, "58": 5097, "8.": 5179, "195": 4866, "958": 5268, "8. ": 5180, " 195": 138, "1958": 4875, "tia": 16127, "iev": 9895, " ini": 986, "init": 10170, "niti": 12570, "itia": 10421, "atie": 6246, "ieve": 9896, "ven ": 17180, "opl": 13453, "ple": 13987, " her": 920, "ople": 13455, "levi": 11294, "evin": 8767, " car": 487, "arna": 6111, "tte": 16392, "stic": 15684, "tich": 16136, "icht": 9747, "tte ": 16393, "aal": 5378, "aal ": 5379, "mus": 12113, "use": 16979, "eum": 8735, " mus": 1274, "muse": 12114, "useu": 16983, "seum": 15354, "eum ": 8736, "mas": 11785, "ske": 15457, "rs.": 14927, " mas": 1220, "aske": 6182, "kers": 10839, "ers.": 8537, "rs. ": 14928, " мн": 2883, "мно": 22914, " мно": 2884, "мног": 22915, "л ": 22635, "дел": 21540, "ела": 21762, "ал ": 20858, "дела": 21541, "дл": 21588, "ля": 22805, " дл": 2699, "для": 21590, "ля ": 22806, " для": 2700, "для ": 21591, "пон": 23775, "они": 23526, "ман": 22842, " пон": 3001, "мани": 22844, "ания": 20921, "ея": 21962, " де": 2689, "дея": 21557, "еят": 21963, "яте": 25258, "тел": 24502, "ель": 21777, "ьно": 25145, "нос": 23167, " дея": 2695, "деят": 21558, "ятел": 25259, "тель": 24507, "ельн": 21779, "льно": 22791, "ьнос": 25149, "ност": 23170, "ости": 23623, "м.": 22830, " м.": 2859, "м. ": 22831, " м. ": 2860, "в.": 21182, " в.": 2605, "в. ": 21183, " в. ": 2606, " ло": 2853, "омо": 23509, "мон": 22929, "оно": 23531, "осо": 23613, "сов": 24287, "ова": 23308, " лом": 2854, "ломо": 22759, "омон": 23511, "моно": 22931, "онос": 23534, "носо": 23169, "осов": 23615, "сова": 24289, "ова ": 23309, "лж": 22694, "ой": 23438, "дол": 21616, "олж": 23468, "жно": 22000, "ной": 23155, "ой ": 23439, " дол": 2707, "долж": 21617, "ной ": 23156, "оц": 23668, "нк": 23113, "оце": 23669, "цен": 24893, "енк": 21818, "нки": 23115, "ки ": 22482, "оцен": 23670, "её": 21964, "ё ": 25271, "ез": 21723, "нт": 23192, "пре": 23792, "рез": 23958, "ези": 21728, "зид": 22059, "иде": 22156, "ден": 21545, "ент": 21829, "нт ": 23193, " пре": 3009, "през": 23795, "рези": 23960, "езид": 21729, "иден": 22157, "дент": 21550, "ент ": 21830, " ак": 2554, "кад": 22446, "аде": 20782, "дем": 21543, "мии": 22887, " ака": 2555, "акад": 20843, "каде": 22447, "адем": 20783, "деми": 21544, "мии ": 22888, "ау": 21032, "к ": 22433, "нау": 23006, "аук": 21033, " нау": 2912, "наук": 23007, "ы ": 25088, "ины": 22280, "ны ": 23225, "дс": 21636, "ерн": 21887, "рна": 24043, "адс": 20791, "дск": 21637, "кий": 22491, "верн": 21237, "ерна": 21888, "адск": 20792, "дски": 21638, "ский": 24244, "мя": 22957, " им": 2789, "мя ": 22958, "ря": 24162, "яд": 25226, " ря": 3048, "ряд": 24164, "ду ": 21644, " ру": 3045, "сск": 24325, "ких": 22499, "их ": 22352, " рус": 3047, "усск": 24787, "ских": 24247, "ких ": 22500, "ои": 23432, "пы": 23838, "ыт": 25116, " ес": 2737, "тес": 24523, "тво": 24482, "вои": 21328, "исп": 22313, "пыт": 23839, "тат": 24463, "ате": 21011, "лей": 22678, " ест": 2738, "ство": 24345, "ател": 21012, "теле": 24504, "пра": 23789, "рав": 23860, " пра": 3008, "прав": 23790, "уе": 24719, "сос": 24298, "осе": 23603, "сед": 24203, "едс": 21712, "дст": 21639, "ует": 24720, " сос": 3091, "едст": 21713, "дств": 21641, "с ": 24173, " с ": 3052, "име": 22246, "мен": 22866, "ене": 21807, "нем": 23047, "ем ": 21785, " име": 2792, "имен": 22247, "мене": 22867, "пе": 23718, "рв": 23922, " пе": 2982, "пер": 23723, "ерв": 21862, "рво": 23925, "вог": 21320, " пер": 2983, "перв": 23725, "ерво": 21863, "вого": 21321, "ког": 22527, "сско": 24326, "ског": 24253, "кого": 22528, "чё": 24998, "ён": 25274, "ов ": 23303, "сов ": 24288, " x": 2024, "xx": 17585, " xx": 2029, "xx ": 17586, "»)": 17998, "век": 21228, "ека": 21748, " век": 2610, "ий ": 22203, "кий ": 22492, "зг": 22046, "вл": 21284, "ял": 25238, "воз": 21327, "гла": 21449, "лав": 22647, "авл": 20753, "вля": 21290, " воз": 2630, "глав": 21450, "авля": 20755, "ию": 22383, "ю ": 25178, "ком": 22546, "мис": 22897, "исс": 22315, "ию ": 22384, " ком": 2832, "коми": 22549, "омис": 23506, "мисс": 22898, "исси": 22316, "зу": 22098, "уче": 24803, "чен": 24954, "нию": 23105, "учен": 24804, "чени": 24956, "ению": 21816, "нию ": 23106, "асл": 20987, "сле": 24263, "лед": 22670, "еди": 21700, "дия": 21585, "след": 24265, "ун": 24757, "кан": 22455, "ану": 20937, " кан": 2813, "0-": 4643, "лет": 22693, "етн": 21931, "нег": 23039, "его": 21688, "него": 23040, "его ": 21689, "юб": 25183, "би": 21099, "бил": 21102, "иле": 22230, " ег": 2723, " его": 2724, "вой": 21329, "вой ": 21330, "аб": 20732, " ла": 2849, "або": 20735, "бор": 21126, "ора": 23563, "ори": 23571, "рии": 23999, "ии.": 22200, "орат": 23565, "рато": 23905, "атор": 21023, "тори": 24608, "ории": 23573, "ии. ": 22201, " tus": 1858, "tuss": 16450, "usse": 16999, "ssen": 15619, "kru": 10953, "rui": 15020, " kru": 1111, "sing": 15422, "wes": 17433, " wes": 1989, "west": 17434, "sten": 15677, "ten ": 16035, "sw": 15796, "isc": 10336, "hof": 9545, "swe": 15798, "rda": 14401, "bisc": 6624, "isch": 10338, "erda": 8459, "rda ": 14402, "waa": 17369, " waa": 1975, "waar": 17370, "nsl": 12737, "aans": 5385, "ansl": 5952, "98": 5297, "98 ": 5298, "56": 5093, "56 ": 5094, "oost": 13438, "tad ": 15891, "bau": 6519, "utz": 17040, "tze": 16491, "zen": 17826, " bau": 397, "tzen": 16492, "zen ": 17827, " is ": 995, "weg": 17414, "eg ": 7998, "nge": 12465, "rvan": 15044, "vang": 17137, "ange": 5903, "ngen": 12468, "gen ": 9139, "8, ": 5176, "6.": 5113, "6. ": 5114, "وع": 26922, "عن": 26322, "ند": 26790, " وع": 3552, "عند": 26324, "دما": 26005, "دما ": 26006, "وص": 26916, "صل": 26223, " وص": 3551, "وصل": 26917, "صل ": 26224, " ج": 3377, "نو": 26819, "ود": 26896, " جن": 3382, "جنو": 25891, "ود ": 26897, "لح": 26530, "حم": 25930, "مل": 26739, "لة": 26509, "الح": 25591, "حمل": 25933, "لة ": 26510, " الح": 3304, "لف": 26584, "فر": 26351, "رن": 26099, "نس": 26793, "سي": 26180, "ية": 26990, "الف": 25626, "لفر": 26586, "فرن": 26352, "رنس": 26101, "نسي": 26795, "سية": 26183, "ية ": 26991, " الف": 3317, "الفر": 25627, "فرنس": 26353, "سية ": 26184, " غ": 3446, "غر": 26337, "رب": 26066, "غرب": 26338, "رب ": 26067, "مد": 26706, "نة": 26782, " مد": 3505, "مدي": 26708, "دين": 26027, "ينة": 27063, "نة ": 26783, " مدي": 3506, "مدين": 26709, "دينة": 26029, "ينة ": 27064, "لإ": 26475, "إس": 25441, "سك": 26163, "كن": 26449, "در": 25995, "الإ": 25561, "لإس": 26477, "رية": 26115, " الإ": 3298, "الإس": 25563, "رية ": 26116, " 2 ": 144, " ي": 3570, "يو": 27071, "ول": 26938, "لي": 26646, "و ": 26860, " يو": 3584, "ولي": 26946, "ليو": 26660, "يو ": 27072, "وليو": 26947, "179": 4815, " 179": 117, " ز": 3410, "فو": 26364, "وا ": 26864, "لى": 26644, "ى ": 26971, " عل": 3439, "على": 26313, "لى ": 26645, " على": 3440, "على ": 26314, "لمد": 26614, "المد": 25643, "اح": 25498, "تل": 25815, "لو": 26636, "وه": 26957, " وا": 3541, "واح": 26867, "احت": 25500, "ها ": 26836, " واح": 3542, "بع": 25729, "عد": 26287, " بع": 3342, "بعد": 25733, "عد ": 26288, " بعد": 3343, "بعد ": 25734, "مق": 26733, "قا": 26372, "او": 25687, "وم": 26948, "مة": 26685, " مق": 3515, "مقا": 26734, "مة ": 26686, "جا": 25860, "ان": 25674, "نب": 26781, " جا": 3378, "جان": 25866, "انب": 25677, "أه": 25430, "هل": 26850, "له": 26631, "لها": 26633, "لها ": 26634, "وح": 26893, "حا": 25899, "اك": 25551, "كم": 26445, "مه": 26753, " وح": 3547, "مح": 26700, " مح": 3502, "محم": 26703, "حمد": 25931, "مد ": 26707, " محم": 3503, "محمد": 26704, "حمد ": 25932, " ك": 3468, "كر": 26439, "يم": 27052, "كري": 26441, "يم ": 27053, "دام": 25984, "امت": 25670, "سا": 26140, "ات": 25485, " سا": 3412, "ساع": 26143, "عات": 26273, " ذ": 3404, "ذل": 26035, "لك": 26592, "ك ": 26413, " ذل": 3405, "ذلك": 26036, "لك ": 26593, " ذلك": 3406, "ذلك ": 26037, "أخ": 25404, "ذ ": 26031, " أخ": 3266, " ن": 3523, "نا": 26773, "اب": 25476, " نا": 3524, "ابل": 25481, "يون": 27075, "ون ": 26954, "يون ": 27076, "يز": 27016, "ف ": 26344, "لق": 26587, "اه": 25684, "رة": 26072, "الق": 25628, "لقا": 26588, "اهر": 25686, "رة ": 26073, " الق": 3318, "القا": 25629, "طر": 26247, "يق": 27034, "ق ": 26371, "طري": 26248, "ريق": 26120, "يق ": 27035, "طريق": 26249, "ريق ": 26121, "نه": 26813, "هو": 26856, "ور": 26901, "ر،": 26045, "، ": 25395, "منه": 26751, "ر، ": 26046, " ح": 3383, "حي": 25937, "يث": 27000, "ث ": 25841, " حي": 3391, "حيث": 25939, "يث ": 27001, " حيث": 3392, "حيث ": 25940, "اس": 25523, "ست": 26150, "تط": 25801, "طا": 26241, "ع ": 26271, " اس": 3294, "است": 25525, "اع ": 25535, " است": 3295, "لا": 26480, "لال": 26492, "ال ": 25554, "لال ": 26493, " ر": 3407, "شي": 26207, "يد": 27006, "يد ": 27007, " 6": 200, " 6 ": 201, "وو": 26962, "لوا": 26637, " إ": 3284, "إل": 25446, " إل": 3285, "إلى": 25449, " إلى": 3287, "إلى ": 25450, "لر": 26550, "رح": 26078, "الر": 25602, "مان": 26679, "اني": 25681, "نية": 26827, " الر": 3308, "ماني": 26680, "انية": 25683, "نية ": 26828, "هي": 26858, " وه": 3566, "وهي": 26960, "هي ": 26859, " وهي": 3568, "وهي ": 26961, "قر": 26390, " قر": 3466, "قري": 26392, "يل": 27045, "الن": 25655, "يل ": 27046, " الن": 3322, "وف": 26926, " وف": 3553, "وفي": 26928, " وفي": 3554, "وفي ": 26929, " تل": 3369, "أث": 25400, "ثن": 25854, "اء": 25468, "ثنا": 25855, "ناء": 26775, "كا": 26414, " كا": 3469, "كان": 26418, "ان ": 25675, " كان": 3470, "كان ": 26419, "مم": 26743, "يك": 27039, "لمم": 26623, "مما": 26744, "مال": 26675, "الي": 25662, "المم": 25651, "مالي": 26677, "يع": 27028, "دو": 26011, " يع": 3576, "دون": 26018, "يش": 27023, "شا": 26186, "اً": 25695, "ً ": 27080, "اً ": 25696, " ل": 3479, " لم": 3488, "لمق": 26621, "لج": 26524, "وش": 26915, "الج": 25587, "لجي": 26529, " الج": 3303, "بق": 25738, "قي": 26409, "يا": 26978, "دة": 25987, " بق": 3345, "قيا": 26410, "ياد": 26982, "ادة": 25508, "دة ": 25988, "ادة ": 25509, "را": 26051, " مر": 3507, "مرا": 26712, "راد": 26058, " مرا": 3508, "راد ": 26059, "بك": 25739, " بك": 3346, "لتق": 26517, "التق": 25581, "لقر": 26590, "القر": 25630, " ش": 3419, "شب": 26189, "بر": 25720, "اخ": 25503, "خي": 25965, "يت": 26996, " شب": 3421, "برا": 25722, "يت ": 26997, " 13 ": 104, "إلا": 25447, "لا ": 26481, " إلا": 3286, "إلا ": 25448, "أن": 25426, " أن": 3277, "أن ": 25427, " أن ": 3278, "وك": 26935, "كي": 26456, "كية": 26458, "كية ": 26459, "اض": 25532, "رت": 26074, "رت ": 26075, "قه": 26404, "رج": 26076, "جع": 25880, " فر": 3453, "ة.": 25764, "ة. ": 25765, "صو": 26227, "وت": 26886, "ه ": 26830, "ته ": 25827, "لش": 26563, "الش": 25611, " الش": 3311, "مي": 26760, "ز ": 26125, "طي": 26262, "زا": 26127, " مم": 3517, "صا": 26209, "حب": 25903, "رس": 26081, "سة": 26148, "سة ": 26149, "وط": 26919, "طو": 26259, "ور ": 26902, "ّ ": 27086, "تج": 25782, "جد": 25872, " تج": 3359, "جد ": 25873, " له": 3491, "له ": 26632, "مث": 26692, "ثي": 25857, "ا.": 25464, " مث": 3499, "يلا": 27047, "ا. ": 25465, "وق": 26930, "قد": 26387, " وق": 3555, "وقد": 26933, "قد ": 26388, " وقد": 3557, "وقد ": 26934, "عر": 26294, "رف": 26089, " عر": 3436, "عرف": 26300, "رف ": 26090, "حس": 25923, "سن": 26173, " حس": 3389, "لد": 26541, "الد": 25597, "لدي": 26545, " الد": 3306, "الدي": 25599, "لدين": 26546, "دين ": 26028, "خل": 25960, "اص": 25531, "ص ": 26208, "خلا": 25962, "بالإ": 25710, "قرا": 26391, "راء": 26053, "تز": 25795, "وال": 26873, "الا": 25565, " وال": 3543, "لط": 26569, "ح ": 25898, "الط": 25616, "لطر": 26571, " الط": 3314, "الطر": 25618, "لخ": 26538, "خا": 25943, "الخ": 25595, "لخا": 26539, "خاص": 25944, " الخ": 3305, "الخا": 25596, "فن": 26362, "بة": 25713, "بة ": 25714, "يني": 27066, "اب ": 25477, "لع": 26572, "عو": 26326, "اط": 25533, "طف": 26251, "الع": 25619, " الع": 3315, "مخ": 26705, "طب": 26244, " وم": 3563, "عق": 26307, "نف": 26807, "فس": 26355, "س ": 26137, " نف": 3525, "نفس": 26808, " نفس": 3526, "قت": 26384, "الو": 25660, "وقت": 26932, " الو": 3324, "فك": 26360, "مص": 26722, "ائ": 25470, " مص": 3512, "بي": 25752, "لبي": 26508, "البي": 25574, "قت ": 26385, "ير": 27011, "الك": 25632, "كثي": 26434, "ثير": 25858, "ير ": 27012, " الك": 3319, "كثير": 26435, "كذ": 26436, " وك": 3558, "كذل": 26437, "كذلك": 26438, " الا": 3299, "لس": 26555, "الس": 25606, "لسي": 26562, "يرة": 27014, "السي": 25610, "يرة ": 27015, "لعا": 26573, "امة": 25669, "العا": 25620, "لعام": 26575, " لأ": 3480, "ت،": 25770, "ت، ": 25771, "تم": 25818, "تما": 25820, "مام": 26678, "لجا": 26525, "الجا": 25588, "قائ": 26373, "فق": 26359, "م.": 26662, "م. ": 26663, "ومن": 26952, " ومن": 3564, "ات ": 25486, "تح": 25784, "حق": 25926, "لتح": 26514, "قيق": 26412, "لما": 26606, "بس": 25726, " بس": 3340, "تف": 25806, "فا": 26347, "صي": 26229, " وت": 3545, "تفا": 25807, "أح": 25402, "حد": 25910, "اث": 25492, "أحد": 25403, "حدا": 25912, "داث": 25975, "حداث": 25913, "تي": 25838, "لتي": 26520, "تي ": 25839, "التي": 25584, "لتي ": 26521, "اف": 25544, "راف": 26061, "حيا": 25938, "يات": 26980, "اته": 25490, "تهم": 25830, "هم ": 26852, "دس": 25997, "ة،": 25767, "ة، ": 25768, "المق": 25649, "وكا": 26936, " وكا": 3559, "وكان": 26937, "بح": 25716, "حر": 25919, " بح": 3336, "بحر": 25717, "راً": 26064, "راً ": 26065, "خر": 25954, "فة": 26348, "لمع": 26620, "معر": 26729, "فة ": 26349, "المع": 25648, "بالت": 25711, "سل": 26164, "إسل": 25442, "سلا": 26166, "لام": 26494, "امي": 25673, "مي ": 26761, "لإسل": 26478, "إسلا": 25443, "سلام": 26167, "لامي": 26495, "وأ": 26861, "حو": 25934, " وأ": 3539, "حوا": 25935, "لعر": 26577, "عرب": 26297, "العر": 25622, "لعرب": 26579, "هن": 26854, " هن": 3532, "هنا": 26855, "نا ": 26774, "فإ": 26345, "إن": 25452, " فإ": 3450, "فإن": 26346, "إن ": 25453, " فإن": 3451, " قد": 3464, " قد ": 3465, "از": 25521, " حا": 3384, "از ": 25522, "شه": 26206, "هذ": 26843, "ذا": 26032, " هذ": 3529, "هذا": 26844, "ذا ": 26033, " هذا": 3530, "هذا ": 26845, "مج": 26695, "لمج": 26611, "مجا": 26696, "جال": 25863, "المج": 25641, "لأن": 26472, "أنه": 25428, "نه ": 26814, "أنه ": 25429, "يس": 27018, "تخ": 25787, "خد": 25949, " يس": 3574, "يست": 27020, "ستخ": 26151, "تخد": 25788, "خدم": 25952, " يست": 3575, "ستخد": 26152, "تخدم": 25790, "خدم ": 25953, "لمن": 26624, "بر ": 25721, "المن": 25652, "ني ": 26825, "إر": 25440, "لإر": 26476, "الإر": 25562, "تو": 25831, "عي": 26329, "لتو": 26519, "عية": 26330, "والت": 26875, "التو": 25583, "عية ": 26331, "مية": 26762, "مية ": 26763, " ور": 3548, "جت": 25870, "جتم": 25871, "مع ": 26726, "كر ": 26440, "يه": 27067, "علي": 26315, "ليه": 26657, " علي": 3441, "عليه": 26316, "لسل": 26560, " الس": 3310, "السل": 25609, "لذ": 26547, " ول": 3560, "كل": 26443, " كل": 3474, "رى": 26110, "رى ": 26111, "لبح": 26503, "حري": 25921, "رين": 26123, "البح": 25571, "لبحر": 26504, "رين ": 26124, "لم ": 26605, " لم ": 3489, "تل ": 25816, "ره": 26102, "ا،": 25466, "منا": 26747, "رها": 26104, "ا، ": 25467, "فع": 26358, "سب": 26146, "ثا": 25842, " لا": 3481, " لا ": 3482, "حص": 25924, "صر": 26218, "صر ": 26219, " فق": 3454, "اعت": 25538, "دار": 25981, " يق": 3577, "أر": 25408, "عة": 26283, " أر": 3268, "ربع": 26069, "بعة": 25731, "عة ": 26284, "بعة ": 25732, "قو": 26405, "تص": 25798, " مت": 3498, "فص": 26356, " جد": 3379, "مس": 26716, "تر": 25792, " ست": 3413, "لث": 26522, "ثل": 25849, "ثة": 25844, "ثلا": 25851, "اثة": 25493, "ثة ": 25845, "اثة ": 25494, "أو": 25431, " أو": 3280, "أو ": 25432, " أو ": 3281, "د.": 25967, "د. ": 25968, "ane": 5894, " ari": 333, "aria": 6086, "rian": 14593, "anes": 5897, "espa": 8638, " ş": 2209, "şi": 18756, " şi": 2214, "irk": 10309, "rke": 14702, "ket": 10842, "irke": 10310, "rket": 14704, "keti": 10844, "eti ": 8689, "'y": 4414, "yı": 17740, "ı,": 18608, "ı, ": 18609, "ps": 14141, "kut": 11003, "utu": 17038, "psa": 14143, "sal": 15207, "sal ": 15208, "eş": 8849, "ş ": 18748, "lı ": 11691, "zama": 17778, "aman": 5808, "manl": 11767, "anlı": 5927, "yö": 17733, "ör": 18361, "rü": 15136, " yö": 2052, "örü": 18364, "rün": 15140, "ler": 11266, "ngel": 12467, "gele": 9133, "eler": 8172, "lere": 11272, "dec": 7390, "ece": 7869, "cek": 6885, "dece": 7391, "ola": 13200, " ola": 1409, "olan": 13202, "lan ": 11117, "vl": 17262, "gör": 9347, "öre": 18362, "evl": 8769, "vle": 17264, " gör": 888, "göre": 9348, "evle": 8770, "ler ": 11267, "iç": 10550, "çi": 18117, " iç": 1007, "içi": 10552, "çin": 18118, " içi": 1008, "için": 10553, "çin ": 18119, "mı": 12164, "ış": 18679, " uy": 1910, "yar": 17609, "anm": 5928, "nmı": 12613, "mış": 12167, "ış ": 18680, "lanm": 11124, "anmı": 5930, "nmış": 12614, "mış ": 12168, "fı": 9066, "ır": 18656, "tm": 16225, "ırl": 18661, "atm": 6255, "tma": 16226, "ırla": 18662, "sis": 15427, "mi ": 11910, " sis": 1703, "sist": 15430, "iste": 10379, "stem": 15676, "temi": 16032, "emi ": 8250, "rak": 14299, "ak ": 5657, "olar": 13203, "lara": 11132, "arak": 6047, "rak ": 14300, "kt": 10965, "dı": 7761, "paz": 13877, "aza": 6396, "zar": 17782, "lam": 11113, "mak": 11747, "akt": 5675, "kta": 10967, "adı": 5534, "dır": 7766, "ır.": 18658, "azar": 6398, "rlam": 14717, "lama": 11114, "amak": 5805, "makt": 11750, "akta": 5677, "ktad": 10968, "tadı": 15897, "adır": 5537, "dır.": 7767, "ır. ": 18659, "ye": 17636, " ye": 2041, "yet": 17650, "lik": 11366, " yet": 2045, "eter": 8685, "terl": 16060, "lik ": 11367, "nı": 12947, "ıt": 18669, "anı": 5982, "uç": 17078, "çu": 18127, "şu": 18772, "und": 16840, "da,": 7313, "unda": 16842, "nda,": 12322, "da, ": 7314, "ga ": 9078, "ega ": 8000, " ana": 304, "yü": 17736, "ük": 18404, "kü": 11031, "ü ": 18392, "yük": 17737, "86": 5194, "6,": 5110, ",8": 4515, " 38": 186, "kg": 10848, "ağ": 6433, "ğı": 18601, "ığ": 18675, " ağ": 380, "ağı": 6437, "rlı": 14734, "lığ": 11697, "ığı": 18676, "ğın": 18603, "ınd": 18648, "dak": 7334, "ki ": 10852, "lığı": 11698, "ığın": 18678, "ında": 18649, "ndak": 12324, "daki": 7335, "aki ": 5666, " lar": 1144, "lare": 11134, "yd": 17631, "ydu": 17635, "usu": 17008, "sun": 15774, "unu": 16883, "usun": 17009, "45": 5053, "50 ": 5080, "km": 10901, " km": 1095, "km ": 10902, " km ": 1096, " yü": 2054, "kse": 10961, "sek": 15317, "ekl": 8132, "ikt": 10000, "kte": 10969, "eki": 8129, " yük": 2055, "likt": 11371, "ikte": 10001, "eki ": 8130, "dai": 7331, " dai": 573, "ires": 10303, "eye": 8807, "ye ": 17637, "eye ": 8808, " ç": 2135, "çı": 18136, " çı": 2142, "çık": 18137, "ıka": 18620, "kar": 10793, " çık": 2143, "çıka": 18138, "kara": 10794, "arar": 6051, "rara": 14333, "69": 5134, "9,": 5209, ",5": 4511, ",5 ": 4512, "dere": 7446, "erec": 8465, "rece": 14444, "elik": 8185, "eğ": 8839, "ği": 18586, "ml": 11979, " eğ": 758, "eği": 8841, "iml": 10086, "mle": 11982, "imle": 10087, "yer": 17644, "rle": 14722, "leş": 11303, "eşt": 8851, " yer": 2044, "yerl": 17647, "erle": 8509, "rleş": 14726, "leşt": 11304, "eşti": 8852, "tirm": 16191, "pli": 13992, "appl": 6015, "plic": 13993, "lica": 11337, "cati": 6848, "ché": 6990, "dép": 7738, "épa": 18200, " dép": 662, "épar": 18201, "rtem": 14975, "pé": 14184, "coo": 7139, "oop": 13431, "pér": 14185, " coo": 529, "érat": 18209, "rati": 14345, "rco": 14392, "muna": 12107, "unal": 16832, " fu": 811, "nne ": 12622, "anv": 5966, " jan": 1022, "vier": 17232, "ier ": 9866, "17 ": 4805, "017 ": 4701, "nau": 12256, "uté": 17041, "-t": 4574, "bou": 6676, "urb": 16924, "ds,": 7665, " bou": 446, "bour": 6677, "sera": 15341, "eran": 8443, "ds, ": 7666, " val": 1917, "vall": 17129, "hien": 9485, "ien ": 9856, "allo": 5749, "uie": 16724, "uier": 16726, "iers": 9874, "ers ": 8535, "pou": 14059, "ur ": 16911, " pou": 1518, "pour": 14060, "our ": 13686, "é.": 18158, "é. ": 18159, "kat": 10800, " kat": 1071, "tie ": 16145, "nas": 12246, "asc": 6167, "ceu": 6913, " nas": 1307, "cre": 7172, " cre": 536, "cres": 7174, "resc": 14523, "dd": 7376, "dl": 7564, "mid": 11925, "idd": 9795, "dle": 7567, "ebu": 7861, "ury": 16966, "ry ": 15063, " mid": 1241, "midd": 11926, "ury ": 16967, " no ": 1340, "cond": 7129, "onda": 13341, "ndad": 12323, "dado": 7325, "hav": 9417, " hav": 909, "have": 9418, "tado": 15895, "ctic": 7197, "eus": 8743, "seus": 15355, "eus ": 8744, "pai": 13840, " pai": 1465, "sã": 15822, "ão": 18084, " sã": 1780, "são": 15823, "ão ": 18085, " são": 1781, "são ": 15824, "cla": 7085, " cla": 516, "clar": 7086, "mark": 11782, "ark ": 6094, "tev": 16084, " ste": 1744, "stev": 15680, "teve": 16085, "vens": 17186, " ai": 268, " ain": 270, "aind": 5620, "inda": 10129, "nda ": 12321, " tem": 1817, "tem ": 16028, " ir": 993, "ão,": 18086, "ão, ": 18087, "mad": 11729, "amad": 5804, "mado": 11732, " ry": 1626, "rya": 15068, "yan ": 17604, "for": 9001, "rmo": 14755, " for": 802, "form": 9007, "mpe": 12062, "rau": 14350, "aug": 6302, "ug ": 16699, "ompe": 13303, "mper": 12063, "erau": 8447, "gh": 9179, "hig": 9487, "igh": 9929, "gh ": 9180, " hig": 925, "high": 9488, "igh ": 9930, "choo": 6964, "hool": 9554, "ool ": 13427, "hb": 9422, "out": 13692, "ry,": 15064, "sout": 15561, "outh": 13695, "ry, ": 15065, "010": 4682, "2010": 4961, "010 ": 4683, " хо": 3193, "онд": 23524, "пъ": 23834, "ър": 25073, " пъ": 3016, "пър": 23836, "ърв": 25075, "рва": 23923, "ват": 21211, " пър": 3017, "първ": 23837, "вата": 21213, " я": 3239, "онс": 23535, "нска": 23183, "лн": 22736, "том": 24598, "моб": 22918, "оби": 23281, "лна": 22737, "втом": 21375, "томо": 24601, "омоб": 23510, "лна ": 22738, "мп": 22937, "па": 23703, "омп": 23512, "мпа": 22938, "пан": 23711, "комп": 22550, "омпа": 23513, "мпан": 22939, "пани": 23712, "ния,": 23109, "оя": 23692, "коя": 22567, "оят": 23695, " коя": 2837, "коят": 22568, "оято": 23696, "ято ": 25262, "ъз": 25061, "зд": 22047, "съз": 24407, "ъзд": 25062, "зда": 22048, "ава": 20741, " съз": 3110, "здав": 22049, "дава": 21506, "ава ": 20742, "др": 21629, "под": 23757, "одр": 23391, "дра": 21630, "азд": 20812, "зде": 22052, "ие ": 22160, " под": 2995, "разд": 23873, "деле": 21542, "ние ": 23071, "за ": 22009, " за ": 2750, "кс": 22586, " лу": 2855, "соз": 24291, "зни": 22078, "ни ": 23063, "ли ": 22699, "или ": 22232, "цел": 24892, "ел ": 21761, " цел": 3201, "тъ": 24666, "ъп": 25072, "пи": 23734, " ст": 3100, "стъ": 24380, " зд": 2767, "аво": 20759, "во ": 21313, "раво": 23866, "мент": 22870, "чу": 24997, "жд": 21971, "нн": 23118, " чу": 3223, "ужд": 24722, "жде": 21975, "дес": 21555, "тра": 24619, "ран": 23890, "анн": 20923, "нни": 23120, "стра": 24370, "тран": 24624, "ранн": 23894, " па": 2977, "паз": 23708, "аза": 20808, "зар": 22028, "ари": 20959, "ози": 23422, "зи ": 22058, "ози ": 23423, "мом": 22928, "омен": 23504, "цит": 24906, "ците": 24907, " ек": 2728, "екс": 21753, "ксп": 22590, "спо": 24311, "пор": 23777, "орт": 23594, "рти": 24124, "тир": 24549, "ат ": 21006, " екс": 2729, "експ": 21755, "спор": 24313, "порт": 23779, "тира": 24550, "рат ": 23902, "ред": 23948, "дим": 21571, "пред": 23794, "реди": 23952, "мод": 22922, "оде": 23374, " мод": 2887, "моде": 22923, "одел": 23376, "ели ": 21768, "о-": 23273, "-с": 4588, "по-": 23752, "кро": 22582, "ром": 24089, "омн": 23508, " по-": 2992, "йн": 22412, "зай": 22017, "айн": 20835, "уд": 24708, "дв": 21521, "е,": 21663, "обо": 23287, "руд": 24134, "два": 21522, "ван": 21202, "ане": 20908, "не,": 23034, "е, ": 21664, " обо": 2941, "обор": 23289, "оруд": 23596, "дван": 21524, "ване": 21205, "не, ": 23035, "наз": 22982, "азн": 20817, "аче": 21057, "редн": 23954, "азна": 20818, "знач": 22077, "наче": 23015, "ачен": 21058, "ени ": 21810, " ос": 2963, "соб": 24285, "обе": 23280, "бен": 21095, " осо": 2966, "особ": 23614, "аг": 20771, "баг": 21084, "ага": 20772, "гат": 21429, " баг": 2574, "бага": 21085, "агат": 20774, "ати ": 21015, " кл": 2820, "кли": 22507, "нти": 23199, "ти.": 24533, "енти": 21832, "ти. ": 24534, " сл": 3078, "ед ": 21692, " сле": 3080, "лед ": 22671, "йо": 22416, "той": 24593, "ота": 23637, " той": 3134, "ота ": 23638, " ни": 2926, "нис": 23093, "иса": 22304, "сан": 24184, "ан ": 20898, "исан": 22305, "ават": 20745, "ват ": 21212, "сво": 24193, "ои ": 23433, " сво": 3061, "бн": 21114, "доб": 21609, "обн": 23285, "бни": 21115, "подо": 23760, "обни": 23286, "ения": 21817, "отв": 23639, "тве": 24476, "вет": 21242, "тно": 24577, "отве": 23640, "твет": 24479, "етно": 21932, "тно ": 24578, "ъс": 25079, "със": 24408, "ъс ": 25080, "лекс": 22681, "със ": 24409, "нф": 23215, "фи": 24831, " ин": 2794, "фин": 24833, "ити": 22338, "тег": 24498, "гия": 21445, " стр": 3106, "трат": 24625, "лз": 22695, "зв": 22036, "изп": 22191, "олз": 23469, "лзв": 22696, "зва": 22037, " изп": 2786, "изпо": 22192, "полз": 23767, "олзв": 23470, "лзва": 22697, "ех": 21942, "хн": 24866, "тех": 24525, "ехн": 21944, "хни": 24867, "еск": 21906, " тех": 3127, "техн": 24526, "ехни": 21945, "ниче": 23104, "ческ": 24961, "ески": 21908, "скит": 24246, "су": 24389, "ур": 24771, "урс": 24778, "рси": 24112, "си ": 24217, " ф": 3169, "рм": 24035, "а-": 20725, "-м": 4584, "йк": 22408, " фи": 3174, "рма": 24036, "мат": 22848, "май": 22838, "айк": 20833, "ка,": 22440, "рмат": 24038, "мата": 22849, "ка, ": 22441, "вай": 21195, "йки": 22409, "вп": 21354, "еч": 21950, " вп": 2635, "печ": 23732, "еча": 21951, "чат": 24945, "то,": 24584, "то, ": 24585, " че": 3211, "че ": 24950, " че ": 3212, "ня": 23241, "ям": 25241, " ня": 2932, "ням": 23251, "яма": 25243, "ищ": 22381, "ев": 21673, "тин": 24547, "зат": 22030, " зат": 2762, "това": 24589, " чес": 3215, "маг": 22837, "зно": 22079, "нот": 23171, "ното": 23172, "са ": 24179, " са ": 3056, "под ": 23758, "дин": 21572, "ин ": 22255, " еди": 2726, "един": 21702, "дин ": 21573, "ив": 22130, "пок": 23764, "окр": 23454, "кри": 22579, "рив": 23993, " пок": 2998, "крив": 22580, "seg": 15307, "egu": 8032, "gun": 9327, " seg": 1675, "segu": 15309, "egun": 8035, "gund": 9328, "undo": 16845, "so ": 15512, "cens": 6897, "enso": 8353, "nso ": 12739, "001": 4657, "01,": 4680, "2001": 4951, "01, ": 4681, " ji": 1035, "rib": 14595, "iba": 9703, "bam": 6497, "inh": 10161, "nha": 12491, " tin": 1833, "inha": 10162, "nha ": 12492, "aç": 6413, "çã": 18128, "laç": 11163, "açã": 6415, "ção": 18129, "laçã": 11164, "ação": 6416, "ção ": 18130, "42": 5047, "26": 4980, "26 ": 4981, "hab": 9374, " hab": 898, "habi": 9375, "abit": 5411, "bita": 6626, "itan": 10400, "ntes": 12781, "tes.": 16076, " os": 1438, " os ": 1439, "íd": 18259, "div": 7552, "indi": 10131, "ndiv": 12348, "xo": 17569, "sex": 15358, " sex": 1687, "uli": 16782, "masc": 11787, "scul": 15283, "ulin": 16785, "lino": 11386, "ino ": 10183, "onst": 13397, "49": 5061, "% ": 4361, "fem": 8914, " fem": 781, "mini": 11951, "inin": 10168, "1%": 4735, "ax": 6366, "xa": 17554, "tax": 15968, "lit": 11406, "aci": 5449, " lit": 1175, "lite": 11409, "iter": 10412, "erac": 8439, "raci": 14274, "acia": 5451, "73": 5155, "3%": 4997, "%,": 4363, "%, ": 4364, "upe": 16893, "rio": 14658, "ior": 10243, "supe": 15780, "uper": 16895, "peri": 13915, "erio": 8498, "rior": 14663, "ior ": 10244, "nac": 12203, " nac": 1299, "naci": 12205, "acio": 5453, "cion": 7033, "59": 5099, ".5": 4611, "5%": 5068, "80": 5181, "0%": 4634, " 80": 211, "0% ": 4635, "66": 5128, "6%": 5105, "m,": 11709, "am,": 5798, "m, ": 11710, "am, ": 5799, " ab": 227, "bai": 6491, "aix": 5639, "ixo": 10514, " aba": 229, " ano": 311, "anos": 5943, "cand": 6820, "ndel": 12332, "maz": 11806, " è": 2144, "è ": 18139, " è ": 2145, "rag": 14291, "gaz": 9104, "azz": 6407, " rag": 1570, "agaz": 5567, " 15 ": 108, "nni": 12627, "anni": 5935, "nni ": 12628, "rima": 14644, "sta ": 15652, "orf": 13513, "fan": 8888, "sie": 15399, "iem": 9850, "insi": 10194, "nsie": 12732, "ieme": 9853, "eme ": 8244, " ai ": 269, "suo": 15777, " suo": 1764, "lli": 11461, "atel": 6234, "elli": 8198, "lli ": 11462, "hos": 9559, " hos": 941, "sana": 15219, "o.": 12970, "fac": 8875, "do.": 7596, "o. ": 12971, " fac": 762, "do. ": 7597, "giu": 9217, "iud": 10472, "udi": 16649, " giu": 858, "dice": 7496, "ice ": 9734, "cis": 7041, "ise": 10341, " dec": 586, "deci": 7392, "ecis": 7889, "ise ": 10342, "zzi": 17967, "zi ": 17852, "zzi ": 17968, "von": 17292, "dar": 7352, "anda": 5886, "ndar": 12326, "dare": 7355, "viv": 17255, " viv": 1942, "vive": 17256, "iver": 10496, "vere": 17195, "llo ": 11471, " zi": 2086, "uan": 16587, "za,": 17764, "za, ": 17765, "omo": 13297, "omo ": 13298, "co.": 7104, "co. ": 7105, "сы": 24412, "ыв": 25093, "рас": 23897, "асп": 20992, "спи": 24310, "пис": 23737, "ыва": 25094, "вал": 21196, " рас": 3030, "расп": 23898, "вал ": 21197, "мы": 22955, "хра": 24876, "рам": 23888, "мы ": 22956, "мс": 22945, "кос": 22561, "мск": 22946, "кой": 22536, "ой,": 23440, " кос": 2835, "кост": 22562, "остр": 23625, "ской": 24254, "ой, ": 23441, "иж": 22171, "иже": 22172, "гор": 21469, "оро": 23584, "род": 24067, "одс": 23392, "горо": 21470, "ород": 23587, "кой ": 22537, "вол": 21332, "лог": 22750, " вол": 2632, "воло": 21333, "олог": 23481, "гу": 21487, "уб": 24692, " гу": 2676, "губ": 21489, "убе": 24693, "ерни": 21889, " пи": 2985, "сал": 24181, " пис": 2986, "писа": 23738, " соб": 3087, "собо": 24286, "ора ": 23564, "пет": 23729, "етр": 21935, " пет": 2984, "тра ": 24620, "вла": 21285, "ец": 21946, "цк": 24910, "оре": 23569, "рец": 23976, " во ": 2627, "рож": 24076, "ожд": 23409, "рис": 24013, "ист": 22317, "ва,": 21186, "рист": 24014, "исто": 22321, "стов": 24365, "ова,": 23310, "ва, ": 21187, "ый": 25097, "пос": 23780, "рое": 24073, "оен": 23403, "енн": 21819, "нны": 23127, "ный": 23228, "ый ": 25098, " пос": 3004, "пост": 23783, "трое": 24637, "роен": 24075, "оенн": 23404, "енны": 21822, "нный": 23129, "ный ": 23229, " гор": 2670, "роде": 24069, "оде ": 23375, "рз": 23984, " ар": 2566, "зам": 22021, "ама": 20887, "мас": 22847, "ещ": 21959, "ща": 25034, "еща": 21960, "ино": 22271, "ном": 23160, "ом ": 23496, "ном ": 23161, "кса": 22587, "анд": 20905, "ндр": 23030, "дро": 21633, " але": 2558, "екса": 21754, "ксан": 22588, "санд": 24185, "андр": 20907, "ром ": 24090, "ха": 24857, "йл": 22410, "мих": 22901, "иха": 22353, "лов": 22746, "вич": 21274, "чем": 24952, " мих": 2880, "миха": 22902, "лови": 22748, "ович": 23327, "шни": 25026, "вым": 21398, "нико": 23085, "иков": 22218, "зя": 22109, "тем ": 24510, " дв": 2684, "дво": 21528, "вор": 21340, "оря": 23599, "яни": 25248, " дво": 2688, "двор": 21529, "ола": 23462, " ник": 2927, "икол": 22219, "кола": 22540, " як": 3242, "яко": 25236, "овл": 23330, "вле": 21287, "лев": 22668, "еви": 21678, " яко": 3245, "овле": 23331, "ео": 21843, "м,": 22828, "тоб": 24586, "сом": 24295, "ом,": 23497, "м, ": 22829, " сто": 3105, "ом, ": 23498, "ап": 20945, "нап": 22995, "апи": 20948, " нап": 2909, "апис": 20949, "ание": 20914, "тре": 24626, "рет": 23975, "ета": 21925, " пор": 3003, "трет": 24630, "ета ": 21926, "рог": 24064, " кот": 2836, "торо": 24609, "орог": 23586, "рого": 24065, " иг": 2779, "иго": 22149, "рев": 23943, "ев ": 21674, "олу": 23484, "луч": 22776, "учи": 24805, "чил": 24967, "ил ": 22226, "полу": 23771, "олуч": 23485, "лучи": 22778, "учил": 24806, " зв": 2765, "зван": 22038, "вани": 21206, "ху": 24878, " ху": 3196, "худ": 24879, "удо": 24714, "дож": 21614, "ожн": 23414, "жни": 21999, "ка.": 22442, " худ": 3197, "худо": 24880, "удож": 24716, "ожни": 23415, "ка. ": 22443, "88": 5198, "85": 5192, "188": 4827, "85 ": 5193, " 188": 128, "оду": 23394, "году": 21464, "оду ": 23395, "р ": 23847, "тер": 24518, "ер ": 21855, " мас": 2867, "стер": 24351, "вае": 21192, "вает": 21193, "нов": 23142, "ово": 23336, "воп": 21339, "опо": 23554, " нов": 2930, "ново": 23149, "вски": 21366, "ма ": 22833, "бы": 21166, "ыл": 25100, " бы": 2599, "был": 21168, "ыли": 25104, " был": 2600, "были": 21171, "ыли ": 25105, "гот": 21473, "ены": 21837, "гото": 21474, "отов": 23653, "влен": 21288, "ены ": 21838, " бо": 2586, "вм": 21292, "вме": 21293, "вмес": 21294, "кам": 22453, " уче": 3167, "еник": 21814, "ками": 22454, "ами ": 20892, "ып": 25113, " вы": 2649, "вып": 21399, "олн": 23477, "нен": 23048, "ена": 21803, " вып": 2650, "полн": 23769, "ена ": 21804, "сь": 24413, "осп": 23616, "ись": 22325, "сь ": 24414, "ись ": 22326, "н.": 22968, "н. ": 22969, " сте": 3103, " э": 3233, "эт": 25174, " эт": 3236, "это": 25176, " это": 3237, "это ": 25177, " ж": 2740, " же": 2741, " же ": 2742, "вр": 21355, " вр": 2636, "вре": 21357, "рем": 23965, "емя": 21799, " вре": 2637, "врем": 21358, "ремя": 23967, "емя ": 21800, "дан": 21510, "нии": 23077, "здан": 22050, "дани": 21511, "ании": 20916, "нии ": 23078, "овой": 23340, "вн": 21295, "овн": 23332, "вно": 21303, "овно": 23335, "вной": 21306, "сем": 24212, "мин": 22891, "нар": 22997, " сем": 3069, "мина": 22892, "нари": 22998, "рии ": 24000, " он": 2954, " он ": 2955, "иш": 22378, "ше": 25002, "ише": 22379, "дом": 21618, "мов": 22920, " дом": 2708, "кви": 22473, "ви ": 21249, "ркви": 24030, "кви ": 22474, "оа": 23277, "нна": 23119, "бог": 21120, "гос": 21471, "осл": 23608, "сло": 24267, "ва.": 21188, "слов": 24268, "лова": 22747, "ва. ": 21189, " 참": 4284, "사 ": 29727, " 초": 4288, " 당": 4087, "당시": 29611, " 당시": 4088, " 현": 4331, "(o": 4462, " (o": 51, "-c": 4539, "인 ": 29857, "ene": 8306, "ne-": 12378, "e-c": 7793, "-co": 4541, "mma": 11989, " sce": 1661, "omma": 13291, "mman": 11990, "mand": 11763, "nder": 12335, "차 ": 29912, " 청": 4287, "회 ": 29968, "시 ": 29756, "당시 ": 29612, " 당시 ": 4089, " 영": 4214, "적이": 29887, "다고": 29599, "다고 ": 29600, " 부": 4158, " 김": 4073, "일 ": 29860, "28": 4984, " 28": 167, " 명": 4136, " 제": 4267, " 소": 4180, "되어": 29629, "간 ": 29531, " tro": 1852, " sin": 1702, "ló": 11681, "óm": 18314, ",4": 4510, "iag": 9668, "go ": 9251, " san": 1651, "sant": 15224, "ntia": 12785, "iago": 9669, "ago ": 5586, "cac": 6794, "ém ": 18188, "foi": 8990, " foi": 798, "foi ": 8991, "ugu": 16713, "gur": 9331, " ina": 981, "inau": 10121, "augu": 6303, "gura": 9332, "urad": 16919, "rado": 14284, "21 ": 4970, " 21 ": 154, "34": 5015, "934": 5238, "1934": 4849, "ados": 5518, "rtir": 14988, "ram ": 14309, "hora": 9557, "oras": 13490, "taç": 15972, "taçã": 15973, "iá": 10545, "ár": 18046, "ári": 18049, "ária": 18050, "ues": 16685, "te,": 15987, " sue": 1758, "uest": 16687, "te, ": 15988, "isb": 10335, "boa": 6654, " lis": 1174, "ves": 17210, " atr": 351, "atra": 6263, "trav": 16325, "rave": 14353, "sand": 15221, "ando": 5889, " rio": 1602, "rio ": 14659, "tej": 16015, "ejo": 8114, "jo ": 10704, "arco": 6063, "év": 18230, "ra.": 14264, "ra. ": 14265, "dos,": 7627, "va ": 17112, "tava": 15964, "ava ": 6329, "nis": 12561, " min": 1246, "inis": 10169, "nist": 12566, "stro": 15715, " das": 578, "obr": 13010, " obr": 1381, "obra": 13011, "bras": 6688, "pú": 14194, "úb": 18379, " pú": 1548, "púb": 14195, "úbl": 18380, "as,": 6160, " púb": 1549, "públ": 14196, "úbli": 18381, "icas": 9729, "as, ": 6161, "dua": 7680, " dua": 649, "uart": 16593, "co,": 7101, "ache": 5443, "co, ": 7102, "seu ": 15353, "efe": 7982, "fe ": 8902, "gab": 9079, " gab": 823, "bine": 6616, "nete": 12433, "rlo": 14731, "los": 11544, "carl": 6833, "arlo": 6103, "los ": 11545, "lv": 11646, "s;": 15185, "; ": 5336, "alv": 5779, "lve": 11648, "s; ": 15186, "alve": 5781, "dire": 7535, "irec": 10300, "ctor": 7203, "tor ": 16283, "gera": 9156, "eral": 8441, "sté": 15738, "tér": 16516, "io,": 10223, "io, ": 10224, "aul": 6305, "aul ": 6306, "cos": 7153, " cos": 532, "cost": 7155, "osta": 13611, "r;": 14257, "cou": 7158, "r; ": 14258, " cou": 533, "ivi": 10498, " div": 616, "divi": 7554, "ivis": 10501, "nstr": 12749, "ção,": 18131, "odr": 13087, "igo": 9943, " rod": 1610, "igo ": 9944, " sev": 1686, "ever": 8763, "veri": 17198, "eria": 8489, "ano ": 5941, "o;": 12974, "o; ": 12975, "mont": 12035, "onte": 13402, "ntan": 12767, "mpa": 12058, "ompa": 13302, "mpan": 12060, "cami": 6814, "rtu": 14999, "tug": 16430, "gue": 9316, "port": 14047, "ortu": 13568, "rtug": 15000, "gues": 9319, "eses": 8616, "uí": 17083, "sta,": 15653, "nue": 12827, " man": 1218, "manu": 11772, "uel ": 16674, "nç": 12895, "ça": 18107, "nça": 12896, "çal": 18111, "nsta": 12746, "stan": 15661, "ntin": 12793, "tino": 16178, "schr": 15264, "lh": 11315, "arv": 6143, "alh": 5727, "lho": 11318, "arva": 6144, "aq": 6031, "aqu": 6032, "im ": 10063, "barr": 6508, "arro": 6125, "úl": 18382, "lio ": 11388, "anto": 5959, "nr": 12703, "enr": 8344, "nri": 12707, "riq": 14667, "henr": 9454, "enri": 8345, "riqu": 14668, "nea": 12381, "eau": 7836, "sone": 15541, "mend": 11872, "ende": 8302, "a;": 5372, "a; ": 5373, "bara": 6504, "rata": 14343, "jor": 10710, " jor": 1046, "rge ": 14565, "nun": 12837, " á": 2130, "ál": 18024, " ál": 2131, "lva": 11647, "var": 17141, "sous": 15560, "usa ": 16976, "ego": 8022, "rego": 14466, "resi": 14525, "esid": 8620, "side": 15397, "elh": 8177, "elho": 8178, "lho ": 11319, "dm": 7572, "adm": 5510, "dmi": 7573, "raç": 14363, " adm": 250, "admi": 5511, "dmin": 7574, "stra": 15712, "raçã": 14364, "vas": 17144, "sco": 15270, "elo": 8203, " vas": 1920, "asco": 6169, "scon": 15273, "ncel": 12281, "elos": 8208, "cor": 7144, "orr": 13552, "eia": 8055, " cor": 531, "corr": 7150, "orre": 13553, "rrei": 14911, "mov": 12050, "vim": 17240, " mov": 1265, "movi": 12052, "nto,": 12800, "arb": 6054, "rbo": 14377, "bos": 6674, "arbo": 6057, "osa ": 13585, " pi": 1489, "pita": 13972, "unta": 16879, "nta ": 12760, "oma ": 13268, "reir": 14473, "rof": 14813, "ofe": 13116, "fes": 8926, "prof": 14116, "rofe": 14814, "ofes": 13117, "fess": 8928, "esso": 8651, "ssor": 15635, "sor ": 15552, "ntó": 12820, "óni": 18319, "nio": 12552, "nio ": 12553, "ilh": 10025, "lhe": 11317, "na,": 12195, "na, ": 12196, "mpu": 12085, "uls": 16793, "dor": 7620, "impu": 10099, "onad": 13332, "nado": 12211, "ador": 5517, "dore": 7623, "ores": 13512, "fora": 9003, "ceb": 6878, "ebi": 7850, "bid": 6598, "idos": 9809, "arre": 6123, "pelo": 13900, "elo ": 8204, "gov": 9273, "ove": 13714, " gov": 871, "gove": 9274, "over": 13719, "vern": 17202, "dor ": 7621, "civ": 7050, " civ": 514, "civi": 7051, "ivil": 10500, "vil ": 17238, "set": 15349, "al,": 5690, " set": 1684, "al, ": 5691, "má": 12124, " má": 1278, "ário": 18051, "cai": 6801, "aco": 5460, "hou": 9562, " aco": 242, "hou ": 9563, "iva": 10486, "comi": 7121, "omit": 13289, "miti": 11969, "itiv": 10427, "tiva": 16201, "iva ": 10487, " out": 1450, "outr": 13696, "utra": 17031, "alt": 5768, "lta": 11586, " alt": 292, "alta": 5770, "idu": 9810, "ual": 16582, "ivid": 10499, "uali": 16585, "alid": 5733, "mbo": 11821, "boi": 6661, "comb": 7119, "iu ": 10471, "rmad": 14740, "como": 7123, "omot": 13300, "moti": 12047, "otiv": 13643, "uas ": 16596, "rua": 15008, "carr": 6835, "agen": 5571, "sag": 15199, "sage": 15200, "agem": 5570, "gem ": 9136, " ofi": 1401, "inf": 10145, "nfa": 12446, " inf": 984, "infa": 10146, "nfan": 12447, "fant": 8889, "11,": 4757, "11, ": 4758, "coma": 7118, "nen": 12412, "te-": 15989, "oro": 13545, " ten": 1818, "tene": 16042, "enen": 8310, "nent": 12414, "onel": 13349, "rcu": 14393, "scr": 15278, "riv": 14688, "is,": 10327, "escr": 8605, "scri": 15280, "riva": 14689, "ivan": 10490, "anis": 5916, "is, ": 10328, "ndan": 12325, "dant": 7351, "íci": 18256, "polí": 14031, "anç": 5974, "ça ": 18108, "uran": 16921, "ranç": 14326, "ança": 5975, "nça ": 12897, "ca,": 6788, "ica,": 9721, "ca, ": 6789, "sec": 15298, " sec": 1673, "esco": 8604, "scol": 15272, "cola": 7111, "gua": 9314, "angu": 5906, "ngua": 12489, "guar": 9315, "uard": 16591, "arda": 6066, " emb": 707, "emba": 8239, "mbar": 11811, "io.": 10225, "io. ": 10226, "bé": 6755, "mbé": 11828, "bém": 6756, " tam": 1803, "tamb": 15929, "ambé": 5816, "mbém": 11829, "bém ": 6757, "uir": 16737, "egui": 8033, "lgu": 11313, "uns": 16875, " alg": 285, "algu": 5726, "lgun": 11314, "guns": 9330, "uns ": 16876, "mem": 11866, "bro": 6701, " mem": 1231, "memb": 11867, "mbro": 11826, "nic": 12510, " mun": 1272, "muni": 12110, "unic": 16858, "nici": 12515, "icip": 9755, " rei": 1583, "reit": 14475, " lic": 1165, "gam": 9087, " gam": 825, "leg": 11235, "gad": 9080, "dele": 7412, "eleg": 8168, "lega": 11236, "gado": 9081, "dis": 7537, "to.": 16243, " dis": 614, "dist": 7543, "rito": 14682, "to. ": 16244, " لي": 3493, "ليل": 26653, "يلة": 27048, "اي": 25690, " ما": 3495, " :": 217, " : ": 218, "دخ": 25992, "خل ": 25961, " مس": 3509, "مسل": 26719, "رم": 26098, "ي،": 26975, "ي، ": 26976, "صم": 26225, "محا": 26701, "بار": 25707, " ،": 3258, " ، ": 3259, "وذ": 26900, "باس": 25708, "خدا": 25950, " باس": 3333, "استخ": 25526, "تخدا": 25789, "خدام": 25951, "دام ": 25985, " سي": 3418, "سيا": 26182, "يار": 26983, "ارا": 25513, "رات": 26056, "رات ": 26057, "لغ": 26583, "غو": 26340, "به": 25748, "به ": 25749, "كما": 26447, "كما ": 26448, "أص": 25412, "صد": 26217, " أص": 3271, "در ": 25996, "رسا": 26083, "سال": 26144, "الة": 25575, "رسال": 26084, "الة ": 25576, " ص": 3424, "جل": 25881, "أب": 25398, "بو": 25751, "دع": 25998, " جم": 3380, "جمي": 25888, "ميع": 26764, "يع ": 27029, " جمي": 3381, "جميع": 25889, "ميع ": 26765, "لمس": 26616, "لمي": 26626, "مين": 26766, "المس": 25645, "مين ": 26767, "لل": 26599, " لل": 3485, " ض": 3425, "حك": 25927, "كو": 26452, "لحك": 26536, "اق": 25548, "عرا": 26295, "راق": 26062, "اقي": 25550, "قية": 26411, "لعرا": 26578, "عراق": 26296, "لاح": 26486, "اح ": 25499, "والأ": 26874, "يا ": 26979, "جب": 25867, "ن.": 26769, " كم": 3476, "ن. ": 26770, "تس": 25796, "هج": 26841, "جر": 25876, "لله": 26603, "إلي": 25451, "لي ": 26647, " إلي": 3288, "رض": 26085, "ض ": 26230, "رض ": 26086, "ة\"": 25763, "\" ": 4341, "لخل": 26540, "لاف": 26490, "افة": 25546, "ضي": 26239, "لأر": 26468, "الأر": 25557, "يط": 27026, "يسي": 27022, "يها": 27069, "ليها": 26659, "يها ": 27070, "تن": 25822, "نظ": 26801, "ظي": 26268, "لتن": 26518, "تنظ": 25824, "نظي": 26804, "ظيم": 26269, "التن": 25582, "تنظي": 25825, "نظيم": 26805, "ظيم ": 26270, " سو": 3417, "سور": 26178, "وري": 26906, "ريا": 26114, "سوري": 26179, "اق ": 25549, "والع": 26876, "وقا": 26931, "قال": 26375, " وقا": 3556, "قال ": 26376, "أي": 25436, "يض": 27024, "ضا": 26231, " أي": 3282, "أيض": 25437, "يضا": 27025, " أيض": 3283, "ذه": 26038, "هذه": 26846, "ذه ": 26039, " هذه": 3531, "هذه ": 26847, "لحر": 26535, "حرب": 25920, "الحر": 25594, "ليس": 26652, " حر": 3388, " تن": 3372, "لدو": 26543, "دول": 26015, "ولة": 26942, "الدو": 25598, "لدول": 26544, "دولة": 26016, "ولة ": 26943, " بل": 3347, " يت": 3571, "دت": 25989, "تها": 25828, "تها ": 25829, "مش": 26720, " مش": 3511, "يرا": 27013, "را ": 26052, "نها": 26815, " أنه": 3279, "نها ": 26816, " به": 3351, "نت": 26784, "عات ": 26274, " حو": 3390, "حول": 25936, "ول ": 26939, "ه.": 26831, "ه. ": 26832, "яг": 25225, "рот": 24099, "гом": 21468, "прот": 23820, "ць": 24914, "ьо": 25154, " ць": 3205, "цьо": 24916, "ьог": 25155, " цьо": 3206, "ього": 25156, "су ": 24390, "рст": 24117, "втор": 21376, "торс": 24610, "рств": 24118, "тво ": 24483, "ох": 23664, "ать": 21030, "ох ": 23665, "иц": 22355, "ці": 24920, "ії": 25380, "мпо": 22943, "поз": 23762, "зиц": 22064, "иці": 22363, "ції": 24931, "ії ": 25381, "пози": 23763, "озиц": 23424, "ції ": 24932, "еп": 21846, "ту": 24656, "уа": 24691, "реп": 23972, "епе": 21848, "рту": 24127, "арі": 20980, "рі ": 24166, "гру": 21485, "упи": 24765, " гру": 2675, "груп": 21486, "ув": 24697, "ису": 22324, "ува": 24699, "лос": 22763, "ося": 23633, "ся ": 24421, "увал": 24701, "вало": 21200, "алос": 20877, "nke": 12588, "anke": 5923, "phe": 13935, "hel": 9446, "elg": 8176, " —": 4018, "— ": 28902, " — ": 4019, " щ": 3230, " що": 3231, " що ": 3232, "вон": 21336, "она": 23519, " вон": 2633, "вона": 21337, "она ": 23520, " є": 3248, " є ": 3249, "пло": 23747, "лод": 22753, " пло": 2989, "дом ": 21619, " сп": 3094, "іль": 25330, "ьни": 25144, "них": 23097, "ільн": 25332, "льни": 22790, "них ": 23098, "уси": 24781, "сил": 24223, "иль": 22239, "ль ": 22782, "дж": 21559, "жа": 21966, "-д": 4582, "жо": 22002, "-р": 4587, "рд": 23935, "тт": 24652, "тс": 24645, "-в": 4579, "йм": 22411, " дж": 2696, "джа": 21560, "гер": 21437, "ера": 21856, "джо": 21563, "жон": 22003, "річ": 24171, "ард": 20957, "айм": 20834, "джон": 21564, "жонс": 22004, "win": 17463, "kis": 10877, " win": 1999, "wind": 17464, " –": 4016, "– ": 28898, " – ": 4017, "rek": 14478, "ekt": 8138, "kto": 10976, " rek": 1584, "rekt": 14480, "ekto": 8141, "ktor": 10978, "orat": 13491, "til": 16160, "ntil": 12791, "till": 16164, "llen": 11456, "(f": 4451, "-d": 4542, " (f": 40, "-de": 4543, "ce,": 6871, "fort": 9009, "-de-": 4544, "nce,": 12278, "ce, ": 6872, "niq": 12558, "ue,": 16666, "mart": 11784, "rtin": 14987, "tini": 16177, "niqu": 12559, "que,": 14230, "ue, ": 16667, "h,": 9363, "kre": 10947, "eic": 8057, "ch,": 6916, "h, ": 9364, "krei": 10948, "reic": 14471, "eich": 8058, "ich,": 9741, "ch, ": 6917, "nia": 12505, "lst": 11581, "kolo": 10915, "olon": 13242, "loni": 11532, "onia": 13365, "stil": 15688, "til ": 16161, "hri": 9579, "chri": 6969, "hris": 9580, "isti": 10380, "stia": 15683, "tian": 16130, "ian ": 9681, "hau": 9415, "vet": 17213, " hau": 908, "ette": 8715, "uk": 16760, "duk": 7690, "ukt": 16766, "kti": 10974, "oduk": 13093, "ktio": 10975, "998": 5327, "1998": 4919, "ah": 5594, "tau": 15962, "sst": 15637, "rah": 14293, "ahl": 5601, " ers": 730, "rsta": 14949, "auss": 6319, "ung ": 16853, " am ": 295, "1.": 4741, "1. ": 4742, "ро ": 24053, "про ": 23811, "дже": 21561, "ння": 23132, "ня ": 23242, "джен": 21562, "женн": 21984, "ення": 21823, "ння ": 23133, "ку ": 22607, "пере": 23726, "обі": 23300, "мобі": 22919, "обіл": 23301, "біль": 21176, "іг": 25303, "г ": 21417, "дор": 21622, "орі": 23600, " дор": 2710, "заг": 22014, "гал": 21422, " заг": 2753, "агал": 20773, "ьног": 25147, "кор": 22558, "сту": 24378, "тув": 24658, " кор": 2834, "кори": 22559, "орис": 23574, "исту": 22323, "тува": 24659, "уван": 24702, "ванн": 21207, "ання": 20926, "рж": 23981, "дер": 21551, "ерж": 21875, "ржа": 23982, "жав": 21967, "авн": 20756, " дер": 2694, "держ": 21554, "ержа": 21876, "ржав": 23983, "авно": 20758, "вног": 21305, " зн": 2771, " зна": 2772, "ченн": 24957, "каб": 22444, "нет": 23058, "мі": 22959, "ів": 25294, " мі": 2896, "мін": 22961, "іні": 25343, "ніс": 23263, "трі": 24644, "рів": 24167, "ів ": 25295, "ніст": 23264, "стрі": 24375, "рів ": 24168, "аї": 21077, "їн": 25391, "раї": 23917, "аїн": 21078, "їни": 25392, "краї": 22576, "раїн": 23918, "аїни": 21079, "тан": 24456, "ано": 20928, "оста": 23621, "стан": 24338, "тано": 24460, "анов": 20930, "нова": 23144, "ік ": 25326, "ід": 25304, "від": 21408, "ід ": 25305, " від": 2653, "від ": 21409, "16": 4795, ".0": 4604, "09": 4724, ".2": 4608, " 16": 111, "16.": 4798, " №": 4025, "71": 5151, " im ": 975, "erb": 8448, "bst": 6717, "beg": 6546, "nn ": 12616, " beg": 409, "bega": 6547, "egan": 8002, "ann ": 5932, " mit": 1248, "mit ": 11966, "den ": 7422, "hz": 9625, "zl": 17884, "l-": 11080, "zü": 17977, "üg": 18400, "sic": 15389, "clas": 7087, "lass": 11141, "assi": 6193, "ssic": 15624, "nach": 12204, "ach ": 5441, "30 ": 5006, " 30 ": 176, "jah": 10629, "ahr": 5605, " jah": 1019, "jahr": 10630, "ahre": 5607, "hren": 9576, "ren ": 14494, "rne": 14771, "neu": 12435, "eut": 8746, "erne": 8519, "v,": 17107, "v, ": 17108, "zu": 17928, " zu": 2101, "zum": 17932, "umi": 16820, " zum": 2103, "mind": 11948, "fl": 8978, "gs": 9302, "sz": 15809, "flu": 8984, "lug": 11620, " aus": 361, "gen.": 9141, "009": 4675, "09 ": 4725, "2009": 4959, "009 ": 4676, "wu": 17520, " wu": 2012, "wur": 17521, " wur": 2013, "wurd": 17522, "urde": 16930, "eiz": 8099, "zei": 17814, "erk": 8503, "keh": 10823, "ehr": 8044, "hr ": 9569, "frei": 9026, "zeit": 17816, "verk": 17199, "erke": 8505, "ehr ": 8045, " „": 4021, "lö": 11682, "tak": 15910, "kt ": 10966, "akt ": 5676, "xpr": 17577, "ss ": 15607, " rad": 1569, "rade": 14282, "expr": 8797, "ess ": 8647, "tä": 16509, "äl": 18096, "“ ": 28910, " ey": 757, "eya": 8805, "auf": 6299, "ufg": 16695, " auf": 359, "aufg": 6301, "geno": 9146, "enom": 8340, "nomm": 12662, "mmen": 11993, " und": 1894, "und ": 16841, "itt": 10441, "wei": 17416, "eis": 8090, "ritt": 14683, "weis": 17418, "eise": 8092, "sg": 15367, "usg": 16984, "sge": 15368, "ewe": 8777, "tet": 16080, "et.": 8671, "ausg": 6318, "usge": 16985, "gewe": 9170, "weit": 17419, "eite": 8096, "itet": 10414, "et. ": 8672, "sei": 15311, " sei": 1676, "seit": 15314, "eit ": 8095, "hrt": 9583, "alle": 5747, "- ": 4517, "sonn": 15543, "eie": 8062, "eier": 8063, "iert": 9875, "vom": 17290, " vom": 1951, "vom ": 17291, " 1.": 93, " 1. ": 94, " mai": 1214, "bis ": 6623, "zum ": 17933, " dri": 644, "itte": 10442, "tten": 16396, "nnt": 12634, "ag ": 5564, "tag ": 15900, " ok": 1403, "okt": 13189, "tob": 16247, "obe": 12996, "er.": 8435, " okt": 1406, "okto": 13190, "ktob": 10977, "tobe": 16248, "ober": 12998, "er. ": 8436, "dab": 7319, "bei": 6551, "bei ": 6552, "pen": 13901, " pen": 1481, "pend": 13904, " ei": 694, "ein": 8075, " ein": 696, "ein ": 8076, "ieb": 9820, "wag": 17375, " tri": 1851, "rieb": 14613, "zw": 17941, " zw": 2107, "zwe": 17943, "tun": 16438, " zwe": 2108, "zwei": 17944, "eist": 8093, "istu": 10383, "unde": 16843, "nden": 12333, "zwi": 17945, "wis": 17470, " zwi": 2109, "zwis": 17946, "wisc": 17471, "sche": 15260, "chen": 6935, "hen ": 9452, "echi": 7878, "hing": 9504, "inge": 10153, "esb": 8599, "sba": 15244, "bah": 6489, "ahn": 5603, "hn ": 9530, " lan": 1143, "bahn": 6490, "(k": 4457, "uc": 16614, "hs": 9589, "ck": 7063, " (k": 46, "kur": 10999, "sbu": 15246, "buc": 6723, "uch": 16622, "chs": 6971, "hst": 9592, "eck": 7890, "cke": 7070, "kurs": 11000, "chst": 6974, "trec": 16330, "reck": 14447, "ecke": 7891, "67": 5130, "7)": 5141, "sä": 15825, "äc": 18090, "upt": 16906, "äch": 18091, "chl": 6950, "hli": 9520, "chli": 6952, "lich": 11339, "ich ": 9740, "eine": 8079, " his": 930, "stor": 15707, "tori": 16286, "oris": 13526, "risc": 14672, "nb": 12267, "an-": 5862, "enb": 8292, "nbu": 12271, "chie": 6943, "iene": 9859, "zt": 17924, "etz": 8723, "tzt": 16493, "zt ": 17925, "eing": 8080, "nges": 12470, "gese": 9164, "setz": 15351, "etzt": 8724, "(d": 4446, " (d": 36, "fri": 9028, "uf ": 16692, " fri": 809, "ista": 10378, "tabl": 15884, "auf ": 6300, "rz": 15073, "fah": 8878, "hrz": 9586, "rze": 15077, "zeu": 17840, "eug": 8732, "uge": 16704, "fahr": 8879, "euge": 8733, "eß": 8826, "ße": 18003, "ieß": 9900, "ßen": 18005, " ans": 312, "schl": 15262, "ließ": 11353, "rka": 14701, "kau": 10805, "b ": 6474, "ab ": 5394, " ab ": 228, "dur": 7697, "urc": 16926, " dur": 653, "durc": 7699, "urch": 16928, "rch ": 14387, "oder": 13070, "dern": 7450, "rne ": 14772, "egi": 8012, "hut": 9618, "ttl": 16405, "tle": 16216, "regi": 14464, "egio": 8014, "ttle": 16406, "tle ": 16217, "rse": 14932, "erse": 8540, "rde.": 14407, " wei": 1985, "hrte": 9584, "rten": 14976, "bt": 6718, "gib": 9190, "bt ": 6719, " gib": 853, " es ": 732, "äh": 18093, "ähr": 18095, "hai": 9383, "iger": 9928, "her ": 9457, "stk": 15694, "tki": 16210, "kin": 10869, "ndl": 12349, "sma": 15497, "rkt": 14711, "kind": 10871, "tige": 16154, "lä": 11665, "än": 18097, "län": 11666, "seh": 15310, "ehe": 8038, "ehen": 8039, "inen": 10142, "nen ": 12413, "-m": 4561, "inu": 10205, "nut": 12847, "minu": 11954, "inut": 10206, "uten": 17018, "uss ": 16997, "uri": 16942, "ika": 9988, "bot": 6675, " tou": 1846, "tour": 16300, "uris": 16946, "ikan": 9991, "gebo": 9119, "zu ": 17929, " zu ": 2102, "lr": 11566, "opo": 13457, "lre": 11567, "trop": 16352, "ropo": 14855, "opol": 13459, "gion": 9209, "tg": 16090, " stu": 1748, "tutt": 16453, "äu": 18105, "uba": 16601, "or.": 13480, " vor": 1954, "or. ": 13481, "'s": 4406, "inn": 10177, "eso": 8634, "sot": 15556, "'s ": 4407, "minn": 11952, "inne": 10178, "nnes": 12626, "stat": 15664, "tate": 15957, "ate ": 6228, " are": 331, " spr": 1737, "spre": 15591, "ead ": 7809, "acr": 5465, "oss": 13605, "cros": 7183, "ross": 14863, "oss ": 13606, "suc": 15759, " suc": 1756, "such": 15761, "uch ": 16623, "hat": 9412, "that": 16096, "hat ": 9413, "here": 9459, "thin": 16109, "hin ": 9500, " 50": 195, " 50 ": 196, "80 ": 5182, "m)": 11707, "m) ": 11708, " ev": 745, "ery": 8570, " eve": 747, "very": 17208, "ery ": 8571, "ecen": 7871, "eat": 7831, "crea": 7173, "reat": 14441, "eate": 7832, "lak": 11111, "ake": 5662, "ake ": 5663, "verm": 17201, "ilio": 10032, "k,": 10761, "rk,": 14699, "k, ": 10762, "rk, ": 14700, "0.": 4645, "10.": 4748, "0. ": 4646, "10. ": 4749, "ly": 11653, "cur": 7237, "ntl": 12797, "tly": 16223, "ly ": 11654, " cur": 550, "entl": 8363, "tly ": 16224, "rang": 14319, "nge ": 12466, "anz": 5970, "nz ": 12876, "ranz": 14325, " je": 1025, "18 ": 4818, "(4": 4436, " (4": 28, "48 ": 5060, " to ": 1837, " sai": 1648, "int ": 10198, "ix ": 10512, " 34": 182, "37 ": 5022, ",7": 4514, "77": 5163, "13,": 4774, "74 ": 5158, "a).": 5360, "a). ": 5361, " tw": 1862, "two": 16470, "wo ": 17487, " two": 1864, "two ": 16471, "ncl": 12299, "lud": 11615, " inc": 982, "incl": 10125, "nclu": 12300, "clud": 7094, "lude": 11616, "ude ": 16646, "reso": 14526, "sour": 15559, "urce": 16927, "list": 11405, "sted": 15671, "atu": 6276, "natu": 12255, "atur": 6279, "(b": 4442, " (b": 32, "bog": 6659, "og ": 13125, " bog": 439, "ecr": 7900, "ecre": 7901, "eati": 7833, "area": 6076, "rea ": 14436, "ca ": 6787, " ita": 1002, "k)": 10760, "six": 15442, "nco": 12301, " enc": 712, "enco": 8298, "ass ": 6190, "oric": 13520, "ric ": 14598, "harl": 9405, "arle": 6101, "rles": 14725, " a.": 224, "db": 7369, "erg": 8476, "lind": 11381, "berg": 6572, "sn": 15506, "g,": 9072, " sn": 1716, "sne": 15508, "ng,": 12459, "g, ": 9073, "nell": 12406, "llin": 11467, "ling": 11383, "ing,": 10151, "ng, ": 12460, "mill": 11942, "cs": 7186, "cs ": 7187, "kath": 10803, "st.": 15649, " st.": 1742, "st. ": 15650, "oud": 13667, "dan ": 7345, "rgr": 14572, "gro": 9292, "rou": 14871, "oun": 13679, "derg": 7447, "ergr": 8481, "grou": 9294, "roun": 14874, "ound": 13680, "ine,": 10137, "lit ": 11407, "ock": 13041, "ck ": 7064, " roc": 1609, "rock": 14804, "ock ": 13042, "ght": 9184, "tho": 16111, "ligh": 11361, "ight": 9931, "thou": 16115, "hous": 9564, "ouse": 13691, "use ": 16980, "s).": 15173, "s). ": 15174, "52": 5085, "52 ": 5086, "ites": 10413, " or ": 1432, "ict": 9774, "tric": 16341, "rict": 14605, "34 ": 5016, "ota ": 13627, "gis": 9213, "egis": 8015, "gist": 9214, " pla": 1498, "plac": 13981, "lace": 11095, "rh": 14574, "p)": 13822, "ludi": 11617, "udin": 16652, " 22": 155, "22 ": 4972, " 22 ": 156, "pm": 13997, "lop": 11535, "velo": 17174, "elop": 8206, "ruc": 15011, "uct": 16634, "cte": 7191, "truc": 16358, "ruct": 15013, "cted": 7193, " by": 464, " by ": 465, "dea": 7387, "eal": 7813, "al-": 5692, " dea": 584, "ob ": 12992, "ams": 5847, "ms ": 12089, "gram": 9281, "930": 5234, "1930": 4846, "rok": 14825, "oku": 13192, " rok": 1612, "roku": 14827, "oku ": 13193, "952": 5262, "1952": 4869, "yl": 17667, "byl": 6744, "ylo": 17674, " byl": 466, "bylo": 6747, "ylo ": 17675, "zem": 17825, "emí": 8275, "ln": 11494, "kot": 10932, "ote": 13631, "eln": 8201, "lní": 11501, "níc": 12914, "ích": 18254, "teln": 16024, "ních": 12915, "ích ": 18255, "jam": 10635, " jam": 1021, "loz": 11557, "oze": 13780, "01 ": 4679, "yh": 17655, "át": 18059, "tn": 16231, "tát": 16503, "tní": 16237, " stá": 1750, "stát": 15736, "tní ": 16238, "ír": 18275, "odn": 13077, "dní": 7587, "rodn": 14807, "odní": 13079, "dní ": 7588, "cí": 7279, "rez": 14546, "eze": 8814, "zer": 17832, "ací": 5479, "cí ": 7280, "reze": 14547, "mim": 11944, "imo ": 10091, "jin": 10686, " jin": 1038, "pro ": 14112, " oc": 1385, "hra": 9570, "nu ": 12823, " och": 1388, "hran": 9572, "vz": 17328, "zá": 17969, "ác": 18013, "cn": 7097, " vz": 1962, "dru": 7658, "ruh": 15019, " dru": 646, "druh": 7660, "stl": 15695, "tli": 16219, " ros": 1616, "rost": 14864, "stli": 15697, "tlin": 16221, "nap": 12238, "apř": 6030, "lad": 11098, "např": 12239, "klad": 10887, "lad ": 11099, "dí": 7740, "voz": 17304, "ozd": 13778, "py": 14178, "yš": 17753, "šn": 18788, "ý,": 18451, "ý, ": 18452, " zl": 2091, "zla": 17885, "ohl": 13148, "ek,": 8123, "lato": 11148, "ek, ": 8124, "ka ": 10767, "anka": 5922, "kv": 11005, "ět": 18578, "rci": 14390, "sok": 15525, "vět": 17355, "arci": 6062, "ká": 11016, "ám": 18032, "mik": 11938, "vs": 17314, "tř": 16557, "tý": 16535, "vst": 17316, "stř": 15750, "tří": 16561, "olis": 13228, " kar": 1069, "arec": 6077, "ech ": 7875, "vys": 17324, "ysk": 17715, "sky": 15470, "ytu": 17724, "tuj": 16432, "ují": 16755, " vys": 1961, "ují ": 16756, "zb": 17793, " zb": 2076, "vc": 17153, "cov": 7162, "výc": 17347, " led": 1153, "ovýc": 13737, "vých": 17348, "hy": 9623, "hy ": 9624, "ají": 5651, "ají ": 5652, " mí": 1285, "mís": 12146, "sty": 15730, " mís": 1286, "míst": 12147, "klo": 10896, " skl": 1708, "až": 6462, "ž ": 18827, " až": 382, "až ": 6463, " až ": 383, " 45": 191, "45 ": 5054, "ů.": 18802, "ů. ": 18803, "ním": 12919, "ími": 18269, "ími ": 18270, "mam": 11757, "amam": 5807, "ami ": 5824, "ved": 17163, " ved": 1924, "vede": 17165, "zel": 17820, "ená": 8380, "ná ": 12884, " zel": 2082, "zele": 17822, "elen": 8171, "ick": 9758, "ká ": 11017, " tur": 1857, "turi": 16445, "tick": 16138, "zn": 17890, "čk": 18519, " zn": 2093, "zna": 17891, "nač": 12263, " zna": 2094, "dv": 7708, " dv": 654, "dvo": 7710, "orn": 13539, "rní": 14784, "rní ": 14785, "eč": 8836, "íse": 18277, "zim": 17870, "ji ": 10681, "vš": 17357, "ša": 18778, " vš": 1969, "vša": 17358, "šak": 18779, " vša": 1970, "však": 17359, "šak ": 18780, "ská": 15471, "ská ": 15472, " slu": 1714, "ěk": 18563, "kd": 10813, "dy": 7715, " ně": 1369, "něk": 12943, "kdy": 10816, "dy ": 7716, " něk": 1370, "kdy ": 10817, " uz": 1912, "uza": 17069, " uza": 1913, "dů": 7774, "ův": 18809, "ůvo": 18810, "ůvod": 18811, "odu ": 13091, "zp": 17919, "ebe": 7847, "bez": 6587, "avin": 6343, "lní ": 11502, " já": 1059, "my ": 12121, "ež": 8856, "ží": 18839, "zh": 17849, "ozh": 13782, "rozh": 14890, " 2.": 147, " 2. ": 148, "néh": 12905, "ného": 12906, "oš": 13813, "rko": 14709, " ná": 1359, "nár": 12887, "áro": 18052, "náro": 12888, "árod": 18053, "rku": 14712, " js": 1049, "jso": 10724, " jso": 1050, "jsou": 10725, "sou ": 15558, "uč": 17086, "čá": 18528, "ouč": 13705, "čás": 18529, "ást": 18058, "stí": 15739, "tí ": 16520, "souč": 15562, "část": 18530, "stí ": 15740, "zle": 17886, "leh": 11239, "lé ": 11670, "eny": 8374, " pra": 1524, "eny ": 8375, "lab": 11092, " lab": 1141, "els": 8210, "lsk": 11577, "tels": 16026, "elsk": 8212, "tok": 16259, "ít": 18280, "ky.": 11014, "ky. ": 11015, "рои": 24080, "оиз": 23434, "изв": 22179, "зво": 22044, "вод": 21322, "прои": 23817, "роиз": 24081, "оизв": 23435, "изво": 22181, "звод": 22045, "водс": 21324, "одст": 23393, "мл": 22907, "л-": 22638, "-2": 4523, " мл": 2881, "мл-": 22908, "л-2": 22639, "-20": 4524, "20 ": 4945, " мл-": 2882, "мл-2": 22909, "л-20": 22640, "-20 ": 4525, "вел": 21229, "ось": 23631, " вел": 2611, "лось": 22764, "ось ": 23632, "ьк": 25130, "тол": 24597, "льк": 22786, "ько": 25136, "ко ": 22517, " тол": 3135, "ольк": 23488, "лько": 22788, "ько ": 25137, "зав": 22011, " зав": 2752, "заво": 22013, "авод": 20760, "72": 5153, "172": 4809, "72 ": 5154, "ерм": 21885, "рми": 24039, "ды": 21653, "ы.": 25091, "оды": 23396, "ы. ": 25092, "ме ": 22860, "бу": 21145, " бу": 2593, "кси": 22589, "сир": 24227, "иру": 22302, "уди": 24712, " ору": 2962, "руди": 24135, "ыло": 25106, "было": 21172, "ыло ": 25107, "ущ": 24812, "ще": 25037, "уще": 24813, "щен": 25039, " ок": 2950, " око": 2951, "окол": 23453, "коло": 22544, "оло ": 23479, "40": 5041, " 40": 189, "400": 5043, " ств": 3102, "олов": 23480, "аж": 20800, "онт": 23537, "нта": 23194, "ажа": 20801, " мон": 2890, "лл": 22733, "йс": 22420, "охо": 23666, "одн": 23384, "дно": 21602, "но-": 23141, "арт": 20971, "тил": 24545, "илл": 22234, "лле": 22734, "лер": 22692, "рий": 24001, "ийс": 22206, "йск": 22421, "оход": 23667, "одно": 23387, "арти": 20973, "ийск": 22207, "йски": 22422, "уст": 24788, "овк": 23329, "вка": 21280, " уст": 3163, "уста": 24789, "ках ": 22467, "(с": 4484, " (с": 72, " су": 3108, "152": 4791, " ис": 2797, "все": 21364, "24": 4975, "42 ": 5048, "70 ": 5149, "2,": 4938, "2, ": 4939, "ное": 23153, "очно": 23683, "ное ": 23154, "исло": 22310, "рь": 24160, " ва": 2607, "вар": 21209, " вар": 2608, "зл": 22068, "азл": 20815, "зли": 22069, "ичн": 22373, "чны": 24990, "разл": 23875, "азли": 20816, "злич": 22070, "личн": 22724, "ичны": 22377, "чных": 24991, " ист": 2799, "ее": 21715, "емн": 21794, "иком": 22220, "ком ": 22547, "ала": 20859, " ста": 3101, "стал": 24337, "тала": 24451, "ала ": 20860, "мм": 22910, " 152": 110, "шк": 25018, "-г": 4580, " пу": 3013, "пуш": 23831, "ушк": 24810, "шка": 25019, "уби": 24694, "ица": 22356, "ца ": 24885, " пуш": 3015, "пушк": 23832, "ица ": 22357, "вш": 21389, "яс": 25252, "нах": 23009, "ахо": 21044, "оди": 23379, "див": 21568, "ивш": 22144, " нах": 2913, "нахо": 23010, "аход": 21045, "ходи": 24872, "сер": 24214, "йно": 22415, " сер": 3070, "ве ": 21224, "стве": 24343, "тве ": 24477, "956": 5266, "1956": 4873, "да.": 21503, "да. ": 21504, "нно": 23122, " дан": 2683, "данн": 21512, "анно": 20924, "дие": 21569, "мел": 22865, "ело ": 21775, " ид": 2780, "тич": 24556, "ную": 23213, "ую ": 24816, "тичн": 24558, "ную ": 23214, "у.": 24689, "бал": 21087, "лис": 22714, "тик": 24542, "ику": 22223, "ку.": 22610, "у. ": 24690, " бал": 2576, "лист": 22715, "исти": 22320, "ку. ": 22611, " w ": 1973, "wic": 17449, "cca": 6857, "cz": 7252, "ym": 17678, " ek": 697, "kle": 10890, "lek": 11248, "kty": 10982, "tyc": 16479, "ycz": 17629, "czn": 7260, "zny": 17898, "nym": 12872, "ym ": 17679, "ekle": 8133, "lekt": 11249, "tycz": 16481, "yczn": 17630, "czny": 7263, "nym ": 12873, "(r": 4466, " (r": 55, "acz": 5477, "cze": 7256, "ej ": 8102, "acze": 5478, "zej ": 17818, "żn": 18823, " ró": 1632, "nyc": 12870, "ych": 17624, "nych": 12871, "ych ": 17625, "urt": 16962, " nur": 1358, "tach": 15887, "ws": 17509, "pó": 14188, "ół": 18339, " ws": 2011, "wsp": 17513, "spó": 15597, "pół": 14191, "zes": 17836, "esn": 8633, "neg": 12393, "czes": 7259, "nego": 12394, "ego ": 8023, "ań": 6447, "ńs": 18711, "ańs": 6448, "stw": 15727, "twa": 16464, "wa ": 17368, "stwa": 15728, "twa ": 16465, "ow": 13739, "nsp": 12741, "spi": 15579, "pir": 13964, "row": 14884, "owa": 13741, "wan": 17382, "insp": 10195, "nspi": 12742, "spir": 15581, "rowa": 14885, "owan": 13744, "wane": 17383, "yż": 17756, "pow": 14063, "owy": 13764, "sze": 15815, " pow": 1520, "sad": 15196, "ady": 5529, "ady ": 5530, "nie ": 12524, "są": 15847, "ą ": 18488, " są": 1794, "prz": 14129, "trz": 16364, "zeg": 17812, "ne.": 12379, " prz": 1529, "prze": 14130, "rzes": 15085, "zest": 17838, "strz": 15717, "trze": 16365, "ne. ": 12380, "ię": 10584, "ęg": 18542, "ę ": 18532, " ks": 1112, "ksi": 10962, "się": 15450, " cie": 509, "cien": 7013, "ieni": 9860, "eni ": 8321, "oż": 13814, "moż": 12054, " moż": 1266, "ną": 12936, "ć ": 18505, "zac": 17767, " zac": 2064, "czer": 7258, "dow": 7638, "owo": 13759, "wol": 17493, "oln": 13238, "lne": 11497, " dow": 639, "ód": 18310, "dł": 7771, "ła": 18687, "ród": 15131, "ła ": 18688, "ąd": 18498, "naw": 12259, "ać": 6429, "pis": 13966, "ać ": 6430, " nap": 1305, "apis": 6005, "pisa": 13967, "ją": 10747, "ją ": 10748, "emu": 8272, " sam": 1650, "same": 15214, "stn": 15699, "tni": 16234, "iej": 9838, "eje": 8109, " ist": 999, "stni": 15700, "tnie": 16236, "niej": 12525, " co ": 522, "naj": 12218, " naj": 1303, "iej ": 9839, "lk": 11425, "ilk": 10038, "lka": 11427, "iko": 9999, "kow": 10937, "any": 5967, "blik": 6645, "kowa": 10938, "wany": 17386, "anyc": 5969, "sj": 15452, "wers": 17432, "gi ": 9187, "isan": 10333, "uż": 17097, "ży": 18826, "uży": 17098, "só": 15836, "ób": 18308, "osó": 13622, "sób": 15837, " osó": 1443, "osób": 13623, "yk": 17662, "ąc": 18491, "cy": 7246, "ują": 16758, "jąc": 10749, "ący": 18494, "cyc": 7248, "rakt": 14301, "ując": 16759, "jący": 10752, "ącyc": 18496, "cych": 7249, "zne": 17894, "czne": 7261, "lsc": 11575, "pols": 14030, "sce ": 15255, "dz": 7723, "rdz": 14425, "dzi": 7726, "zie": 17861, "bard": 6505, "dzie": 7728, "eż": 8854, "leż": 11305, "kam": 10782, " kam": 1066, "kami": 10784, "amie": 5826, "mien": 11931, "cot": 7156, " sco": 1664, "scot": 15277, "cott": 7157, "otta": 13655, "tta ": 16389, "unn": 16868, "ngh": 12471, "gha": 9181, "ma,": 11719, "nnin": 12630, "ma, ": 11720, "jeg": 10659, " jeg": 1029, "jego": 10660, "ią": 10577, "sią": 15449, "zew": 17841, "wod": 17488, "dni": 7579, "nik": 12540, "rzew": 15086, "zewo": 17842, "wodn": 17489, "odni": 13078, "nik ": 12541, " dl": 619, "dla": 7565, " dla": 620, "dla ": 7566, "otn": 13644, "samo": 15216, "otni": 13645, "”.": 28918, "mag": 11734, "”. ": 28919, " mag": 1212, "magi": 11736, "ną ": 12937, " inn": 987, "zy": 17949, "yw": 17729, " wy": 2014, "wyk": 17531, "yko": 17665, "orz": 13576, "rzy": 15090, "zys": 17957, "yst": 17719, "ywa": 17730, " wyk": 2017, "wyko": 17532, "rzys": 15092, "zyst": 17959, "ywan": 17731, "jes": 10673, " jes": 1034, "jest": 10674, "lib": 11332, "ibe": 9704, "libe": 11333, "iber": 9705, "ber ": 6569, "” ": 28915, "aru": 6142, "rum": 15028, " dor": 634, "vali": 17128, "alie": 5734, "lien": 11350, "nte,": 12773, "jej": 10663, " jej": 1031, "jej ": 10664, "tc": 15980, "hc": 9423, "itc": 10404, "tch": 15982, "cra": 7168, "raf": 14288, "aft": 5558, "aft ": 5559, "for ": 9002, " tom": 1840, "tomo": 16269, "omor": 13299, "kż": 11054, "że": 18821, "akż": 5685, "kże": 11055, "że ": 18822, " tak": 1801, "takż": 15916, "akże": 5686, "kże ": 11056, "eto": 8703, "tow": 16304, "owe": 13746, "we ": 17407, "rnet": 14774, "towe": 16306, "owe ": 13747, "ąg": 18499, "iąg": 10579, "ni,": 12501, "ni, ": 12502, "ór": 18321, " kt": 1113, "któ": 10983, "tór": 16526, "óre": 18323, " któ": 1115, "któr": 10984, "tóre": 16527, "ane ": 5895, "zez": 17844, "ez ": 8812, "rzez": 15087, "zez ": 17845, "ch.": 6919, "znyc": 17899, "ych.": 17627, "ch. ": 6920, "mg": 11907, "ラー": 29272, "ーマ": 29307, "ャン": 29263, "ディ": 29247, "ラン": 29271, "、ア": 28933, "ナー": 29252, "ード": 29306, "ライ": 29267, "後、": 29424, "ドラ": 29250, "ヴィ": 29294, "し、": 29014, "、1": 28924, "2年": 4991, "イン": 29214, "とな": 29100, "なり": 29124, "87": 5196, "mk": 11978, "ジャ": 29232, "との": 29105, "あっ": 28964, "9年": 5331, "たこ": 29042, "代表": 29343, "とと": 29099, "、19": 28925, "972": 5289, "した。": 29019, "た。1": 29036, "977": 5294, "なり、": 29125, "198": 4899, "987": 5306, "iad": 9665, "であっ": 29080, "あった": 28965, "989": 5310, "たこと": 29043, "となっ": 29101, "った。": 29055, "1972": 4891, "1977": 4896, "1987": 4907, "であった": 29081, "1989": 4909, "となった": 29102, "なった。": 29120, "った。 ": 29056, "soa": 15515, "oas": 12988, " pes": 1483, "pess": 13922, "cont": 7137, "ontr": 13405, "tra ": 16312, "muc": 12097, "uck": 16630, " muc": 1268, "cker": 7072, "sara": 15228, "aram": 6049, "ssin": 15628, "sina": 15419, "inad": 10115, "imes": 10080, "mes ": 11887, "ibu": 9713, "atri": 6265, "trib": 16340, "ribu": 14596, "aos": 5989, " aos": 317, "aos ": 5990, " 4 ": 188, "aio": 5626, "maio": 11743, "aio ": 5627, "187": 4826, " 187": 127, "iã": 10547, "eun": 8737, "ião": 10548, " reu": 1592, "ião ": 10549, "casa": 6839, "asa ": 6165, "mau": 11799, "aur": 6312, "rer": 14515, "aure": 6313, "enç": 8381, "tim": 16165, "stim": 15689, "tima": 16167, "mada": 11730, "100 ": 4751, " 500": 197, "as.": 6162, "as. ": 6163, "cob": 7107, "obi": 12999, "bina": 6615, "ina ": 10111, "unc": 16834, " anu": 314, "anun": 5964, "nunc": 12839, "unci": 16836, "ncio": 12295, "mund": 12108, " ord": 1434, "deno": 7430, "nou ": 12683, "xt": 17578, "ext": 8798, "xte": 17579, "mín": 12145, " ext": 756, "exte": 8799, "dez": 7476, " dez": 601, "deze": 7477, "eis ": 8091, "íl": 18265, "íli": 18266, "lia": 11326, "ias": 9689, "ias ": 9690, "nim": 12546, "mig": 11934, "iga": 9921, "gas": 9098, "mass": 11788, "sacr": 15195, "lia ": 11327, "kas": 10798, "el.": 8148, " kas": 1070, "asse": 6192, "ssel": 15617, "el. ": 8149, "rer ": 14516, "eve ": 8760, "eta": 8673, "cret": 7175, "reta": 14533, "ado.": 5516, "25 ": 4978, " 25 ": 162, " cat": 489, "ator": 6260, "orze": 13577, "rze ": 15078, "gos": 9267, "migo": 11935, "gos ": 9268, "eim": 8073, "mort": 12042, "clus": 7095, "lusi": 11638, "usiv": 16989, "ive ": 10493, "ças": 18113, "cria": 7177, "मु": 27850, "ुन": 28603, "न्": 27672, "्द": 28794, "दु": 27586, "ुम": 28606, " मु": 3887, "न्द": 27674, "ने": 27667, "ेर": 28669, "रि": 27987, " ने": 3809, "ेरि": 28670, "रिय": 27993, "सा": 28227, "ाड": 28367, " सा": 3981, "जो": 27420, " जो": 3744, "जो ": 27421, " जो ": 3745, "ेव": 28672, "वल": 28087, "ल ": 28036, "ेवल": 28673, " ए": 3643, "एक": 27220, " एक": 3644, "एक ": 27221, " एक ": 3645, "पा": 27716, "रं": 27918, "ंप": 27126, "पर": 27703, " पा": 3826, "पार": 27719, "ारं": 28417, "परि": 27705, "रिक": 27988, " पार": 3827, "परिक": 27706, "रिक ": 27989, "पो": 27733, "ाक": 28358, "रल": 27962, "दक": 27561, "क्": 27304, "्ष": 28874, "षि": 28164, "िण": 28480, "ण ": 27466, " दक": 3777, "दक्": 27562, "क्ष": 27313, "्षि": 28880, "षिण": 28165, " दक्": 3778, "दक्ष": 27563, "क्षि": 27316, "्षिण": 28881, "हि": 28283, "ला": 28046, "ाओ": 28355, "ओं": 27226, "हिल": 28285, "िला": 28521, "ाओं": 28356, "ओं ": 27227, "ाओं ": 28357, "शर": 28137, "री": 27997, "ीर": 28570, " शर": 3953, "ीर ": 28571, "िच": 28477, "चल": 27360, " नि": 3804, "िस": 28538, "स्": 28249, "्स": 28884, " हि": 3997, "िस्": 28545, "वर ": 28083, "ाच": 28362, "ची": 27370, "ीन": 28565, "्रा": 28845, "चीन": 27371, "ीन ": 28566, "प्रा": 27745, "ूप": 28622, "प ": 27685, " रू": 3918, "रूप": 28004, "ूप ": 28623, " रूप": 3919, "रूप ": 28005, "की": 27284, " की": 3680, "की ": 27285, " की ": 3681, "सब": 28206, "बस": 27771, " सब": 3971, "सबस": 28207, "बसे": 27772, " सबस": 3972, "सबसे": 28208, "बसे ": 27773, "पु": 27726, " पु": 3830, "पुर": 27727, "ुरा": 28608, "रान": 27980, "ाना": 28388, "ना ": 27646, " पुर": 3831, "ाना ": 28389, " अ": 3585, "अव": 27165, "वश": 28088, "शे": 28149, "ेष": 28677, "ष ": 28159, " अव": 3604, "शेष": 28150, "ेष ": 28678, "शेष ": 28151, "ु ": 28578, "मू": 27853, "ूल": 28629, " मू": 3889, "ूल ": 28630, " ट": 3749, "ुक": 28585, "कड": 27237, "ड़": 27453, "़ा": 28325, "कड़": 27238, "ड़ा": 27455, "़ा ": 28326, "ड़ा ": 27456, "ै ": 28683, "है ": 28303, " है ": 4005, " य": 3895, " या": 3901, " या ": 3902, "कम": 27249, " कम": 3663, "कम ": 27250, " कम ": 3664, "िध": 28494, "धा": 27612, " पर": 3818, "धान": 27613, " परि": 3820, "धान ": 27614, "मल": 27823, "लय": 28044, "ाल": 28433, "याल": 27898, " '": 18, "' ": 4366, "ुनि": 28604, "अर": 27162, "्थ": 28787, "थ ": 27538, "अर्": 27163, "र्थ": 28023, "्थ ": 28788, "कप": 27246, "पड": 27688, "़े": 28330, " कप": 3661, "कपड": 27247, "पड़": 27689, "ड़े": 27459, " कपड": 3662, "कपड़": 27248, "जब": 27386, "बक": 27759, "ि ": 28462, " जब": 3725, "कि ": 27277, " ऊ": 3642, "री ": 27998, " च": 3713, "चि": 27368, "िह": 28547, "ह्": 28322, "्न": 28799, " चि": 3717, "hw": 9619, "hwa": 9620, " sw": 1772, "ct ": 7189, "ect ": 7903, "vat": 17147, "acti": 5469, "ivat": 10491, "vati": 17150, "cap": 6824, "aps": 6022, " cap": 486, "icin": 9753, "cep": 6899, "pto": 14152, "cept": 6900, "epto": 8419, "tors": 16289, "ors ": 13556, "duc": 7682, "oduc": 13092, "duct": 7685, "yg": 17652, "s:": 15183, "ipo": 10271, "ase": 6170, "s: ": 15184, " lip": 1173, "enas": 8290, " end": 713, "ogen": 13128, "ike": 9992, "like": 11369, "ike ": 9993, "sub": 15757, " sub": 1755, "subs": 15758, "tanc": 15935, "oc ": 13021, "proc": 14114, "atl": 6252, " aca": 238, "acad": 5429, "sci": 15267, "ci ": 6992, " sci": 1663, " us": 1904, " usa": 1905, "(200": 4434, "з ": 22007, "ука": 24733, "каз": 22448, "аз ": 20807, "83": 5188, " 58": 199, "бр": 21131, "р.": 23850, ".3": 4609, "/1": 4631, "04": 4706, ".1": 4607, "81": 5184, " бр": 2589, "14.": 4783, "981": 5300, "81 ": 5185, "1981": 4901, "г. ": 21419, " г. ": 2658, "тд": 24489, "отд": 23641, "тде": 24490, "еля": 21781, " отд": 2970, "отде": 23642, "тдел": 24491, "еля ": 21782, "с.": 24176, " с.": 3053, "с. ": 24177, " с. ": 3054, "лом ": 22758, "а)": 20721, "чер": 24958, "рко": 24032, "вна": 21296, "а) ": 20722, " чер": 3214, "ерко": 21884, "рков": 24033, "овна": 23333, "зе": 22053, " зе": 2768, "зем": 22054, "лищ": 22726, "ище": 22382, " зем": 2769, " му": 2893, " му ": 2894, "жи": 21988, "раж": 23869, "тър": 24667, "рно": 24047, "вели": 21230, "елик": 21769, "лико": 22710, "ски ": 24241, "ръ": 24157, "ъг": 25056, " окр": 2952, "ъе": 25059, "яв": 25217, "иня": 22281, "няв": 23247, "ява": 25218, "прис": 23807, "нява": 23248, "ява ": 25219, " къ": 2844, " към": 2845, "бя": 21173, "яла": 25239, "сен": 24213, "енск": 21828, "'au": 4375, "'aut": 4376, "teu": 16082, "aute": 6322, "teur": 16083, "rés": 15123, " ce ": 493, "rém": 15121, " leu": 1161, "res.": 14521, "peu": 13928, " peu": 1485, " pau": 1474, "paul": 13875, "ecu": 7910, "cue": 7220, "recu": 14450, "eil ": 8069, "ball": 6496, "lade": 11101, "çai": 18109, "nçai": 12898, "çais": 18110, "aise": 5635, "ises": 10345, "lq": 11563, "lqu": 11564, "quel": 14231, "lque": 11565, "ques": 14234, "ues ": 16686, " éc": 2148, "vai": 17121, "ains": 5623, "ins ": 10191, "aux": 6325, "aux ": 6326, " eu": 743, "soi": 15524, "sy ": 15802, "ssé": 15643, " ;": 219, " ; ": 220, "fern": 8924, "nand": 12235, "lna": 11496, "cast": 6843, "aste": 6199, "stel": 15675, "rê": 15125, "aim": 5617, "jul": 10731, " jul": 1055, "juli": 10732, "ulie": 16784, " rom": 1614, "roma": 14837, "man ": 11759, "ce.": 6873, "nce.": 12279, "ce. ": 6874, "воб": 21316, "бод": 21121, "своб": 24194, "вобо": 21317, "обод": 23288, "ода ": 23370, "нор": 23166, " пан": 2979, " ан": 2562, "анг": 20903, "лий": 22706, " анг": 2563, "англ": 20904, "лийс": 22707, "eed": 7956, "dom": 7609, "free": 9025, "nora": 12669, "rama": 14310, " нем": 2922, "t)": 15863, "afr": 5556, "heit": 9445, "уз": 24727, "кла": 22504, " кла": 2821, "зак": 22018, "ако": 20849, " зак": 2755, "зако": 22019, "акон": 20851, "рско": 24116, "ични": 22375, "чни ": 24985, "юр": 25191, "кц": 22620, "кци": 22621, "ции": 24902, "озв": 23419, "оля": 23492, "ляв": 22807, " поз": 2997, "аван": 20744, "анет": 20911, "нето": 23059, "пуб": 23826, "убл": 24695, "кув": 22612, " пуб": 3014, "публ": 23827, "убли": 24696, "блик": 21112, "кува": 22613, "дни": 21599, "одни": 23386, "дни ": 21600, "рб": 23919, " тв": 3119, "би ": 21100, "твор": 24486, "фо": 24838, "аф": 21036, " фо": 3179, "огр": 23364, "раф": 23907, "афи": 21037, "огра": 23365, "граф": 21481, "рафи": 23908, "сн": 24277, "оза": 23418, "зас": 22029, "асн": 20988, "ема": 21786, "ани ": 20913, "карт": 22461, "ини ": 22267, " др": 2712, "рх": 24148, "хи": 24863, "арх": 20975, "рхи": 24150, "тек": 24501, "кту": 22604, "тур": 24661, "урн": 24776, " арх": 2569, "архи": 20976, "ктур": 22605, "турн": 24663, "ади": 20785, "ради": 23868, " ск": 3076, "ску": 24259, "ури": 24775, "ри ": 23986, " ил": 2787, " или": 2788, "уг": 24704, "дру": 21634, "руг": 24131, "уги": 24706, "ги ": 21439, " дру": 2713, "друг": 21635, "руги": 24132, "кти": 22596, " обе": 2938, "екти": 21757, "зк": 22067, "изк": 22185, "вот": 21347, "твот": 24487, "вото": 21348, "кои": 22534, "оит": 23436, " кои": 2829, "коит": 22535, "оито": 23437, "ито ": 22343, "тоя": 24616, "оян": 23694, "осто": 23624, "стоя": 24368, "тоян": 24617, "нно ": 23123, "изл": 22186, " изл": 2785, "ично": 22376, "чно ": 24988, "без": 21093, "ез ": 21724, " без": 2579, " тов": 3132, "ажд": 20802, "жда": 21972, "пора": 23778, "ражд": 23870, "ажда": 20803, "жда ": 21973, "ару": 20974, "уше": 24809, "шен": 25005, " нар": 2910, "шени": 25006, "во,": 21314, "во, ": 21315, "кое": 22529, "оет": 23405, " кое": 2828, "коет": 22531, "оето": 23406, "дъ": 21648, "дър": 21651, "ърж": 25077, "държ": 21652, "ържа": 25078, "аки": 20847, "ива": 22132, "таки": 24447, "ива ": 22133, "ут": 24792, "ът": 25082, "ату": 21027, "тут": 24664, "ът ": 25083, "стат": 24340, "а“": 21080, " ог": 2946, "ича": 22366, "чав": 24936, "гран": 21480, "рани": 23893, "чава": 24937, "оси": 23604, "сит": 24230, " нос": 2931, "носи": 23168, "осит": 23605, "сите": 24231, "ител": 22336, "теля": 24508, "рски": 24115, "рава": 23862, "дп": 21626, "едп": 21710, "дпр": 21628, "рие": 23997, "ием": 22166, "еме": 21789, "редп": 23955, "еме ": 21790, "мер": 22871, "рки": 24031, " мер": 2873, "ащ": 21063, "ащи": 21066, "щит": 25047, " си ": 3072, "ср": 24317, "щу": 25052, " ср": 3098, "сре": 24318, "рещ": 23980, " сре": 3099, "срещ": 24320, "дат": 21515, "здат": 22051, "дате": 21517, "тели": 24505, "зпр": 22089, "рост": 24098, "анит": 20919, "виз": 21256, "алн": 20871, "лни": 22740, "ални": 20873, "лни ": 22741, "обр": 23291, "бра": 21132, "аже": 20804, "обра": 23292, "ажен": 20805, "хв": 24861, "тит": 24552, "вана": 21204, "анат": 20902, "тите": 24553, "одат": 23373, "дата": 21516, "ачи": 21059, "начи": 23016, "вя": 21404, " яв": 3240, "юче": 25201, "люче": 22804, "ючен": 25202, "чай": 24938, " оби": 2939, "вил": 21261, "ило": 22235, "рави": 23863, "авил": 20750, "лят": 22815, "ят ": 25255, " има": 2791, "има ": 22244, "ючи": 25203, "чит": 24972, "елн": 21771, "лно": 22742, "чите": 24974, "телн": 24506, "елно": 21773, "риз": 23998, "изи": 22184, "зир": 22062, "ране": 23892, "анен": 20910, "нени": 23050, "dah": 7329, "hl ": 9516, "nord": 12670, "orda": 13500, "roa": 14793, "oad": 12979, "road": 14794, "ved ": 17164, "rth": 14979, "orth": 13563, "rth ": 14980, "nty": 12818, "coun": 7159, "ount": 13681, "tran": 16321, "rans": 14323, "rint": 14657, "ght ": 9185, "rai": 14294, "ail": 5614, " rai": 1571, "line": 11382, "ine.": 10138, " it ": 1001, "add": 5494, " lim": 1171, "limi": 11376, "san ": 15218, "cos ": 7154, "do,": 7594, "dido": 7500, "do, ": 7595, "lif": 11354, "ifo": 9915, "alif": 5735, "lifo": 11357, "ifor": 9916, "forn": 9008, "orni": 13543, "rnia": 14776, "nia,": 12507, "ilin": 10031, " add": 247, "dres": 7653, "ocat": 13024, "cate": 6847, "rha": 14575, "rive": 14690, "uto": 17026, "auto": 6323, "uto ": 17027, "ad,": 5483, "ad, ": 5484, "oth": 13637, " bot": 445, "wh": 17437, " wh": 1991, "whi": 17441, "hic": 9478, " whi": 1993, "whic": 17442, "hich": 9480, "ters": 16066, "sect": 15300, " ea": 675, "eas": 7828, " eas": 677, "east": 7830, "miss": 11963, "issi": 10372, "ad.": 5485, "ad. ": 5486, "sts": 15718, "nsis": 12734, "gle": 9226, "ingl": 10155, "ngle": 12476, "gle ": 9227, "tf": 16089, "rm ": 14736, "plat": 13985, "orm ": 13535, "k.": 10764, "ack": 5458, "ck.": 7067, "k. ": 10765, "trac": 16314, "rack": 14275, "ck. ": 7068, "спа": 24307, "пас": 23715, "аси": 20986, "рана": 23891, "ящ": 25268, "редс": 23956, "ие,": 22161, "ние,": 23072, "ие, ": 22162, "азу": 20824, "нав": 22977, "разу": 23880, "нава": 22978, "ане ": 20909, "еш": 21956, "реш": 23978, " реш": 3036, "иб": 22128, "гн": 21454, "риб": 23992, "приб": 23800, "посл": 23781, "осле": 23610, "ледн": 22673, "въ": 21391, "зм": 22071, " въ": 2646, "въз": 21394, "змо": 22073, " въз": 2648, "можн": 22926, "ожно": 23416, "жнос": 22001, "лам": 22653, "аме": 20888, "амен": 20889, "мени": 22868, "руск": 24146, "скат": 24237, "я.": 25211, "ево": 21680, "олю": 23491, "ия.": 22389, "я. ": 25212, "рево": 23945, "ия. ": 22390, "мо ": 22917, "пар": 23713, " пар": 2980, "парт": 23714, "ият": 22395, "ята": 25256, "ията": 22397, "ята ": 25257, "бол": 21122, "шев": 25004, "та,": 24432, " бол": 2587, "ата,": 21009, "та, ": 24433, "рич": 24021, "кате": 22464, "ричн": 24023, "епа": 21847, "тив": 24535, "иве": 22136, "атив": 21016, "вен ": 21232, " ге": 2660, " гер": 2663, "ерма": 21886, "рман": 24037, "ния.": 23110, "гол": 21465, "лям": 22811, " гол": 2669, "голя": 21467, "олям": 23493, " вл": 2622, "вли": 21289, "иян": 22393, " вли": 2624, "ияни": 22394, "сред": 24319, "ред ": 23949, "ойн": 23442, "йни": 22414, "ниц": 23099, "ици": 22359, "те,": 24494, " вой": 2631, "войн": 21331, "ници": 23101, "те, ": 24495, "раб": 23858, "бот": 21129, "отн": 23649, "тни": 24575, " раб": 3025, "рабо": 23859, "абот": 20737, "лян": 22812, "едни": 21706, " а ": 2545, " ли": 2851, "зап": 22024, "апо": 20950, "поч": 23785, " зап": 2759, "запо": 22027, "апоч": 20951, " ш": 3224, "шв": 25001, "йц": 22431, " шв": 3225, "цар": 24886, "рия": 24024, "ария": 20962, "цю": 24917, "х.": 24855, "х. ": 24856, "нско": 23185, "ома": 23501, "кома": 22548, "оман": 23502, "манд": 22843, "тай": 24442, "прев": 23793, "дера": 21552, "ера ": 21857, "ики": 22214, "док": 21615, "лад": 22651, "дит": 21580, " док": 2706, "клад": 22505, "дите": 21581, "чан": 24941, "пле": 23745, "иви": 22137, "вия": 21277, "уга": 24705, "тру": 24641, "удн": 24713, "ци ": 24899, "труд": 24642, "рудн": 24136, "ици ": 22360, "рез ": 23959, " със": 3111, "к.": 22436, "к. ": 22437, " вла": 2623, "alk": 5742, "lk ": 11426, " tal": 1802, "taki": 15913, "fot": 9012, "ulo": 16790, " fot": 804, "foto": 9014, "oulo": 13678, "ulos": 16792, "abo": 5414, " abo": 233, "abou": 5416, "bout": 6678, "out ": 13693, "zat": 17787, "izat": 10531, "capi": 6827, "ital": 10399, "tali": 15922, "ist ": 10377, "arke": 6096, "ket ": 10843, "roj": 14823, "jec": 10655, "proj": 14118, "roje": 14824, "ojec": 13171, "ject": 10656, "emo": 8261, "moc": 12012, "ocr": 13046, "acy": 5474, "demo": 7420, "emoc": 8262, "mocr": 12013, "ocra": 13047, "crac": 7169, "racy": 14278, "iven": 10495, " at ": 346, "niv": 12575, " uni": 1896, "univ": 16863, "nive": 12576, "rsit": 14939, "sity": 15436, "ermo": 8515, "rmon": 14756, "996": 5323, "6, ": 5111, "1996": 4917, "fol": 8993, "oll": 13231, "low": 11555, " fol": 799, "foll": 8995, "ollo": 13235, "llow": 11472, "lowe": 11556, "disc": 7538, "iscu": 10340, "ussi": 17000, "kc": 10811, "boo": 6668, "in,": 10105, " boo": 443, "book": 6669, "in, ": 10106, "odo": 13080, "ff ": 8932, " cho": 504, "chod": 6961, " oth": 1445, "othe": 13638, "hers": 9463, "take": 15912, "rt.": 14959, "rt. ": 14960, "deo": 7433, "eo ": 8390, " vid": 1934, "vide": 17228, "ideo": 9800, "deo ": 7434, " 3 ": 172, "rts": 14996, "ts.": 16377, "arts": 6140, "ts. ": 16378, " ret": 1591, "retr": 14537, "etri": 8709, "nua": 12824, "janu": 10639, "anua": 5962, "nuar": 12825, "uary": 16594, "ary ": 6146, "014": 4692, "2014": 4965, "14. ": 4784, "eks": 8137, "ksa": 10960, "ęk": 18543, "wię": 17477, "ięk": 10590, "ęks": 18544, "ksz": 10964, "szy": 15820, "zym": 17954, "więk": 17478, "ięks": 10591, "ększ": 18545, "zym ": 17955, "uce": 16619, "duce": 7684, "ntem": 12778, "ner": 12417, "gii": 9199, " ene": 714, "ener": 8311, "ergi": 8480, "ktr": 10979, "try": 16362, "ryc": 15069, "nej": 12398, " ele": 702, "elek": 8169, "ektr": 8142, "nej ": 12399, "tana": 15934, "anac": 5868, "zj": 17879, " zj": 2090, "jed": 10657, "edn": 7937, "dno": 7584, "ocz": 13054, "czo": 7264, "zon": 17906, "ony": 13413, "jedn": 10658, "edno": 7940, "czon": 7265, "zony": 17912, "onyc": 13415, "reni": 14501, "enie": 8323, "icz": 9781, "zni": 17895, "licz": 11342, "iczn": 9782, "czni": 7262, "znie": 17896, "tę": 16541, "ęp": 18546, "wys": 17536, "stę": 15747, "tęp": 16542, " wys": 2019, "wyst": 17537, "stęp": 15748, "zł": 17987, "ło": 18694, "ża": 18820, " zł": 2114, "zło": 17988, "łoż": 18698, " zło": 2115, "wc": 17401, "ów": 18331, "uro": 16956, "ców": 7284, "ów ": 18332, "aln": 5754, "lny": 11500, "iner": 10143, "nera": 12419, "alny": 5756, ".i": 4624, " m.": 1205, "m.i": 11714, ".in": 4625, " m.i": 1206, "m.in": 11715, ".in.": 4626, "kra": 10945, "raj": 14298, "ajo": 5648, "jow": 10719, " kra": 1108, "kraj": 10946, "oweg": 13748, "wego": 17415, "wyd": 17529, "dob": 7598, "oby": 13017, "yci": 17628, " wyd": 2016, "doby": 7600, "opy": 13472, "py ": 14179, "wej": 17420, "owej": 13749, "wej ": 17421, "azu": 6405, " gaz": 831, "mne": 12002, "go,": 9252, " zie": 2088, "ego,": 8024, "go, ": 9253, "iar": 9687, "rki": 14706, "ki,": 10853, "ki, ": 10854, "dt": 7673, "adt": 5524, " pon": 1513, "pona": 14034, "ię ": 10585, " się": 1706, "się ": 15451, "fit": 8975, "it,": 10391, "graf": 9280, "rafi": 14289, "it, ": 10392, "ips": 10274, "ól": 18313, " só": 1786, "enn": 8335, "ienn": 9861, "ryt": 15072, "rud": 15014, "udy": 16662, " rud": 1622, " ż": 2220, " że": 2221, "laz": 11161, "nez": 12444, "magn": 11737, " 노": 4079, "부 ": 29718, " 스": 4184, "이트": 29854, "시아": 29757, " -": 80, " - ": 81, "사이": 29730, " 사이": 4169, " 선": 4175, "선 ": 29737, " 운": 4222, " 종": 4272, "만 ": 29698, "적으": 29884, "적으로": 29885, "적으로 ": 29886, "レス": 29282, "スラ": 29237, "ラウ": 29268, "で、": 29078, "ル・": 29280, "ンの": 29286, "とが": 29096, "後に": 29425, "らの": 29180, "0年": 4729, "ート": 29305, "に入": 29149, "5年": 5101, "大学": 29378, "8年": 5202, "年の": 29415, "シュ": 29228, "ルー": 29281, "れ、": 29199, "ことが": 29002, "10年": 4753, "15年": 4794, "した。 ": 29020, "の後": 29157, "ブル": 29257, "ルク": 29278, "レー": 29283, "ンス": 29289, "て、": 29064, "\"h": 4352, "h-": 9365, "その後": 29031, "ch-": 6918, "heo": 9455, "theo": 16103, "reti": 14535, "tisc": 16193, "prac": 14090, "ract": 14277, "rsu": 14951, "chu": 6980, "hun": 9613, " unt": 1898, "unte": 16880, "ersu": 8545, "rsuc": 14952, "uchu": 16628, "chun": 6982, "hung": 9615, "trum": 16360, "umen": 16818, "n\"": 12172, "より": 29177, "ータ": 29302, "ルの": 29277, "4年": 5063, "スト": 29236, "的に": 29480, "参加": 29357, "ス・": 29238, "ファ": 29255, "により": 29147, "173": 4810, "174": 4811, " lau": 1147, "мос": 22933, "оск": 23606, "кая": 22469, " мос": 2892, "моск": 22934, "оско": 23607, "сков": 24252, "ская": 24238, "кая ": 22470, "пат": 23716, "атр": 21024, "три": 24631, "риа": 23989, "иар": 22126, " пат": 2981, "патр": 23717, "атри": 21025, "триа": 24632, "риар": 23991, "иарх": 22127, "еж": 21717, "реж": 23957, "ежд": 21719, "жден": 21976, "дени": 21548, "вос": 21344, "сла": 24261, "авос": 20761, "восл": 21345, "осла": 23609, "слав": 24262, "лавн": 22648, "яю": 25269, "объ": 23299, "бъе": 21163, "юще": 25205, "ее ": 21716, " объ": 2944, "ы,": 25089, "рук": 24139, "укт": 24738, "ы, ": 25090, "стру": 24374, "трук": 24643, "рукт": 24141, "укту": 24739, "неп": 23053, "епо": 21853, " неп": 2924, "твен": 24478, "венн": 21234, "енно": 21821, "ые": 25095, "уко": 24734, "ые ": 25096, " рук": 3046, "руко": 24140, "уков": 24735, "ково": 22525, "овод": 23339, "води": 21323, "ом.": 23499, "ом. ": 23500, "свя": 24196, "хим": 24864, "дри": 21632, "рит": 24015, "ит ": 22330, " свя": 3062, "щенн": 25041, "наст": 23002, "асто": 20999, " тр": 3138, "ице": 22358, "ерг": 21865, "рги": 23931, " тро": 3142, "кж": 22478, "акж": 20845, "кже": 22479, "такж": 24446, "акже": 20846, "кже ": 22480, "ты": 24669, "ыр": 25114, "сты": 24381, "рей": 23962, "ей,": 21738, "мона": 22930, "онас": 23522, "ей, ": 21739, "ею": 21961, "рш": 24154, "арш": 20977, "рши": 24156, "ших": 25016, "ших ": 25017, "й.": 22402, "тав": 24437, "вро": 21360, "роп": 24093, "опи": 23552, "й. ": 22403, "став": 24336, "вроп": 21361, "ced": 6879, "dut": 7703, "olo ": 13240, "fal": 8884, " fal": 765, "ello": 8199, "tom ": 16265, "nw": 12858, "nwa": 12859, "ders": 7453, "ò ": 18306, "aff": 5550, " aff": 257, "affe": 5551, "ffer": 8936, "ferm": 8923, "ome ": 13277, "uno ": 16871, "dei": 7405, " dei": 591, "dei ": 7406, "igl": 9936, " mig": 1243, "igli": 9937, "iori": 10246, "atto": 6274, "ttor": 16410, "nem": 12407, "tog": 16255, " cin": 510, "cine": 7029, "inem": 10141, "nema": 12409, "emat": 8237, "mato": 11796, "togr": 16256, "afic": 5554, "ici ": 9749, "ell'": 8195, "poca": 14007, "rete": 14534, "ete ": 8682, "dall": 7339, "all'": 5745, "ll'i": 11437, "nata": 12251, "ata ": 6221, "anza": 5971, "modi": 12016, "sso ": 15633, "nga": 12464, "nev": 12437, "olm": 13236, " ing": 985, "anne": 5934, "evol": 8772, "lmen": 11487, "dot": 7630, " dot": 636, "tato": 15960, "grad": 9279, "vole": 17284, "voc": 17275, "oce": 13027, " voc": 1947, "oce ": 13028, "arit": 6092, "tona": 16273, "cce": 6858, " acc": 239, "acce": 5431, "rita": 14679, "nnic": 12629, "nico": 12517, "ico.": 9767, "mol": 12024, "olt": 13247, " mol": 1258, "molt": 12027, "olte": 13249, "lte ": 11589, "pell": 13899, "lico": 11341, "etat": 8677, "ate,": 6229, "sono": 15544, "cord": 7146, "thr": 16116, " thr": 1828, "rill": 14640, "ller": 11457, "ioni": 10240, "onie": 13367, "nier": 12528, "iero": 9872, "ero ": 8523, "mst": 12090, "dam": 7341, "mste": 12091, "terd": 16056, "rdam": 14403, "dam ": 7342, "940": 5246, "1940": 4856, "reb": 14442, "ecc": 7867, "ogl": 13134, "glie": 9234, "0),": 4638, "0), ": 4639, "bi ": 6591, "tram": 16320, "rett": 14538, "etti": 8716, "tti ": 16402, "lf": 11306, "alf": 5724, "fred": 9024, "red ": 14452, "ck,": 7065, "ck, ": 7066, "itr": 10436, " rit": 1605, "trat": 16324, "ratt": 14347, "5)": 5069, "945": 5252, "5),": 5071, "1945": 4861, "5), ": 5072, "cui": 7222, " cui": 545, "cui ": 7223, "fig": 8954, "igu": 9949, " fig": 788, "figu": 8956, "igur": 9952, "ura ": 16918, "bol": 6662, "boli": 6664, "olic": 13223, "ico ": 9765, " lib": 1164, "erti": 8551, " lor": 1186, "ord ": 13499, " wo": 2003, "tton": 16409, "noi": 12654, " noi": 1343, "spar": 15572, "dra": 7647, " lon": 1184, "lond": 11529, "ndra": 12358, "dra ": 7648, "mant": 11771, " fan": 767, "ntas": 12769, "sig": 15406, "gno": 9249, " sig": 1699, "sign": 15407, "ora ": 13483, "uir ": 16738, " nei": 1319, "nei ": 12397, "egiu": 8016, " scr": 1665, "crit": 7181, "itto": 10444, "tore": 16285, "ley": 11297, "ey,": 8803, "ey, ": 8804, "amm": 5832, " dra": 642, "dram": 7649, "ramm": 14313, "amma": 5833, "ume ": 16816, " amb": 297, "ambr": 5815, "ì ": 18244, " ves": 1928, "vest": 17212, "d'i": 7300, "ghi": 9183, "hil": 9492, "ra,": 14262, " d'i": 563, "lter": 11591, "erra": 8530, "ra, ": 14263, "ebb": 7845, "bbe": 6528, "be ": 6536, "ebbe": 7846, " rip": 1603, "eso ": 8635, "cina": 7027, "iù": 10575, "ù ": 18378, "più": 13974, "iù ": 10576, " più": 1496, "più ": 13975, " tar": 1805, "tard": 15946, "rdi ": 14413, "vv": 17321, "'av": 4377, "avv": 6354, "ntu": 12814, "ll'a": 11435, "entu": 8367, "ntur": 12816, "adr": 5519, "6)": 5106, " σ": 2460, "στ": 20320, "τι": 20427, "ις": 19596, "ς ": 20266, " στ": 2470, "στι": 20332, "τις": 20440, "ις ": 19597, " στι": 2473, "στις": 20334, "τις ": 20441, " α": 2258, "αρ": 19146, "ρχ": 20246, "χέ": 20559, "ές": 18967, " αρ": 2275, "αρχ": 19158, "ές ": 18968, " αρχ": 2278, " τ": 2485, "το": 20444, "ου": 20038, "υ ": 20487, " το": 2500, "του": 20455, "ου ": 20039, " του": 2503, "του ": 20456, " μ": 2386, "με": 19794, "εσ": 19414, "σα": 20278, "αί": 19076, "ίω": 19067, "ων": 20604, "να": 19859, "α ": 19071, " με": 2395, "ίων": 19068, "ωνα": 20610, "να ": 19860, "ωνα ": 20611, " ή": 2251, "ήτ": 19004, "τα": 20382, "αν": 19120, "ν ": 19844, " ήτ": 2253, "ήτα": 19005, "ταν": 20392, "αν ": 19121, " ήτα": 2254, "ήταν": 19006, "ταν ": 20393, "μέ": 19769, "έρ": 18959, "ρο": 20226, "ος": 20025, " μέ": 2388, "μέρ": 19773, "έρο": 18966, "ρος": 20233, "ος ": 20026, " μέρ": 2389, "ρος ": 20234, "τη": 20412, "ης": 19472, " τη": 2494, "της": 20421, "ης ": 19473, " της": 2497, "της ": 20422, " δ": 2305, "δι": 19295, "ιό": 19615, "όκ": 20634, "κλ": 19662, "λε": 19715, "ει": 19342, "ια": 19532, "ας": 19160, "ς,": 20268, " δι": 2310, "λει": 19717, "εια": 19344, "ιας": 19538, "ας,": 19162, "ς, ": 20269, "ας, ": 19163, " ε": 2320, "εν": 19372, "νό": 19936, "ός": 20660, " εν": 2332, "νός": 19939, "ός ": 20661, "νός ": 19940, " υ": 2508, "υπ": 20508, "πο": 20111, "οτ": 20033, "τε": 20399, "ελ": 19359, "λο": 19748, "ού": 20062, "ύς": 20686, " υπ": 2509, "υπο": 20510, "ποτ": 20129, "οτε": 20035, "τελ": 20403, "ελο": 19366, "λού": 19758, "ούς": 20068, "ύς ": 20687, " υπο": 2510, "ποτε": 20130, "οτελ": 20036, "ούς ": 20069, " κ": 2361, "κρ": 19678, "ρα": 20168, "ατ": 19177, "ιδ": 19544, "δί": 19283, "ίο": 19038, " κρ": 2375, "κρα": 19679, "ρατ": 20182, "ατι": 19187, "ίου": 19041, "κρατ": 19680, "ίου ": 19042, " β": 2284, "ζα": 19437, "ντ": 19917, "τί": 20380, "υ.": 20490, "αντ": 19133, "ντί": 19919, "ου.": 20042, "υ. ": 20491, "αντί": 19134, "ου. ": 20043, "ργ": 20185, "γό": 19275, "ότ": 20664, "ερ": 19394, "α,": 19072, "αργ": 19151, "ργό": 20188, "γότ": 19276, "ότε": 20667, "τερ": 20405, "ερα": 19396, "ρα,": 20170, "α, ": 19073, " αργ": 2276, "αργό": 19152, "γότε": 19277, "ότερ": 20668, "τερα": 20406, "ρα, ": 20171, "βρ": 19222, "ρέ": 20157, "έθ": 18933, "θη": 19508, "ηκ": 19453, "κε": 19647, "ε ": 19317, " βρ": 2291, "θηκ": 19509, "ηκε": 19456, "κε ": 19648, "θηκε": 19511, "ηκε ": 19457, "τό": 20477, "εντ": 19379, "τός": 20480, " εντ": 2333, "τός ": 20481, " π": 2431, "πρ": 20134, "ρι": 20204, "ιγ": 19543, "γκ": 19249, "κι": 19656, "ιπ": 19593, "πά": 20074, "άτ": 18922, " πρ": 2451, "πρι": 20135, "άτο": 18923, " ζ": 2345, "έτ": 18974, "τας": 20395, "ας ": 19161, "τας ": 20396, "κα": 19634, "αι": 19094, "ι ": 19523, " κα": 2364, "και": 19637, "αι ": 19095, " και": 2366, "και ": 19638, "σε": 20282, "ρβ": 20184, "βί": 19210, "ία": 19008, "ς.": 20270, " σε": 2462, "ίας": 19014, "ας.": 19164, "ς. ": 20271, "ίας.": 19017, "ας. ": 19165, "ngo": 12478, "ong ": 13358, "ał": 6438, "ała": 6440, "ac ": 5427, "bia": 6592, "ńsk": 18712, "ski": 15459, "ańsk": 6449, "ński": 18713, "ski ": 15460, "2)": 4933, "2) ": 4934, "uł": 17091, "ł ": 18686, "modu": 12018, "orb": 13494, "rbi": 14375, "orbi": 13495, "rbit": 14376, "nacz": 12206, "ony ": 13414, "yme": 17681, "tów": 16530, "sper": 15578, "tów ": 16531, "bic": 6597, "icie": 9751, "cie ": 7011, "łe": 18691, " ud": 1879, "udz": 16663, "iał": 9699, "ałe": 6442, "dzia": 7727, "ział": 17856, "zał": 17792, "ało": 6443, "ogo": 13137, "gow": 9275, "atk": 6251, "kos": 10930, "osm": 13597, "smi": 15501, " kos": 1106, "she": 15372, "zho": 17850, " she": 1692, " 11 ": 99, " ora": 1433, "oraz": 13492, "raz ": 14359, " tow": 1847, "towa": 16305, " te ": 1808, "bę": 6772, "ęd": 18538, " bę": 474, "będ": 6773, " będ": 475, "ił": 10599, "ły": 18701, "now": 12692, "owi": 13751, "ły ": 18702, "tano": 15939, "anow": 5946, "nowi": 12694, "tap": 15942, "ap ": 5992, " nad": 1300, "nad ": 12208, "ką": 11038, "ką ": 11039, "łą": 18705, "tał": 15974, "stał": 15667, "cj": 7056, "acj": 5455, "stac": 15656, "tacj": 15889, "esz": 8665, "szc": 15813, "zcz": 17796, "mies": 11933, "iesz": 9887, "szcz": 15814, "ał ": 6439, " zos": 2098, "zost": 17915, "tał ": 15975, "wr": 17505, "eś": 8846, "śn": 18738, " wr": 2009, "ześ": 17846, "eśn": 8847, "śni": 18739, "ześn": 17847, "eśni": 8848, "nia ": 12506, "016": 4697, "16 ": 4796, "2016": 4967, "016 ": 4698, " r.": 1565, " r. ": 1566, " za ": 2062, "kie": 10859, "ety": 8721, "ety ": 8722, "chan": 6926, "hang": 9395, "źd": 18813, "źdz": 18814, "iku": 10002, "ździ": 18815, "zier": 17865, "iern": 9871, "erni": 8520, "rnik": 14779, "cum": 7230, "umo": 16823, "mow": 12053, "wał": 17398, "ował": 13745, "wał ": 17399, "iego": 9834, "owy ": 13765, "dw": 7711, "wó": 17541, " dw": 655, "ogi": 13130, "kwi": 11009, "wie": 17453, "etn": 8701, "niu": 12573, "wiet": 17459, "ietn": 9890, "etni": 8702, "niu ": 12574, "dok": 7606, "opa": 13442, "pat": 13869, "iow": 10257, "patr": 13872, "rzen": 15084, "zeni": 17829, "niow": 12557, "рон": 24092, "нал": 22988, "онал": 23521, "наль": 22991, "єд": 25279, "дини": 21576, "ний ": 23080, " спо": 3096, "спол": 24312, "шт": 25029, " шт": 3229, "шта": 25030, "тів": 24684, "ів,": 25296, "ів, ": 25297, "яки": 25234, " яки": 3244, "який": 25235, "має": 22855, "має ": 22856, "лас": 22656, "влас": 21286, "ласн": 22657, "зі": 22110, " зі": 2775, "рол": 24087, "фі": 24850, "ьм": 25142, " фі": 3186, "філ": 24851, " філ": 3187, " з ": 2748, "лін": 22822, "іна": 25339, "ж ": 21965, "кож": 22532, "ож ": 23408, "тако": 24448, "акож": 20850, "кож ": 22533, " од": 2947, " оди": 2948, "один": 23382, "нато": 23005, "торі": 24612, "фор": 24841, "орн": 23581, "рні": 24051, "нії": 23268, " кал": 2811, "(д": 4476, " (д": 65, "им ": 22242, "ав ": 20740, "тав ": 24438, "арн": 20965, "нол": 23158, "рц": 24151, "iš": 10608, "mr": 12087, "zek": 17819, " dob": 625, "07": 4718, "907": 5218, "07 ": 4719, "1907": 4835, "bí": 6758, " tř": 1873, "tře": 16558, "řeb": 18717, "jn": 10699, " ří": 2204, "bad": 6488, " bad": 388, "laa": 11090, "asp": 6187, "he,": 9427, "he, ": 9428, "sr": 15603, " sr": 1740, "yl ": 17668, "byl ": 6745, "čes": 18514, "esk": 8626, " čes": 2195, "česk": 18515, "eva": 8755, "cký": 7081, " eva": 746, "evan": 8758, "geli": 9134, "elic": 8181, "ický": 9762, "cký ": 7082, "teo": 16047, "eol": 8392, " teo": 1819, "eolo": 8393, "el,": 8146, "lada": 11100, "date": 7362, "el, ": 8147, "blis": 6647, "lici": 11340, "dit": 7544, "or,": 13478, "edit": 7935, "dito": 7549, "or, ": 13479, "hov": 9565, "ovn": 13724, "vní": 17270, "ucho": 16626, "chov": 6966, "ovní": 13725, "vní ": 17271, "sko": 15465, "ké ": 11019, "ské ": 15474, "cké": 7078, "ické": 9761, "oř": 13806, "řá": 18726, "ád": 18016, "feso": 8927, "esor": 8636, "hus": 9617, "uso": 16992, "sov": 15563, "ově": 13738, "osl": 13595, "slov": 15493, "love": 11553, "oven": 13718, "ensk": 8352, "cké ": 7079, "fak": 8883, "aku": 5680, "kul": 10992, " fak": 764, "kult": 10994, "oho": 13152, "(h": 4453, "b)": 6475, " (h": 42, "po ": 14001, " po ": 1502, "roce": 14802, "950": 5260, "1950": 4867, "kan ": 10787, "kom": 10916, " kom": 1102, "omen": 13278, "mens": 11876, "aze": 6400, "lè": 11668, " col": 526, "coll": 7113, "bern": 6574, "rnar": 14769, "nard": 12242, "rdin": 14415, "ýv": 18463, "býv": 6771, "ýva": 18464, "erci": 8456, "lej": 11247, "olej": 13213, "íž": 18291, "erz": 8572, "rzi": 15088, "ty.": 16477, "verz": 17209, "erzi": 8575, "ity.": 10455, "ty. ": 16478, "zan": 17779, "ikl": 9997, " zan": 2070, "anik": 5914, " kd": 1074, " kdy": 1076, "yli": 17673, " mn": 1252, "áni": 18037, "řen": 18721, "na.": 12197, "na. ": 12198, "001 ": 4658, "udo": 16657, "budo": 6725, "udov": 16659, "zí": 17974, "ísk": 18278, "ska": 15455, "kal": 10779, "kala": 10780, "ala ": 5696, "idi": 9803, "iec": 9822, " let": 1160, "lete": 11284, "etec": 8683, "tech": 15998, "4-": 5037, "004": 4663, "2004": 4954, "-200": 4526, "rob": 14795, "obě": 13019, "hla": 9517, "prob": 14113, "elk": 8192, "lko": 11430, "kov": 10935, "vá ": 17330, "ová ": 13731, "eko": 8134, "ruk": 15023, "ekon": 8135, "kons": 10925, "ouž": 13706, "uží": 17101, "ouží": 13707, " ke": 1077, "zdě": 17802, "áva": 18063, "ltu": 11599, " kul": 1117, "ultu": 16799, "ltur": 11600, "turn": 16446, "ním ": 12920, "lů": 11702, " \"h": 7, "roe": 14811, "oes": 13111, "s\" ": 15166, " eur": 744, "euro": 8741, "isio": 10353, " şa": 2210, "rkı": 14713, "kı ": 11042, " şar": 2211, "şark": 18753, "arkı": 6097, "şm": 18763, "sı": 15848, "ı'": 18606, "'n": 4398, "rış": 15157, "ışm": 18681, "şma": 18764, "ası": 6211, "ı'n": 18607, "'nı": 4402, "nı ": 12948, " yar": 2037, "yarı": 17610, "arış": 6155, "ışma": 18682, "ması": 11789, "36": 5019, "65": 5126, " 36": 184, "65 ": 5127, "nla": 12597, "anla": 5926, "ı.": 18610, "ndı": 12370, "dı.": 7763, "ı. ": 18611, " kaz": 1073, "kaza": 10808, "azan": 6397, "zand": 17780, "andı": 5893, "ndı.": 12371, "dı. ": 7764, "bu ": 6722, " bu ": 455, "rih": 14627, "ihi": 9955, "arih": 6088, "rihi": 14628, "ihin": 9956, "hind": 9502, " ü": 2178, "üç": 18445, "çü": 18135, "cü": 7285, " üç": 2189, "üçü": 18446, "ünc": 18416, "uand": 16588, "ndır": 12372, "yn": 17686, " ay": 372, "ayn": 6382, "ynı": 17691, " ayn": 373, "aynı": 6383, "ynı ": 17692, "ıl": 18624, " yı": 2057, "yıl": 17742, "ılı": 18634, "lın": 11694, " yıl": 2058, "yılı": 17743, "ılın": 18636, "lınd": 11695, " yan": 2035, " ilk": 972, "ilk ": 10039, "def": 7400, "efa": 7981, "fa ": 8872, " def": 589, "iy": 10515, "yi": 17656, "iyi": 10520, "yi ": 17657, "biri": 6620, "irin": 10307, "tele": 16021, "ele ": 8163, "oy": 13771, " oy": 1455, "yla": 17669, "değ": 7478, " değ": 602, "deği": 7479, "lir": 11395, "irl": 10311, " bel": 413, "beli": 6562, "elir": 8188, "irle": 10312, "hile": 9495, "run": 15030, " run": 1624, "gn ": 9243, "camp": 6815, "ampa": 5842, "ign ": 9939, "elec": 8166, "lect": 11227, "his ": 9509, "rry": 14921, "sher": 15374, "herr": 9462, "rry ": 14922, "tsc": 16379, "nk ": 12586, "tsch": 16380, " lie": 1167, "eute": 8747, "tena": 16038, "990": 5313, "1990": 4911, "hea": 9429, "aly": 5782, "ly,": 11655, "ly, ": 11656, "lp": 11559, "elp": 8209, " hel": 917, " rob": 1608, "robe": 14797, "ert ": 8547, "cru": 7184, "ruit": 15022, "uite": 16746, "ited": 10408, "mpl": 12070, "oye": 13773, "yed": 17640, "empl": 8268, "mplo": 12074, " bl": 432, " bla": 433, "blac": 6635, "lack": 11097, "ack ": 5459, "fis": 8974, "ishe": 10348, "herm": 9461, "erma": 8512, "rman": 14743, "nj": 12582, " ben": 414, "nt,": 12754, " hun": 950, "nt, ": 12755, "gai": 9082, " aga": 264, "agai": 5566, "gain": 9083, "nst ": 12745, "repu": 14512, "thu": 16119, "hur": 9616, "arth": 6137, "vene": 17183, "enel": 8309, "aly ": 5783, "oug": 13670, "ugh": 16707, "ough": 13671, "ncr": 12306, "reas": 14440, "ease": 7829, "ase ": 6171, "whit": 17443, " vot": 1955, "oter": 13635, "lay": 11156, "yin": 17658, "play": 13986, "ying": 17659, " rac": 1568, "fea": 8903, "ear": 7822, "ars": 6127, " fea": 776, "ears": 7827, "ars ": 6128, "uth ": 17021, "caro": 6834, "arol": 6116, "roli": 14832, "olin": 13227, "lina": 11380, "ate.": 6230, "sed": 15302, "prom": 14119, "romi": 14839, "omis": 13288, "sed ": 15303, "who": 17444, " who": 1994, "who ": 17445, "had": 9377, " had": 900, "had ": 9378, "prio": 14108, "drug": 7659, " arr": 336, "rres": 14914, "aid": 5611, "aid ": 5612, "nre": 12706, "repo": 14510, "epor": 8412, "rted": 14973, "but": 6739, "ntri": 12808, "ibut": 9714, "utio": 17024, "idl": 9806, "law": 11155, "aw ": 6358, "i-": 9650, "-i": 4554, "これ": 29005, "朝鮮": 29460, "に、": 29128, "にも": 29143, "'or": 4405, "m-": 11711, "る）": 29198, "）、": 29976, "iei": 9836, "）。": 29977, "。ま": 28951, "た、": 29033, "。また": 28952, "また、": 29165, "がある": 28995, " sie": 1698, "。また、": 28953, "がある。": 28996, "r-": 14250, "）。 ": 29978, " sar": 1652, "年1": 29402, "1月": 4928, "7日": 5170, "日，": 29450, "17年": 4816, "年1月": 29405, "best": 6580, "」。": 28959, "。2": 28940, "2月": 4993, "月1": 29454, "5日": 5102, "》，": 28958, "5月": 5103, "4日": 5064, "获得": 29499, "中央": 29324, "6月": 5138, "8日": 5203, "發行": 29478, "文化": 29444, "中心": 29325, "2月1": 4994, "7月": 5171, "月2": 29456, "29": 4986, "9日": 5332, "第1": 29486, "成为": 29432, "eet": 7977, "12月": 4771, "etin": 8692, "工作": 29398, "活動": 29466, "oup": 13682, " gro": 876, "roup": 14875, "第一": 29487, "一个": 29312, "0月": 4732, "电影": 29477, "。20": 28941, "10月": 4754, "。201": 28943, "世界": 29320, "中，": 29327, "hand": 9394, "'en": 4384, " l'e": 1133, "l'en": 11066, "'ent": 4385, "tart": 15949, "arta": 6135, "ipp": 10273, "pe ": 13883, " phi": 1487, "phil": 13937, "hili": 9496, "ppe ": 14076, "-b": 4537, "dou": 7632, "azy": 6406, " dou": 637, "uste": 17004, "995": 5321, "5, ": 5074, "1995": 4916, "don": 7611, " don": 631, "donn": 7615, "lain": 11109, "ël": 18242, "ël ": 18243, "god": 9257, " god": 865, "godi": 9258, "éb": 18162, "ouc": 13666, "hé ": 9634, "sur ": 15784, "xe": 17558, "كل ": 26444, " كل ": 3475, "جة": 25868, " در": 3401, "جة ": 25869, "خط ": 25959, " خط ": 3395, "طول": 26260, "طول ": 26261, "سم": 26170, "60": 5115, " 60": 202, "60 ": 5116, " 60 ": 203, "دق": 26000, "قة": 26382, "يقة": 27036, "وي": 26965, "نق": 26809, " وي": 3569, "سم ": 26171, " منه": 3520, " ث": 3374, "ثان": 25843, "ية.": 26992, "ية. ": 26993, "ويت": 26969, "يتم": 26998, "تم ": 25819, "يتم ": 26999, "كت": 26426, " كت": 3473, "كتا": 26427, "تاب": 25774, "كتاب": 26428, " ط": 3426, " طو": 3429, "قة ": 26383, "يقة ": 27037, "° ": 17995, " 27": 165, " هي": 3535, " هي ": 3536, "دد": 25993, "لمح": 26612, "دد ": 25994, "المح": 25642, "ثو": 25856, "الث": 25585, "وان": 26878, " الث": 3302, "اني ": 25682, " مع ": 3514, "كس": 26442, "سر": 26157, "شر": 26194, " عش": 3437, "عشر": 26303, "شري": 26198, " عشر": 3438, " تم": 3370, "بد": 25718, " بد": 3337, " عن": 3443, "عن ": 26323, " عن ": 3444, "أج": 25401, "جز": 25878, "ء ": 25397, " أج": 3264, "اء ": 25469, "تد": 25791, "ري ": 26113, "زء": 26126, "جزء": 25879, "غي": 26341, "غير": 26342, "وبا": 26881, " كما": 3477, "مك": 26735, " يم": 3581, "يمك": 27055, "مكن": 26737, "كن ": 26450, " يمك": 3582, "يمكن": 27056, "مكن ": 26738, "تع": 25802, "عب": 26280, "لتع": 26516, "بير": 25757, "التع": 25580, "بير ": 25758, ".4": 4610, "33": 5013, "33 ": 5014, "رق": 26091, " شر": 3422, "شرق": 26196, "راء ": 26054, "عم": 26317, "لعم": 26581, "عمل": 26319, "ملي": 26742, "ليا": 26648, "العم": 25624, "لعمل": 26582, "عملي": 26321, "يات ": 26981, "ساب": 26142, "ابي": 25482, "بية": 25755, "ية،": 26994, "ية، ": 26995, " يتم": 3572, " تح": 3360, "ويل": 26970, "ياس": 26984, "اس ": 25524, "لز": 26554, "زو": 26134, "الز": 25605, "ايا": 25691, " الز": 3309, "ئر": 25455, "لدا": 26542, "ائر": 25471, "تى": 25836, " حت": 3385, "حتى": 25908, "تى ": 25837, " حتى": 3386, "حتى ": 25909, "دل": 26001, "مز": 26715, "(ب": 4487, " (ب": 75, "احد": 25501, "حد ": 25911, "واحد": 26868, "اوي": 25689, "وي ": 26966, "180": 4819, " 180": 120, "تب": 25777, "لشر": 26564, "رق ": 26092, "الشر": 25612, "الغ": 25625, "علا": 26309, "نص": 26797, "صف": 26221, "صف ": 26222, "ربي": 26070, "بي ": 25753, " الغ": 3316, "إي": 25454, "يج": 27002, "بية ": 25756, "لجم": 26527, "جمع": 25885, " بي": 3353, "بين": 25760, " بين": 3354, "بين ": 25761, "وخ": 26895, "عرض": 26299, "عاد": 26275, " ما ": 3496, "تك": 25812, " تك": 3367, "تكو": 25813, "كون": 26454, " تكو": 3368, "تكون": 25814, "كون ": 26455, "شم": 26203, "شما": 26204, "شمال": 26205, " تع": 3365, "مو": 26755, "قع": 26396, " مو": 3521, "سط": 26158, "ظا": 26264, "نظا": 26802, "ظام": 26265, "نظام": 26803, "يكا": 27040, "ارت": 25516, " دي": 3403, "يح": 27003, " يح": 3573, " عند": 3445, "قط": 26395, "عين": 26333, "زم": 26131, "مني": 26752, "لمو": 26625, "قع ": 26397, "المو": 25653, "ده": 26008, "ده ": 26009, " و ": 3538, "\"ا": 4359, "\"ال": 4360, "عال": 26276, "لعال": 26574, "عالم": 26277, "المي": 25654, "(u": 4470, " (u": 59, " إن": 3289, "24 ": 4976, "اعة": 25536, "اعة ": 25537, "يوم": 27073, "وم ": 26949, "يوم ": 27074, "حل": 25929, "مف": 26732, "تت": 25781, " تت": 3358, "رك ": 26094, "للا": 26600, "بم": 25744, " بم": 3348, "دل ": 26002, "(3": 4435, " (3": 27, "لسا": 26557, "حدة": 25914, "الوا": 25661, "إذ": 25439, "اك ": 25552, "شخ": 26192, "خص": 25957, "نط": 26798, "طق": 26252, "منط": 26749, "نطق": 26799, "طقة": 26253, "منطق": 26750, "نطقة": 26800, "طقة ": 26254, "3)": 4998, "3) ": 4999, " فا": 3452, "وج": 26889, "جو": 25894, "موج": 26757, "وجو": 26891, "جود": 25895, "وجود": 26892, " °": 2123, "واس": 26870, "ظر": 26266, "لنق": 26630, "وسط": 26914, "؛ ": 25396, "يف": 27030, "يف ": 27031, "اسي": 25529, "د،": 25969, "لحد": 26532, "حدو": 25916, "دود": 26012, "د، ": 25970, "الحد": 25593, "لحدو": 26534, "حدود": 25917, "يان": 26985, "أل": 25421, " أل": 3275, "فه": 26363, " وج": 3546, "رو": 26106, "رون": 26109, "متر": 26691, "دولي": 26017, " ut": 1907, "تحد": 25785, "حدي": 25918, "ديد": 26025, "ديد ": 26026, "محل": 26702, " طر": 3428, "فل": 26361, "لكي": 26598, "لطا": 26570, "الطا": 25617, "23 ": 4974, " 23 ": 158, " ia": 954, "ie:": 9818, "uari": 16592, "arie": 6087, "rie:": 14612, "ie: ": 9819, "bd": 6532, "abd": 5401, "lah": 11106, "ah ": 5595, " abd": 230, "ulla": 16787, "llah": 11445, "lah ": 11107, "bin ": 6614, "iz ": 10525, "lazi": 11162, "aud": 6295, "ud ": 16641, " al-": 279, "hm": 9524, "ahm": 5602, "hma": 9526, " fai": 763, "urk": 16948, "uha": 16716, "d)": 7304, " 90": 215, "90 ": 5215, " ani": 308, "ege": 8005, "rege": 14463, "ege ": 8006, "rab": 14267, " ara": 328, "arab": 6042, "rabi": 14270, "iei ": 9837, "audi": 6296, "udit": 16654, "dite": 7547, "5-": 5075, "005": 4665, "2005": 4955, "4)": 5033, "924": 5229, "4) ": 5034, "1924": 4843, "ún": 18388, " el ": 700, "]​": 5345, "​ ": 28896, "]​ ": 5346, "ía": 18250, "abí": 5424, "bía": 6759, "ía ": 18251, "abía": 5425, "62": 5120, "62 ": 5121, "rso": 14942, "erso": 8543, "rson": 14945, "sona": 15539, "nas ": 12247, "dien": 7503, "iend": 9858, "ipio": 10268, "pio ": 13961, "ensi": 8351, "sida": 15396, "pob": 14004, "obl": 13004, " pob": 1504, "pobl": 14005, "obla": 13005, "laci": 11096, "ació": 5454, "04 ": 4707, "m²": 12123, "km²": 10904, " los": 1187, "tes,": 16075, "mer ": 11879, "aba ": 5396, "pue": 14161, "ompu": 13308, "pues": 14162, "esto": 8659, "sto ": 15703, " %": 14, " % ": 15, "blan": 6636, "lanc": 11119, "anco": 5881, " 0": 86, ",6": 4513, " 0,": 87, "ran ": 14316, "oam": 12981, " afr": 261, "cano": 6821, "27 ": 4983, "otr": 13650, " otr": 1446, "otra": 13651, " raz": 1576, "zas ": 17786, " y ": 2031, "tota": 16297, "otal": 13628, "span": 15571, " lat": 1146, "atin": 6247, "inos": 10186, "cua": 7215, " cua": 543, "cual": 7216, "quie": 14237, ".[": 4617, "a.[": 5368, "لية": 26649, "لية ": 26650, "996 ": 5324, "دا ": 25973, "ذي": 26040, "الذ": 25600, "لذي": 26548, "ذي ": 26041, "الذي": 25601, "لذي ": 26549, " سن": 3415, "انو": 25680, "( ": 4422, " )": 76, "994": 5319, "1994": 4915, "طل": 26255, "لاق": 26491, "مى": 26759, "وحد": 26894, "دات": 25974, " تد": 3361, " بو": 3352, " سل": 3414, "وية": 26967, "وية ": 26968, "السا": 25607, "ذك": 26034, "ر.": 26043, "ر. ": 26044, " الذ": 3307, " حد": 3387, "دود ": 26013, " مج": 3501, "مجل": 26697, "جلس": 25883, "لس ": 26556, "غا": 26335, "لبا": 26501, "البا": 25570, "خت": 25946, "ختل": 25947, "تلف": 25817, "لف ": 26585, "ختلف": 25948, "وض": 26918, "ضع": 26234, " لت": 3483, "طع": 26250, "للم": 26602, " للم": 3487, "نش": 26796, "شت": 26191, "دور": 26014, "رها ": 26105, "انت": 25678, "نت ": 26785, "كانت": 26420, "انت ": 25679, "قام": 26377, " أس": 3269, "أسا": 25410, "فية": 26367, "فية ": 26368, " تا": 3357, "ابع": 25480, "بع ": 25730, "ج ": 25859, "للت": 26601, " للت": 3486, "لاس": 26488, "الاس": 25567, "لثا": 26523, "الثا": 25586, "lm ": 11480, " mal": 1217, "iii": 9965, " iii": 966, "iii ": 9966, "ورو": 26905, "وات": 26865, "وات ": 26866, "هر ": 26849, "دى": 26019, "دى ": 26020, "ارة": 25514, "ارة ": 25515, "لص": 26566, "صح": 26216, "الص": 25613, " الص": 3312, "한민": 29957, "적인": 29888, "적인 ": 29889, " 좌": 4273, "국민": 29550, "민주": 29714, "주의": 29898, "0년": 4733, "대 ": 29613, " 후": 4338, "980": 5299, " 198": 141, "1980": 4900, "까지": 29574, "지 ": 29901, "까지 ": 29575, " 민": 4144, "민족": 29713, "l)": 11076, ")이": 4501, "이라": 29840, "라는": 29664, "이라는": 29842, "라는 ": 29665, "이라는 ": 29843, "운동": 29811, " 처": 4285, "이들": 29839, "중 ": 29899, " 이들": 4235, " 조": 4268, "조선": 29895, "국의": 29551, " 조선": 4269, "국의 ": 29552, " 파": 4305, " 주": 4274, "세력": 29741, " 세력": 4179, " 있": 4247, "있었": 29871, "지만": 29904, "만,": 29699, " 있었": 4252, "지만,": 29906, "만, ": 29700, "지만, ": 29907, " 비": 4165, "며,": 29704, "며, ": 29705, " 반": 4148, "자들": 29877, "들이": 29651, "들이 ": 29652, "대부": 29614, "부분": 29719, " 만": 4129, "하고": 29931, "하고 ": 29932, "그리": 29562, "리고": 29690, " 그리": 4068, "그리고": 29563, "리고 ": 29691, " 그리고": 4069, "그리고 ": 29564, "들은": 29645, "들은 ": 29646, " 국": 4056, "를 ": 29688, "해 ": 29961, "하면": 29940, "하면서": 29941, "자신": 29878, " 자신": 4256, " 친": 4294, "고,": 29544, "고, ": 29545, " 평": 4306, " 과": 4052, " 경": 4047, " 안": 4197, " 점": 4265, "지를": 29902, "지를 ": 29903, " 마": 4127, "스 ": 29743, "한다": 29954, "다는": 29601, " 한다": 4322, "다는 ": 29602, " 하": 4314, "된 ": 29634, "서는": 29732, "에서는": 29792, "서는 ": 29733, "에서는 ": 29793, " 힘": 4339, " 또": 4118, "또한": 29659, " 또한": 4119, "또한 ": 29660, " 또한 ": 4120, "이고": 29829, "이고 ": 29830, "가지": 29530, "있는": 29866, " 있는": 4248, "있는 ": 29867, " 있는 ": 4249, " 때": 4114, "하다": 29937, "تعد": 25804, "عدي": 26293, "مط": 26724, "الي ": 25663, "اما": 25668, "رئ": 26048, "ئي": 25458, " رئ": 3408, "رئي": 26049, "ئيس": 25461, "ياً": 26986, "رئيس": 26050, "ياً ": 26987, "ظم": 26267, "اعي": 25542, "وني": 26956, "وما": 26950, "مات": 26671, "ومات": 26951, "مات ": 26672, "لات": 26482, "اتص": 25487, "تصا": 25799, "صال": 26211, "الات": 25566, "لاتص": 26484, "اتصا": 25488, "تصال": 25800, "يدة": 27008, "يدة ": 27009, "حز": 25922, " sid": 1697, "ide ": 9798, "band": 6500, "مسا": 26717, "عيد": 26332, "تأ": 25772, " تأ": 3356, "رد": 26079, "لتر": 26515, "التر": 25579, "fd": 8899, "req": 14513, "ncy": 12311, "cy ": 7247, "requ": 14514, "uenc": 16679, "mul": 12102, "lti": 11592, "tip": 16182, "lex": 11296, " mul": 1271, "mult": 12105, "ulti": 16798, "ltip": 11594, "iple": 10270, "plex": 13991, "إش": 25444, "شار": 26187, "حدة ": 25915, "مثل": 26693, "ثل ": 25850, "مثل ": 26694, " عد": 3434, "عدد": 26292, " عدد": 3435, "كب": 26421, " كب": 3471, "كبي": 26422, " كبي": 3472, "كبير": 26423, "مست": 26718, "ستق": 26153, "لمست": 26617, "عبر": 26281, "معل": 26730, "علو": 26311, "لوم": 26643, "علوم": 26312, " مخ": 3504, "قن": 26403, "نوا": 26820, "اتف": 25489, "بإ": 25700, "حة": 25904, " بإ": 3331, "حة ": 25905, "تش": 25797, "غل": 26339, "جدي": 25874, "جديد": 25875, "ثم": 25852, " ثم": 3375, "ثم ": 25853, " ثم ": 3376, "لأخ": 26467, "أخر": 25405, "خرى": 25955, "الأخ": 25556, "أخرى": 25406, "لات ": 26483, "فض": 26357, "ائي": 25474, "ئية": 25459, "ائية": 25475, "أم": 25422, " أم": 3276, "أما": 25423, "هو ": 26857, "لاست": 26489, "يلي": 27051,
[...]
