{"vocabulary":{" d":557,"de":7387,"e ":7782," de":580,"de ":7388," de ":581," s":1637,"sp":15571,"po":14009,"on":13325,"ns":12714,"s ":15170," sp":1732,"spo":15587,"pon":14042,"ons":13394,"ns ":12715," spo":1736,"spon":15589,"pons":14047,"ons ":13395," b":380,"be":6538,"eh":8040,"ho":9546,"oo":13425,"or":13482,"rt":14963,"t ":15863," be":398,"beh":6552,"eho":8046,"hoo":9565,"oor":13438,"ort":13565,"rt ":14964," beh":406,"oort":13442,"ort ":13566," t":1798,"to":16245,"ot":13630," to":1836,"tot":16301,"ot ":13631," tot":1845,"tot ":16302," h":893,"he":9433,"et":8671," he":911,"het":9474,"et ":8672," het":921,"het ":9475," g":819,"ge":9114,"es":8590,"sl":15485,"la":11093,"ac":5431,"ch":6922,"ht":9603," ge":831,"ges":9167,"esl":8633,"sla":15486,"lac":11103,"ach":5445,"cht":6983,"ht ":9604," ges":844,"esla":8634,"acht":5452,"cht ":6984,"ha":9374,"al":5693,"li":11328,"ic":9722,"cl":7092,"lo":11512,"na":12200,"a ":5353," ha":894,"hal":9391,"ali":5735,"lic":11343,"icl":9770,"clo":7099,"lon":11535,"ona":13335,"na ":12201," hal":901,"hali":9393,"alic":5738,"ona ":13336," e":669,"en":8280,"n ":12178," en":706,"en ":8281," en ":707," f":755,"fa":8874,"am":5802,"mi":11917,"il":10009,"ie":9819," fa":756,"fam":8889,"ami":5829,"mil":11947,"ili":10031,"lie":11354,"ie ":9820," fam":762,"fami":8890,"amil":5834,"mili":11949,"ilie":10035,"lie ":11355," c":474,"in":10108,"ni":12506,"id":9794,"da":7318,"ae":5545,"e.":7800,". ":4598," ch":498,"cha":6929,"lin":11386,"ini":10169,"nid":12527,"ida":9796,"dae":7333,"e. ":7801," cha":499,"chal":6932,"alin":5744,"lini":11392,"nida":12528,"idae":9799," w":1972,"we":17409,"te":15988,"sc":15254,"ap":5996,"pp":14081,"pe":13889,"el":8148,"ij":9976,"jk":10699,"ke":10828," we":1980,"wet":17438,"ete":8685,"ten":16037,"ens":8350,"nsc":12722,"sch":15263,"hap":9406,"app":6017,"ppe":14084,"pel":13902,"eli":8183,"lij":11372,"ijk":9984,"jke":10701,"ke ":10829," wet":1990,"wete":17439,"eten":8688,"tens":16047,"ensc":8353,"nsch":12723,"scha":15265,"chap":6935,"happ":9407,"appe":6019,"ppel":14086,"peli":13906,"elij":8188,"lijk":11373,"ijke":9986,"jke ":10702," n":1297,"aa":5379,"m ":11712," na":1299,"naa":12206,"aam":5386,"am ":5803," naa":1301,"naam":12207,"aam ":5387," v":1914,"va":17114,"an":5861," va":1916,"van":17137,"an ":5862," van":1918,"van ":17138,"so":15514," so":1718,"soo":15551," soo":1726,"soor":15552,"er":8432,"rd":14401,"d ":7302,"wer":17430,"erd":8461,"rd ":14402," wer":1988,"werd":17432,"erd ":8462,"vo":17276,"r ":14249," vo":1946,"voo":17297,"or ":13483," voo":1953,"voor":17298,"oor ":13439,"ee":7958,"rs":14931,"st":15646," ee":683,"eer":7975,"ers":8538,"rst":14955,"st ":15647," eer":685,"eers":7978,"erst":8548,"rst ":14956,"ld":11193,"di":7490,"ig":9924,"g ":9071,"gel":9134,"eld":8162,"ldi":11204,"dig":7515,"ig ":9925," gel":838,"geld":9137,"eldi":8165,"ldig":11207,"dig ":7516,"ep":8405,"pu":14162,"ub":16605,"bl":6636,"ce":6874,"gep":9157,"epu":8424,"pub":14164,"ubl":16613,"bli":6645,"ice":9740,"cee":6887," gep":842,"gepu":9158,"epub":8425,"publ":14166,"ubli":16614,"blic":6646,"lice":11346,"icee":9743,"ceer":6888,"eerd":7977," i":954," in":981,"in ":10109," in ":982," 1":87,"19":4838,"91":5225,"10":4753,"0 ":4640," 19":127,"191":4845,"10 ":4754," 191":131,"do":7597," do":621,"doo":7621," doo":630,"door":7622," k":1063,"ku":10994,"ud":16646,"n.":12194," ku":1119,"ude":16651,"del":7417,"in.":10113,"n. ":12195,"deli":7420,"elin":8191,"in. ":10114,"バス":29255,"って":29062,"てし":29075,"しま":29028,"い、":28972,"なっ":29120,"った":29057,"ける":29003,"るが":29192,"が、":28994,"こと":29004,"かし":28990,"しい":29018,"する":29029,"ると":29197,"して":29024,"ウン":29218,"した":29021,"」と":28960,"た。":29037,"ない":29114,"、こ":28927,"この":29007,"れて":29205,"てい":29067,"いた":28975,"。こ":28944,"は、":29161,"また":29166,"とい":29096,"いう":28974,"よう":29173,"うに":28981,"にな":29140,"たが":29043,"に「":29131,"と呼":29110,"いる":28978,"る。":29187,"。 ":28935,"てしま":29076,"なった":29121,"るが、":29193,"、この":28928,"れてい":29206,"ていた":29068,"た。こ":29040,"。この":28945,"という":29097,"ように":29174,"うにな":28982,"になっ":29141,"ったが":29060,"たが、":29044,"いる。":28979,"る。 ":29188,"れていた":29207,"た。この":29041,"ようにな":29175,"になった":29142,"ったが、":29061,"いる。 ":28980,"ts":16377,"su":15754,"ut":17014,"ti":16123,"ar":6039,"sut":15790,"uti":17025,"tin":16176,"ina":10115,"nal":12229,"ala":5701,"lar":11137,"ar ":6040,"tina":16178,"inal":10121,"alar":5706,"lar ":11138," (":19,"(i":4460,"i̇":10623,"ng":12464,"gi":9192,"iz":10533,"zc":17801,"e:":7802,": ":5340," (i":43,"ngi":12479,"gil":9206,"liz":11426,"e: ":7803,"iliz":10042,"uu":17046,"t'":15864,"'i":4395,"a)":5361,"):":4499,"'in":4399,"): ":4500,"ka":10776,"ad":5486,"a'":5356,"'d":4384," ka":1065,"kan":10796,"ana":5870,"nad":12214,"ada":5492,"a'd":5357,"'da":4385,"da ":7319," kan":1070,"kana":10798,"anad":5874,"nada":12216,"a'da":5358,"'da ":4386," a":220,"lb":11178,"ta":15875," al":274,"alb":5707,"lbe":11181,"ber":6571,"ert":8550,"rta":14969,"ta ":15876," alb":278,"albe":5709,"lber":11182,"bert":6579,"erta":8553,"rta ":14970,"bö":6764,"öl":18352,"lg":11316,"si":15386,"nd":12321," bö":465,"böl":6765,"lge":11318,"esi":8622,"sin":15423,"ind":10132,"nde":12335," böl":466,"esin":8627,"sind":15426,"inde":10135,"nde ":12336,"ca":6789,"ga":9079,"ry":15065,"y'":17593," ca":476,"cal":6808,"alg":5731,"lga":11317,"gar":9097,"ary":6150,"'de":4387," cal":480,"'de ":4388," y":2030,"ya":17603,"aş":6454,"şa":18751,"rl":14719,"r.":14259," ya":2032,"yaş":17622,"aşa":6455,"şar":18754,"arl":6103,"rla":14721,"ar.":6043,"r. ":14260," yaş":2040,"yaşa":17623,"aşar":6456,"arla":6105,"rlar":14724,"lar.":11140,"ar. ":6044,"ek":8125,"k ":10768," te":1807,"tek":16019,"ek ":8126," tek":1815,"tek ":16020,"ba":6483,"şı":18775,"ın":18645," ba":381,"baş":6526,"aşı":6462,"şın":18777,"ına":18647," baş":397,"aşın":6463,"ına ":18648,"gr":9283,"ru":15010,"up":16892,"p ":13828," gr":871,"gru":9302,"rup":15037,"up ":16893," gru":876,"grup":9305," o":1374,"ol":13200,"lu":11610,"uş":17096,"şt":18766,"tu":16421,"ur":16913," ol":1409,"olu":13258,"luş":11652,"uşt":17097,"ştu":18769,"tur":16446,"uru":16967,"rur":15041,"url":16952," olu":1414,"oluş":13262,"luşt":11653,"uştu":17098,"ştur":18770,"ve":17158," ve":1921,"ve ":17159," ve ":1922," p":1459,"pa":13834,"as":6162,"if":9907,"fi":8946,"ik":9991," pa":1462,"pas":13873,"asi":6179,"sif":15410,"ifi":9916,"fik":8962,"ik ":9992," pas":1473,"sifi":15411,"ifik":9919,"gü":9358,"ün":18417,"ne":12380,"ey":8805,"y ":17591," gü":889,"gün":9359,"üne":18422,"ney":12449,"ey ":8806," gün":890,"ney ":12450,"at":6218,"ab":5398,"sk":15458,"kl":10893,"rı":15152,"ı ":18610," at":341,"ata":6224,"tab":15883,"aba":5400,"bas":6512,"ask":6185,"skl":15469,"kla":10894,"arı":6156,"rı ":15153," ata":343,"taba":15884,"abas":5404,"bask":6515,"klar":10896,"ları":11146,"arı ":6157,"le":11217," il":971,"ile":10023,"le ":11218," ile":973,"ile ":10024,"nt":12758," an":298,"ant":5959,"nti":12789,"tik":16162," ant":309,"anti":5963,"tik ":16163,"ak":5662,"kı":11050,"nl":12603,"lı":11697,"ık":18623,"yak":17606,"akı":5689,"kın":11054,"ınl":18651,"nlı":12613,"lık":11699,"ıkl":18626," yak":2034,"ıkla":18627,"gö":9352,"ös":18368,"rm":14740,"iş":10610,"ir":10289," gö":886,"gös":9356,"öst":18369,"ste":15670,"ter":16053,"erm":8515,"rmi":14757,"miş":11983,"işt":10615,"şti":18767,"tir":16189,"ir.":10293," gös":888,"göst":9357,"öste":18370,"ster":15680,"term":16063,"ermi":8518,"mişt":11985,"işti":10616,"ştir":18768,"tir.":16191,"ir. ":10294,"シャ":29229,"ャー":29267,"リー":29278,"ー・":29313,"フィ":29258,"ィー":29215,"ール":29311,"ルド":29281,"ン・":29295,"ベル":29262,"ド・":29253,"ュー":29268,"セン":29241,"ター":29243,"ーテ":29305,"ティ":29247,"ィン":29214,"ある":28969,"。1":28936,"93":5237,"37":5025,"7年":5173,"年に":29415,"され":29009,"れた":29203,"ック":29244,"があ":28995,"あり":28967,"り、":29186,"リン":29277,"れる":29209,"5,":5077,",0":4509,"00":4657,"ンド":29294,"ーン":29312,"ンに":29287,"える":28983,"るこ":29194,"0,":4648,"まで":29168,"でき":29088,"きる":29000,"プロ":29261,"カー":29220,"ーク":29299,"クラ":29224,"とし":29099,"ット":29245,"およ":28986,"よび":29178,"行わ":29499,"われ":29211,"ーティ":29306,"ある。":28970,"。19":28937,"193":4854,"937":5246,"された":29011,"れた。":29204,"あり、":28968,"される":29015,"れる。":29210,",00":4510,"000":4663,"ること":29195,"10,":4755,"0,0":4650,"できる":29089,"として":29100,"してい":29025,"ている":29070,"および":28987,"行われ":29500,"る。こ":29189,"されて":29013,"1937":4861,"された。":29012,"される。":29016,",000":4511,"している":29027,"ている。":29071,"されてい":29014,"れている":29208,"ro":14792,"oc":13029,"cc":6861,"co":7107,"o ":12970,"bar":6506,"aro":6119,"roc":14806,"occ":13034,"cco":6869,"co ":7108," bar":390,"baro":6510,"(p":4469,"pt":14150,"t:":15873," (p":52,"t: ":15874,"câ":7280,"ân":18076," es":727,"esc":8604,"cân":7281,"ând":18077,"nda":12327,"dal":7343,"alo":5763,"lo ":11513," esc":729,"când":7282,"alo ":5764,"pá":14186,"ág":18027,") ":4494," pá":1544,"gin":9208,"a) ":5362,"gina":9209," é":2145,"é ":18158," é ":2146," u":1874,"um":16806," um":1886,"um ":16807," um ":1887,"lm":11487,"me":11841," fi":781,"fil":8964,"ilm":10051,"lme":11493,"me ":11842," fil":787,"film":8965,"ilme":10053,"fr":9020,"ra":14265,"nc":12279,"ês":18241," fr":803,"fra":9021,"ran":14321,"anc":5881,"ês ":18242," fra":804,"fran":9023,"ranc":14323,"ri":14587," di":601,"dir":7537,"iri":10313,"rig":14628,"igi":9937,"gid":9200,"ido":9814,"do ":7598," dir":611,"diri":7541,"irig":10314,"rigi":14631,"ido ":9815," po":1502,"por":14053," por":1516,"por ":14054,"dr":7651,"ré":15118,"and":5887,"ndr":12364,"ré ":15119," and":302,"andr":5895,"té":16518,"éc":18166,"hi":9482,"né":12909,"é,":18159,", ":4508," té":1868,"chi":6947,"hin":9508,"iné":10227,"é, ":18160,"chin":6953,"tr":16315,"re":14434,"ea":7806,"est":8656,"str":15713,"tre":16333,"rea":14441,"ead":7812,"ado":5518," est":733,"estr":8664,"stre":15715,"trea":16335,"read":14444,"ado ":5519,"em":8229," em":701,"em ":8230," em ":702,"97":5290,"76":5165,"6 ":5108,"197":4897,"976":5298,"76 ":5166," 197":137,"1976":4904," e ":670,"pr":14097,"ag":5569,"go":9256,"za":17768," pr":1524,"pro":14118,"rot":14870,"ota":13632,"tag":15901,"ago":5591,"gon":9266,"oni":13369,"niz":12584,"iza":10535,"zad":17775," pro":1528,"prot":14130,"rota":14871,"tago":15905,"agon":5593,"goni":9267,"niza":12585,"izad":10538,"zado":17777,"gé":9347,"ér":18209," gé":882,"éra":18210,"rar":14337,"ard":6069,"ard ":6070,"eu":8732,"u ":16571,"dep":7440,"epa":8407,"par":13863,"rdi":14418,"die":7506,"ieu":9897,"eu ":8733," dep":593,"depa":7441,"epar":8408,"ardi":6073,"is":10333,"sa":15193,"ll":11440," is":996,"isa":10340,"sab":15198,"abe":5408,"bel":6561,"ell":8197,"lle":11457,"abel":5409,"bell":6566,"elle":8201,"lle ":11458,"dj":7567,"ja":10632,"i.":9659," ad":242,"jan":10646,"ani":5914,"ni.":12510,"i. ":9660,"ni. ":12511,"ss":15608,"ci":6999,"ia":9663,"io":10230," as":335,"ass":6193,"sso":15634,"soc":15522,"oci":13045,"cia":7005,"iat":9699,"ati":6247,"tio":16184,"ion":10243,"on ":13326," ass":339,"asso":6198,"ssoc":15636,"soci":15523,"ocia":13046,"ciat":7011,"iati":9703,"atio":6252,"tion":16185,"ion ":10244," r":1565,"ec":7868,"rc":14387," re":1578,"rec":14449,"ech":7878,"che":6937,"her":9464,"erc":8456,"rch":14392,"he ":9434," rec":1580,"rech":14451,"eche":7881,"cher":6944,"erch":8459,"rche":14394,"che ":6938," et":734," et ":735,"au":6295,"uv":17048,"eg":8001," sa":1643,"sau":15241,"uve":17050,"veg":17170,"ega":8003,"rde":14411," sau":1654,"egar":8007,"gard":9100,"arde":6072,"rde ":14412," l":1133,"l'":11067,"'h":4394,"oi":13159," l'":1134,"l'h":11077,"his":9517,"ist":10385,"sto":15704,"toi":16263,"oir":13166,"ire":10305,"re ":14435," l'h":1137,"hist":9520,"isto":10390,"toir":16264,"oire":13168,"ire ":10306,"sy":15803,"y-":17600,"-e":4550,"n-":12193,"-f":4553," ro":1608,"roi":14825,"ois":13169,"iss":10378,"ssy":15642,"-en":4551,"en-":8286,"-fr":4554,"nce":12283,"ce ":6875," roi":1612,"rois":14827,"oiss":13171,"issy":10384,"-en-":4552,"-fra":4555,"ance":5883,"nce ":12284,"(a":4446,"a.":5371,".s":4634,"s.":15186,"h.":9372,"f.":8872,".)":4601,"),":4495," (a":30,"), ":4496,"90":5220,"190":4842,"900":5222,"00 ":4658," 190":130," /":81,"/ ":4637," / ":82," 2":140,"20":4948," 20":146,"200":4952,"00,":4659,"0, ":4649," 200":148,"2000":4954,"00, ":4660," m":1206,"mé":12141,"ém":18190,"mo":12014," mé":1284,"émo":18193,"moi":12030,"d'":7303,"'u":4416,"un":16830," d'":558,"d'u":7309,"'un":4417,"un ":16831," d'u":563,"d'un":7310,"'un ":4418,"iè":10565,"èc":18143,"e,":7794," si":1694,"siè":15451,"ièc":10566,"ècl":18144,"cle":7096,"le,":11220,"e, ":7795," siè":1705,"iècl":10567,"ècle":18145,"le, ":11221,"03":4712,"3 ":5000,"003":4669,"03 ":4713,"2003":4957,"003 ":4670,"(v":4477," (v":59,"voi":17283,"ir ":10290,"voir":17284,"oir ":13167," da":566,"dan":7351,"ans":5952," dan":574,"dans":7357,"ans ":5953," la":1142,"la ":11094," la ":1143,"bi":6593,"ib":9709,"og":13131,"ph":13940,"e)":7788," bi":417,"bib":6598,"ibl":9716,"lio":11395,"iog":10240,"ogr":13146,"gra":9284,"rap":14333,"aph":6007,"phi":13945,"hie":9491,"e) ":7789," bib":419,"bibl":6599,"ibli":9718,"blio":6649,"ogra":13147,"grap":9289,"raph":14334,"aphi":6008,"小说":29393,"阿米":29519,"米尔":29489,"国家":29373,"3年":5031,"之后":29335,"27":4986,"。他":28954,"苏联":29497,"，而":29998,"他的":29346,"生活":29477,"一些":29315,"，其":29991,"其中":29356,"的人":29483,"），":29982,"因此":29370,"的一":29482,"认为":29505,"表示":29502,"一部":29318,"部分":29514,"自己":29495,"，他":29988,"，但":29990,"是一":29454,"第二":29488,"”。":28918,"阿米尔":29520," 한":4321,"한국":29952,"에서":29786,"서 ":29727," 한국":4323,"에서 ":29787," 성":4180,"가 ":29526," 사":4169,"사용":29725,"기 ":29564," 사용":4171," 시":4192,"시작":29754,"한 ":29951," 정":4268,"는 ":29584," 알":4201," 수":4185,"수 ":29738," 수 ":4186," 없":4208,"으나":29811,"나,":29574,"나, ":29575," 등":4113,"등 ":29649," 등 ":4114," 중":4278,"국 ":29545," 문":4144,"이 ":29824,"되었":29627,"던 ":29613,"기에":29569,"에 ":29779," 그":4064,"와 ":29802," 함":4326,"함께":29958,"께 ":29572," 함께":4327,"함께 ":29959," 함께 ":4328," 도":4098,"을 ":29820," 것":4045,"으로":29813,"로 ":29671,"으로 ":29814," 추":4292,"된다":29631,"다.":29591,"된다.":29632,"다. ":29592,"된다. ":29633,"족 ":29893,"그 ":29551," 그 ":4065," 집":4284,"단을":29603,"단을 ":29604," 통":4304,"하는":29934,"하는 ":29935," 지":4280,"자 ":29870," 계":4052," 발":4153," 다":4083,"다른":29599,"른 ":29683," 다른":4084,"다른 ":29600," 다른 ":4085,"이나":29828,"나 ":29573,"이나 ":29829," 피":4314,"과 ":29543," 구":4058,"하기":29932,"하기 ":29933," 위":4226," 목":4141,"적 ":29879," 신":4193," 나":4077," 표":4312," 쓰":4195,"게 ":29538," 되":4101,"었다":29775," 되었":4102,"되었다":29628,"었다.":29776," 되었다":4103,"되었다.":29629,"었다. ":29777," р":3023,"ра":23851,"аз":20813,"зп":22086,"по":23750,"ол":23459,"ло":22747,"ож":23407,"же":21982,"ен":21805,"но":23138,"о ":23270," ра":3025,"раз":23870,"азп":20828,"зпо":22087,"пол":23766,"оло":23478,"лож":22757,"оже":23410,"жен":21985,"ено":21828,"но ":23139," раз":3028,"разп":23877,"зпол":22088,"поло":23770,"олож":23483,"ложе":22758,"ожен":23412,"ено ":21829," е":2721,"е ":21666," е ":2722," в":2603,"в ":21184," в ":2604," п":2977,"ли":22699,"ит":22330,"те":24492," по":2991,"оли":23470,"лит":22720,"ите":22335,"те ":24493," пол":3000,"поли":23768,"олит":23472,"лите":22721,"ите ":22336," н":2901,"на":22972,"а ":20728," на":2902,"на ":22973," на ":2903,"пл":23742,"ла":22643,"ан":20903,"ни":23064,"ин":22254,"ат":21010,"та":24429," пл":2988,"пла":23743,"лан":22654,"ани":20918,"нин":23093,"ина":22258,"нат":23005,"ата":21012,"та ":24430," пла":2989,"план":23744,"инат":22262,"ната":23006,"ата ":21013,"ана":20905,"ана ":20906," и":2778,"и ":22112," и ":2779,"из":22174,"зт":22095,"то":24582,"оч":23676,"чн":24983,"ия":22386,"я ":25209," из":2783,"изт":22193,"точ":24614,"очн":23684,"чни":24986,"ния":23109,"ия ":22387,"точн":24615,"ния ":23110," к":2809,"кр":22572,"ай":20836,"й ":22399," кр":2840,"кра":22573,"рай":23881,"ай ":20837," кра":2841,"край":22574," с":3053,"са":24176,"ам":20891,"мо":22918,"ок":23447,"ко":22517,"ов":23303,"вс":21369,"ск":24232,"от":23637," са":3057,"сам":24180,"амо":20901,"око":23452,"ков":22522,"овс":23345,"вск":21372,"ско":24249,"кот":22564,"ото":23653,"то ":24583," сам":3059,"само":24181,"ковс":22527,"овск":23346,"вско":21374,"скот":24256,"кото":22565,"ото ":23654,"ле":22666,"е.":21669,"оле":23463,"е. ":21670,"съ":24403,"ъщ":25085,"що":25050," съ":3113,"същ":24409,"що ":25051," същ":3116," т":3118,"ак":20845,"ка":22439," та":3119,"так":24442,"ака":20847,"ка ":22440," так":3121,"така":24444,"ака ":20848,"се":24197," се":3067,"се ":24198," се ":3068,"ми":22883,"ир":22293,"нам":22994,"ами":20897,"мир":22896,"ира":22294,"ра ":23852," нам":2910,"нами":22995,"мира":22897,"ира ":22295," б":2572,"бл":21112,"зо":22080,"ос":23603,"ст":24327,"т ":24423," бл":2584,"бли":21117,"лиз":22706,"изо":22190,"ост":23621,"ст ":24328," бли":2585,"близ":21118,"ост ":23622," д":2680,"до":21614," до":2704,"до ":21615," до ":2705,"ини":22267,"нит":23097,"ните":23098,"ви":21255,"ош":23686,"ша":25002,"а,":20731," ви":2614,"вит":21276,"ито":22343,"а, ":20732,"ри":23984,"ил":22225," ри":3038,"рил":24003,"ила":22227,"ла ":22644,"ила ":22228,"ве":21230,"ер":21858," ве":2609,"вер":21243,"ери":21880,"ла,":22645," вер":2612,"ла, ":22646," ка":2811,"кат":22463,"ато":21026," кат":2818,"като":22466,"ато ":21027,"ся":24418,"як":25233," вс":2640,"вся":21378,"яка":25235,"ед":21695,"дн":21601," ед":2727,"едн":21708,"дна":21602," едн":2729,"една":21709,"дна ":21603," о":2936," от":2969,"от ":23638," от ":2970,"тя":24679,"ях":25266,"х ":24852," тя":3151,"тях":24681,"ях ":25267," м":2860," мо":2887,"мож":22926,"же ":21983," мож":2890,"може":22927,"оже ":23411,"да":21508," да":2681,"да ":21509," да ":2682,"бъ":21169,"ъд":25057,"де":21542," бъ":2597,"ъде":25058,"де ":21543,"ид":22153,"дя":21660,"ян":25248,"вид":21259," вид":2616,"ис":22304,"со":24283,"ки":22482,"вис":21274,"исо":22312,"сок":24292,"оки":23451,"кит":22498," вис":2621,"висо":21275,"исок":22313,"ките":22499," ч":3213,"ча":24936,"ас":20986,"ти":24529," ча":3214,"час":24944,"аст":20999,"сти":24351,"ти ":24530," час":3215,"част":24946,"асти":21002,"сти ":24352,"ел":21764,"о.":23276,"сел":24207,"ело":21778,"лот":22768,"о. ":23277," сел":3071,"село":24209,"лото":22769,"dia":7494,"ian":9687,"nte":12777,"te ":15989," dia":603,"dian":7497,"iant":9693,"ante":5962,"nte ":12778,"des":7460,"tes":16075,"es ":8591," des":595,"dest":7469,"este":8659,"stes":15681,"tes ":16076,"os":13584,"s,":15181,"ger":9159,"ere":8466,"ren":14499,"enc":8299,"nci":12296,"iam":9684,"ame":5823,"men":11875,"ent":8360,"nto":12804,"tos":16298,"os,":13586,"s, ":15182," ger":843,"gere":9162,"eren":8475,"renc":14504,"enci":8301,"ncia":12298,"iame":9686,"amen":5826,"ment":11884,"ento":8368,"ntos":12809,"tos,":16300,"os, ":13587,"od":13064,"pod":14020,"ode":13073,"den":7428,"end":8303,"ndo":12357," pod":1507,"pode":14022,"oden":13076,"dend":7434,"endo":8308,"ndo ":12358,"se":15295," se":1669,"ser":15345,"er ":8433," ser":1682,"ser ":15346,"fe":8904,"ei":8053,"it":10398," fe":771,"fei":8914,"eit":8098,"ito":10440,"os ":13585," fei":775,"feit":8915,"eito":8101,"itos":10444,"tos ":16299," pe":1478,"ela":8154," pel":1481,"pela":13904,"ela ":8155,"ró":15135,"óp":18324,"pró":14145,"pri":14111,"ria":14593,"ia ":9664," pró":1533,"ria ":14594,"mp":12064,"emp":8269,"mpr":12088,"pre":14102,"res":14524,"esa":8599,"sa ":15194," emp":705,"empr":8274,"mpre":12089,"pres":14107,"resa":14528,"esa ":8600,"(m":4465,"ma":11724,"ai":5615," (m":48,"(ma":4466,"mai":11747,"ais":5638,"is ":10334," (ma":49,"mais":11751,"ais ":5639,"om":13271,"mu":12103," co":519,"com":7124,"omu":13317," com":525,"comu":7133,"éd":18172,"méd":12142,"édi":18173," méd":1285,"médi":12143,"dia ":7495," gra":872,"gran":9288,"rand":14324,"ande":5892,"ndes":12343,"des ":7461,"s)":15175,"sas":15236,"s) ":15176,"ou":13667," ou":1449,"ou ":13668," ou ":1450,"até":6287,"té ":16519," até":350,"até ":6288,"sm":15498," me":1227,"mes":11893,"esm":8635,"smo":15506,"mo ":12015," mes":1237,"mesm":11897,"esmo":8636,"smo ":15507,"as ":6163,"sas ":15237,"rce":14390,"cei":6890,"eir":8090,"ira":10295,"ras":14342," ter":1820,"terc":16058,"erce":8458,"eira":8092,"ras ":14343,"esp":8641,"spe":15577,"pec":13892,"eci":7886,"ial":9679,"das":7363," esp":731,"espe":8643,"spec":15578,"peci":13893,"ecia":7888,"cial":7008,"iali":9682,"aliz":5747,"liza":11427,"zada":17776,"adas":5498,"das ":7364," mo":1257,"mon":12039,"nit":12574,"tor":16288,"ora":13488,"ram":14314,"to ":16246," mon":1263,"moni":12042,"nito":12578,"itor":10443,"tora":16290,"oram":13493,"rame":14317,"nto ":12805,"ed":7919,"red":14457,"ede":7929," red":1581,"rede":14459,"(n":4467,"no":12647,"c)":6783," (n":50,"noc":12654,"tá":16504,"áv":18066,"l ":11066," no":1342,"not":12684,"áve":18068,"vel":17172,"el ":8149," not":1352,"vel ":17173," o ":1375,"nh":12497," ga":820,"gan":9093,"anh":5912,"nho":12504,"ho ":9547," gan":824,"nho ":12505," ag":260,"agi":5582,"lid":11351,"dad":7329,"ade":5501,"ilid":10034,"lida":11352,"idad":9798,"dade":7331,"ade ":5502,"ef":7983,"ên":18238," ef":686,"efi":7991,"fic":8949,"ici":9755,"ênc":18239,"fici":8952,"ênci":18240,"cia ":7006,"rol":14833,"ol ":13201,"rol ":14834,"dos":7630," dos":633,"dos ":7631,"ob":13000,"bj":6633,"je":10661,"iv":10493," ob":1377,"obj":13011,"bje":6634,"jet":10685,"eti":8692,"tiv":16206,"ivo":10514,"vos":17302," obj":1381,"obje":13012,"tivo":16211,"ivos":10516,"vos ":17303," da ":567,"sa.":15197,"a. ":5372,"r,":14254,"bes":6580,"ese":8613,"sem":15328,"eme":8247,"mer":11885,"er,":8436,"r, ":14255," bes":412,"esem":8617,"seme":15331,"er, ":8437,".,":4605," s.":1642,"., ":4606,"der":7445," der":594,"der ":7446,"t,":15867,"gee":9127,"ees":7979,"st,":15648,"t, ":15868," gee":834,"eest":7980,"st, ":15649,"v.":17112,"rr":14912,"ay":6372,"y,":17598," mu":1270,"mur":12119,"urr":16962,"rra":14913,"ray":14363,"ay,":6374,"y, ":17599," mur":1276,"ay, ":6375," j":1016,"j.":10630," j.":1017,"jl":10703,"ev":8757,"d,":7313,"bij":6607,"lev":11299,"eve":8763,"ld,":11195,"d, ":7314," bij":421,"leve":11301,"evel":8765,"ld, ":11196,"c.":6787,"c. ":6788,"j. ":10631," j. ":1018,"h. ":9373,"nd ":12322,"and ":5888,"gt":9312,"n,":12191,"far":8893,"arr":6126,"rri":14923,"rin":14653,"ing":10154,"ngt":12493,"gto":9316,"ton":16276,"on,":13330,"n, ":12192," far":764,"arri":6129,"ring":14659,"ingt":10164,"ngto":12494,"gton":9317,"ton,":16278,"on, ":13331,"d.":7316," d.":564,"d. ":7317," d. ":565,"p.":13832," p.":1460,"p. ":13833," p. ":1461,"(2":4438,"01":4686,"11":4764,"1)":4744," (2":25,"(20":4439,"201":4964,"011":4693,"1) ":4745," (20":26,"2011":4966,"th":16094," th":1823,"the":16099," the":1825,"the ":16100,"sh":15375,"ip":10267,"rel":14487,"lat":11152,"nsh":12733,"shi":15381,"hip":9514,"ip ":10268," rel":1586,"rela":14488,"elat":8159,"lati":11156,"ions":10251,"onsh":13400,"nshi":12734,"ship":15383,"hip ":9515,"tw":16469,"bet":6584,"etw":8723,"twe":16472,"wee":17413,"een":7971," bet":413,"betw":6586,"etwe":8724,"twee":16473,"ween":17416,"een ":7972,"are":6077,"nta":12765,"tal":15919,"al ":5694," par":1472,"pare":13867,"aren":6084,"rent":14511,"enta":8364,"ntal":12771,"tal ":15920,"im":10067,"nm":12614," im":976,"imp":10098,"ris":14675,"iso":10372,"son":15539,"nme":12616,"nt ":12759," imp":980,"impr":10103,"pris":14116,"riso":14680,"ison":10374,"nmen":12617,"ent ":8361,"of":13121,"ff":8934,"fs":9037," of":1399,"off":13125,"spr":15592,"ng ":12465," off":1401,"spri":15595,"prin":14114,"ing ":10155,"ffe":8936,"fen":8918,"ndi":12345,"din":7526,"offe":13126,"ffen":8938,"fend":8920,"endi":8307,"ndin":12352,"ding":7530,"gl":9228,"eng":8318,"ngl":12481,"gla":9229,"lan":11125," eng":712,"engl":8321,"ngla":12482,"land":11129,"ds":7668," ne":1315,"net":12438,"eth":8690,"erl":8511,"nds":12369,"ds.":7672,"s. ":15187," net":1330,"ethe":8691,"ther":16106,"erla":8512,"rlan":14723,"ands":5896,"ds. ":7673,"br":6686,"h ":9367," br":445,"bri":6697,"rit":14682,"iti":10428,"tis":16196,"ish":10355,"sh ":15376," bri":448,"brit":6703,"riti":14686,"itis":10435,"ish ":10356,"jo":10713,"rn":14767," jo":1045,"jou":10725,"our":13692,"urn":16955,"rna":14769," jou":1051,"jour":10727,"ourn":13694,"urna":16956,"rnal":14772,"nal ":12230,"f ":8869,"of ":13122," of ":1400,"cr":7175,"gy":9345," cr":532,"cri":7184,"rim":14648,"imi":10086,"min":11953,"ino":10191,"nol":12661,"olo":13245,"log":11527,"ogy":13149," cri":535,"crim":7186,"rimi":14651,"imin":10089,"mino":11961,"inol":10193,"nolo":12662,"olog":13247,"logy":11530," 5":189,"51":5087,"1,":4746,"1, ":4747," 4":184,"41":5049,"13":4781,"3-":5006,"-4":4533,"43":5053,"7.":5150,"7. ":5151," म":3875,"मह":27825,"हा":28272,"ार":28412,"रा":27969,"ाष":28444,"ष्":28168,"्ट":28760,"ट्":27448,"्र":28825,"र,":27911," मह":3880,"महा":27828,"हार":28278,"ारा":28420,"राष":27979,"ाष्":28446,"ष्ट":28171,"्ट्":28767,"ट्र":27449,"र, ":27912," महा":3882,"राष्":27980,"ाष्ट":28447,"ष्ट्":28173,"्ट्र":28768," १":4016,"ई ":27196,"१९":28893,"० ":28891," १९":4017," क":3660,"को":27299,"ो ":28709," को":3693,"को ":27300," को ":3694," भ":3866,"भा":27793,"रत":27927,"त ":27478," भा":3867,"भार":27796,"ारत":28417,"रत ":27928," भार":3869,"भारत":27797,"ारत ":28418,"का":27269,"ा ":28333," का":3675,"का ":27270," का ":3676," र":3909,"ाज":28360,"ज्":27423,"्य":28813,"य ":27863," रा":3915,"राज":27972,"ाज्":28361,"ज्य":27426,"्य ":28814," राज":3916,"राज्":27973,"ाज्य":28362,"ज्य ":27427," ब":3845,"बन":27764,"ना":27645,"ाय":28407,"या":27883," बन":3851,"बना":27765,"नाय":27652,"ाया":28409,"या ":27884," बना":3852,"ाया ":28410," ग":3703,"गय":27336," गय":3708,"गया":27337," गया":3709,"गया ":27338," थ":3770,"था":27540,"ा।":28457,"। ":28890," था":3771,"था।":27547,"ा। ":28458," था।":3773,"था। ":27548," इ":3621,"इस":27190,"स ":28174," इस":3625,"इस ":27191," इस ":3626," द":3778,"दि":27577,"िन":28493,"न ":27624," दि":3784,"दिन":27579,"िन ":28494," दिन":3785," ह":3997,"हम":28266,"म ":27809," हम":3998,"र ":27910,"्र ":28826,"के":27294,"े ":28634," के":3688,"के ":27295," के ":3689,"भी":27804,"ी ":28546," भी":3871,"भी ":27805," भी ":3872," न":3800,"ाम":28401," ना":3803,"नाम":27650,"ाम ":28402," नाम":3804,"नाम ":27651," स":3964,"से":28243," से":3991,"से ":28244," से ":3992," ज":3725,"जा":27399,"ान":28383,"नत":27634,"ते":27513," जा":3735,"जान":27406,"ते ":27514," जान":3738,"है":28299,"ै।":28701," है":4007,"है।":28307,"ै। ":28702," है।":4011,"है। ":28308," श":3955,"शु":28144,"ुर":28605,"रू":27997,"ू ":28616," शु":3960,"शुर":28145,"ुरू":28608," शुर":3961,"मे":27852,"ें":28637,"ं ":27087," मे":3891,"में":27853,"ें ":28638," में":3892,"में ":27854," २":4018,"जि":27408,"िल":28517,"ले":28055," जि":3739,"िले":28521,"ले ":28056,"थे":27556,"े।":28679," थे":3776,"थे।":27557,"े। ":28680," थे।":3777,"थे। ":27558," उ":3631,"उस":27215,"सक":28187," उस":3642,"उसक":27217,"सके":28195," उसक":3644,"उसके":27218,"सके ":28196,"बा":27775,"ाद":28380,"द ":27561," बा":3855,"बाद":27776,"ाद ":28381," बाद":3856,"बाद ":27777,"ये":27902,"ये ":27903,"ाए":28351,"ँ ":27086," व":3934,"वर":28079,"र्":28009,"्त":28773,"तम":27489,"मा":27829," वर":3936,"वर्":28081,"र्त":28017,"मान":27834,"ान ":28384," वर्":3937,"वर्त":28082,"मान ":27835,"इन":27188," इन":3623,"इन ":27189," इन ":3624,"लो":28061,"ों":28710,"लों":28062,"ों ":28711,"लों ":28063," छ":3722,"ह ":28260," प":3814,"प्":27733,"शा":28136,"ास":28448,"सन":28199,"नि":27653,"िक":28465,"क ":27233," प्":3837,"प्र":27736,"शास":28139,"निक":27654,"िक ":28466," प्र":3838,"निक ":27655,"वि":28104,"िभ":28498,"ाग":28357,"गो":27349," वि":3944,"विभ":28112,"िभा":28499,"भाग":27794,"गों":27350," विभ":3948,"गों ":27351,"ित":28479,"ित ":28480,"कि":27277,"िय":28503," कि":3679,"किय":27281,"िया":28505," किय":3681,"किया":27282,"िया ":28506,"av":6332,"vi":17221,"nav":12264,"avi":6343,"vid":17228,"ad ":5487," nav":1313,"navi":12265,"avid":6345,"vida":17230,"dad ":7330,"74":5161,"4,":5039,"974":5296,"4, ":5040,"1974":4902,"poc":14015,"oco":13052," poc":1506,"oco ":13053,"ué":17083,"és":18219,"spu":15596,"pué":14182,"ués":17084,"és ":18220,"desp":7467,"espu":8647,"spué":15598,"pués":14183,"ués ":17085," q":1559,"qu":14225,"ue":16670," qu":1560,"que":14234,"ue ":16671," que":1563,"que ":14235,"rp":14900,"tó":16530,"ó ":18311,"int":10206,"erp":8531,"rpr":14906,"ret":14537,"tó ":16531," int":991,"inte":10210,"nter":12786,"terp":16066,"erpr":8532,"rpre":14907,"pret":14108,"ió":10579,"ón":18319,"can":6819,"ció":7060,"ión":10581,"ón ":18320," can":482,"canc":6822,"anci":5885,"ción":7061,"ión ":10582,"cé":7285,"lí":11682,"íc":18257,"cu":7220,"ul":16772,"líc":11684,"cul":7232,"ula":16776,"cula":7234,"ula ":16777,"pi":13950,"pap":13861,"api":6009,"pil":13964,"ill":10045,"llo":11478," pap":1471,"illo":10050,"lon ":11536,"(t":4475,"i ":9646," (t":57,"oi ":13160,"ui":16723,"qui":14241,"ui ":16724," qui":1564,"qui ":14242,"reg":14467," reg":1583,"rega":14468,"r)":14252,").":4497,"er)":8434,"). ":4498," mer":1236," el":695,"lla":11450," ell":700,"ella":8200,"lla ":11451,"rá":15101,"á ":18017,"tar":15945,"ará":6153,"rá ":15102,"cant":6826,"anta":5961,"ntar":12774,"pl":13987,"lé":11677,"én":18196,"spl":15586,"did":7503,"ndid":12349,"dida":7504,"ida ":9797,"ver":17192,"rsi":14944,"sió":15452," ver":1927,"vers":17207,"ersi":8545,"sión":15453," gl":858,"glo":9243,"lor":11545,"ori":13523," glo":862,"lori":11549,"oria":13525,"uy":17065,"ale":5719,"lel":11259,"elu":8221,"uya":17066,"ya ":17604," ale":281,"alel":5723,"ara":6045,"ra ":14266,"para":13865,"ara ":6046," un":1890,"una":16833," una":1893,"una ":16834," mi":1241,"mis":11966," mis":1250,"isa ":10341,"med":11851,"edi":7933,"ano":5945,"och":13039," med":1229,"medi":11854,"edia":7934,"iano":9692,"noch":12655,"oche":13041,"eb":7846," ce":490,"cel":6892,"ele":8166,"leb":11229,"ebr":7862,"bra":6687,"rad":14285," cel":493,"cele":6895,"eleb":8169,"lebr":11231,"ebra":7863,"rada":14287,"ada ":5493,"tl":16218,"l.":11091,"rtl":14995,"l. ":11092,"ма":22835,"ар":20959," ма":2863,"мар":22848,"ара":20961,"рат":23900," мар":2868,"(н":4484," (н":65,"(на":4485," (на":66,"(на ":4486,"ал":20863,"иа":22121,"нс":23180,"и:":22118," ит":2802,"ита":22332,"тал":24448,"али":20873,"иан":22125,"анс":20937,"нск":23183,"ски":24238,"ки:":22488,"и: ":22119," ита":2803,"итал":22333,"тали":24451,"анск":20938,"нски":23185,"ски:":24240,"ки: ":22489,"a,":5367," ma":1210,"mar":11783,"rat":14347,"ate":6231,"tea":15995,"ea,":7808,"a, ":5368," mar":1222,"mara":11785,"arat":6058,"rate":14350,"atea":6235,"ea, ":7809,"ме":22862,"ес":21905,"н ":22967," ме":2871,"мес":22877,"ест":21918,"сте":24346,"тен":24512,"ен ":21806," мес":2876,"мест":22878,"есте":21921,"стен":24348,"тен ":24513,"ди":21574,"ек":21750,"кт":22592," ди":2700,"иал":22122,"але":20868,"лек":22680,"ект":21760,"кт ":22593,"алек":20871,"лект":22682,"ath":6244,"thi":16110,"hia":9484,"ia,":9666,"ia, ":9667,"я)":25210,"ати":21019,"тия":24559,"рати":23903," г":2658,"гр":21484,"ад":20785,"д ":21503," гр":2674,"гра":21485,"рад":23866,"ад ":20786," гра":2675,"град":21487,"об":23279,"бщ":21165,"щи":25044," об":2938,"общ":23297,"бщи":21167,"щин":25045," общ":2944,"общи":23299,"бщин":21168,"щина":25046,"ина ":22259," ю":3243,"юж":25189,"жн":22000,"жна":22001,"я,":25211,"лия":22730,"ия,":22388,"я, ":25212,"ия, ":22389,"пр":23788,"ро":24050,"нц":23217,"ци":24899," пр":3008,"про":23810,"ров":24056,"ови":23322,"вин":21270,"инц":22279,"нци":23219,"ция":24910," про":3012,"пров":23813,"рови":24060,"овин":23325,"инци":22280,"нция":23220,"ция ":24911,"ца":24885,"пот":23784,"оте":23645,"енц":21839," пот":3006,"ре":23937,"ег":21688,"ги":21446,"ио":22285,"он":23517," ре":3032,"рег":23945,"еги":21690,"гио":21449,"ион":22287,"он ":23518," рег":3034,"реги":23946,"егио":21691,"гион":21450,"ба":21087,"зи":22058,"ик":22208,"а.":20734," ба":2573,"баз":21091,"ази":20821,"или":22231,"лик":22710,"ика":22210,"та.":24433,"а. ":20735," баз":2575,"лика":22711,"ката":22464,"ата.":21015,"та. ":24434," 3":168,"30":5009," 30":172,"300":5011," 300":174,"300 ":5012," m ":1207,"дм":21599,"ор":23562,"рс":24109,"над":22982,"адм":20795,"мор":22934,"орс":23593,"рск":24111,"ска":24233," над":2906,"орск":23594,"рска":24112,"ска ":24234,"чи":24966,"очи":23682,"чин":24970,"на.":22976,"очин":23683,"чина":24971,"ина.":22260,"на. ":22977,"ие":22159,"ет":21926,"нас":23002,"асе":20989,"еле":21768,"лен":22686,"ени":21813,"ние":23072,"иет":22169,"ето":21936," нас":2913,"насе":23003,"асел":20990,"селе":24208,"елен":21770,"лени":22689,"ение":21815,"ниет":23076,"ието":22170,"ето ":21937,"5 ":5071," 5 ":190,"14":4789,"1 ":4742," 14":102,"41 ":5050,"ду":21649,"уш":24808,"ши":25009," ду":2716,"ши ":25010,"(к":4482,"къ":22624,"ъм":25069,"м ":22828," (к":63,"към":22625,"ъм ":25070,"към ":22626,"12":4772,"2 ":4940,"012":4695,"12 ":4773," 201":149,"2012":4967,"012 ":4696,"г.":21425," г.":2659,".).":4603,".). ":4604,"rg":14563,"hir":9516,"iru":10332,"urg":16940,"rgi":14574,"gie":9201," chi":501,"chir":6955,"urgi":16943,"gie ":9202,"omp":13307,"ena":8289,"nan":12239,"comp":7132,"ompr":13313,"pren":14106,"rena":14503,"enan":8292,"nant":12244,"ant ":5960,"inc":10127,"cip":7043,"ipa":10269,"pal":13850,"lem":11260," pri":1527,"rinc":14656,"inci":10129,"ncip":12303,"cipa":7044,"ipal":10270,"pale":13853,"alem":5724,"leme":11263,"emen":8252,"'a":4373,"l'a":11068,"abl":5417,"bla":6637," l'a":1135," tu":1855,"tum":16442,"ume":16818,"meu":11906,"eur":8742,"ur,":16915,"ur, ":16916,"ép":18202,"hr":9580,"ct":7196," né":1367,"hre":9585,"ect":7906,"cto":7209,"tom":16270,"omi":13289,"mie":11935,"rect":14455,"ecto":7911,"tomi":16274,"omie":13292,"mie ":11936,"él":18187," él":2148,"arg":6086,"larg":11144,"(c":4449," (c":33,"(co":4451," (co":35," le":1153," le ":1154,"us":16972," pl":1498,"plu":14004,"lus":11644,"us ":16973," plu":1501,"plus":14005,"lus ":11645,"sou":15560,"ouv":13704,"ven":17182," sou":1729,"ouve":13705,"uven":17053,"vent":17190," su":1752,"sur":15785,"éna":18198," sur":1766,"nale":12232,"ale ":5720,"les":11284," les":1162,"les ":11285,"ang":5905,"gli":9236,"gang":9095,"angl":5910,"ngli":12484,"glio":9241,"lion":11397,"sit":15437,"itu":10455," sit":1704,"situ":15441," à":2128,"à ":18016," à ":2129,"ox":13776,"xi":17566,"rox":14892,"oxi":13777,"xim":17569,"mit":11973,"ité":10473,"imit":10090,"ès":18156,"ès ":18157,"nn":12621,"ée":18174,"ann":5936,"nné":12645,"née":12911,"ées":18176," ann":306,"anné":5944,"nnée":12646,"nées":12912,"ées ":18177,"92":5230,"192":4849,"920":5232," 192":132,"1920":4850,"mm":11995,"omm":13296,"mmu":12006,"mun":12114,"une":16850,"nes":12430,"comm":7130,"ommu":13301,"mmun":12007,"mune":12117,"unes":16854,"nes ":12431,"isi":10358,"ine":10140," voi":1949,"isin":10361,"sine":15427,"ines":10149,"d'a":7304,"'ar":4378,"arn":6115,"rno":14785,"nou":12688,"vil":17240," d'a":559,"d'ar":7305,"nouv":12690,"vill":17242,"ille":10048,"lle,":11459,"nv":12856," go":863,"gou":9277,"ous":13696,"uss":16999,"ssa":15612,"sai":15209,"ain":5624,"inv":10216,"nvi":12862," gou":869,"sain":15210,"ne ":12381," une":1895,"une ":16851,"oin":13164,"dre":7655,"indr":10138,"ndre":12366,"dre ":7656,"esu":8667,"ure":16934,"sure":15787,"ure ":16935,"vr":17309," lo":1183,"lou":11558,"uvr":17056,"vre":17311,"es,":8594," lou":1192,"uvre":17057,"res,":14526,"es, ":8595,"rv":15046,"ess":8650,"sse":15617,"erv":8563,"rvi":15052,"vie":17232,"ies":9885,"dess":7468,"esse":8653,"sser":15622,"serv":15351,"ervi":8566,"ies ":9886,"par ":13864,"gn":9248," li":1166,"lig":11366,"ign":9943,"gne":9251," lig":1172,"igne":9946,"gne ":9252,"ov":13715,"fer":8922,"err":8533,"rro":14928,"rov":14883,"ovi":13727,"via":17223,"iai":9677,"air":5635," fer":779,"ferr":8928,"erro":8537,"rovi":14886,"aire":5637,"s-":15183,"-l":4562,"ari":6089,"-li":4565,"lil":11380,"pari":13868,"aris":6096,"nu":12828,"con":7134,"onn":13380,"nnu":12642,"nur":12851," con":526,"conn":7141,"uren":16937,"ex":8788,"xp":17575," ex":746,"exp":8797,"pan":13857,"nsi":12735,"sio":15430," exp":751,"nsio":12739,"sion":15431,"dé":7740,"iq":10286," dé":658,"dém":7742,"mog":12028,"iqu":10287,"ique":10288,"cta":7198,"tac":15887,"acu":5477,"lai":11117," spe":1734,"pect":13894,"ecta":7908,"acul":5478,"lair":11119,"c ":6781," av":360,"ave":6338,"vec":17164,"ec ":7869," ave":362,"avec":6340,"vec ":17165,"éa":18163,"cré":7193,"réa":15120," cré":538,"mb":11815,"ux":17063,"x ":17552,"nom":12663,"omb":13278,"mbr":11830,"bre":6693,"reu":14545,"eux":8755,"ux ":17064," nom":1347,"nomb":12665,"ombr":13281,"mbre":11831,"eux ":8756,"lot":11557,"oti":13646,"nts":12818,"ts ":16378," lot":1191,"tiss":16198,"isse":10380,"ssem":15620,"ents":8370,"nts ":12819,"ban":6501,"anl":5930,"nli":12609,"eue":8734,"ue.":16674," ban":389,"ue. ":16675,"dem":7422,"rée":15123,"ée ":18175," dem":591,"deme":7425,"'é":4421,"l'é":11084,"éca":18167,"car":6832,"art":6138," l'é":1141,"cart":6841,"art ":6139,"du":7680," du":645,"du ":7681," du ":646,"hem":9456,"emi":8253," che":500,"chem":6942,"emin":8258,"min ":11954,"fer ":8923,"l'i":11078,"ndu":12372,"dus":7706,"ust":17004,"tri":16343,"lis":11405,"sat":15238," l'i":1138,"l'in":11079,"indu":10139,"ndus":12374,"dust":7707,"ustr":17010,"stri":15716,"tria":16345,"rial":14597,"alis":5745,"lisa":11407,"isat":10343,"sati":15240,"sta":15653,"tai":15907,"ait":5643,"it ":10399," res":1591,"rest":14535,"esta":8658,"tait":15910,"ait ":5644," un ":1891," vi":1931,"lag":11113,"age":5574,"ge ":9115," vil":1936,"illa":10047,"llag":11452,"lage":11114,"age ":5575,"agr":5595,"gri":9297,"ric":14602,"ico":9771,"col":7118,"ole":13217," agr":264,"rico":14609,"icol":9775,"cole":7120,"ole ":13218,"s'":15173," s'":1639,"ppa":14082,"pau":13881,"vri":17313,"appa":6018,"rit ":14683,"t.":15871,"rog":14821,"gre":9292,"ssi":15624,"siv":15445,"ive":10501,"vem":17179,"nt.":12763,"t. ":15872,"prog":14124,"rogr":14823,"gres":9296,"ress":14534,"essi":8654,"ssiv":15633,"sive":15447,"veme":17181,"ent.":8363,"nt. ":12764,"bre ":6694,"mme":11999,"ces":6914,"omme":13298,"mmer":12002,"merc":11888,"ces ":6915,"pass":13875,"assa":6195,"ssa ":15613,"ua":16583,"e-":7796,"-v":4584,"t-":15869,"qua":14228,"uat":16603,"atr":6266,"re-":14438,"vin":17244," qua":1562,"quat":14233,"uatr":16604,"atre":6268,"ving":17248,"tre ":16334,"18":4826,"89":5206,"96":5275," 18":115,"189":4837,"96 ":5276," 189":126,"seu":15358,"eul":8738,"ule":16783," seu":1685,"ix":10520,"x-":17555,"-h":4558,"hu":9615,"hui":9618,"uit":16748,"uit ":16749,"64":5128,"4.":5043,"196":4886,"964":5282,"4. ":5044," 196":136,"1964":4891,"mê":12148,"êm":18235," mê":1286,"mêm":12149,"ême":18236," mêm":1287,"même":12150,"ême ":18237,"hé":9640," ph":1487,"se ":15296," se ":1670,"rod":14810,"odu":13097,"dui":7693,"uis":16745,"prod":14122,"rodu":14814,"isit":10363," au":351,"aut":6326,"utr":17033," aut":358,"autr":6329,"utre":17035,"tres":16341,"res ":14525,"ages":5579,"ges ":9168,"ys":17716,"pay":13883,"ays":6391,"ys ":17717," pay":1476,"ays ":6392,"non":12669," non":1348,"non ":12670,"vis":17253,"oie":13163," 세":4181,"의 ":29821," 생":4176," 모":4140," 번":4157," 본":4160," 간":4035,"도 ":29620,"것이":29536,"이다":29832," 것이":4048,"이다.":29833,"이다. ":29834," 호":4335," 대":4093,"대한":29611," 대한":4094,"대한 ":29612," 대한 ":4095," 분":4163," 여":4212," 이":4235,"이어":29842,"어 ":29768," 아":4196," 유":4229," 연":4214,"면서":29705,"면서 ":29706,"이후":29851,"에도":29784," 이후":4239,"에도 ":29785," 기":4075,"러 ":29665," 미":4146,"용하":29804,"하여":29941,"여 ":29791,"하여 ":29942," 오":4218,"려 ":29668,"다 ":29590," 더":4096," 작":4260,"고 ":29540," 단":4088,"리아":29689," 바":4148,"스가":29740,"스가 ":29741,"되는":29623,"되는 ":29624,"것이 ":29537," 많":4133,"그러":29556,"러나":29666," 그러":4069,"그러나":29557,"러나 ":29667," 그러나":4070,"그러나 ":29558,"은 ":29819," 원":4225,"이며":29841,"며 ":29699," 우":4223," 같":4038,"같은":29532," 같은":4039,"같은 ":29533," 같은 ":4040," 진":4283,"아니":29758," 가":4031,"가장":29527,"장 ":29877," 가장":4032,"가장 ":29528," 가장 ":4033,"운 ":29806," 예":4217," 자":4257,"주 ":29896,"진 ":29910,"my":12128,"yc":17628,"sac":15199,"acc":5435,"cch":6865,"har":9408,"rom":14840,"omy":13319," sac":1646,"char":6936,"cer":6907,"rev":14546,"evi":8768,"sia":15390," cer":495,"cere":6911,"revi":14548,"evis":8772,"visi":17254,"zo":17907," sc":1659,"izo":10550,"zos":17920,"osa":13590," sch":1662,"schi":15267,"pom":14041,"mbe":11820," pom":1513,"uf":16697,"l'u":11082,"uff":16700,"ffi":8940,"cio":7039,"io ":10231," l'u":1140,"ffic":8941,"icio":9761,"cio ":7040,"tt":16391,"az":6397,"zi":17857,"oge":13134,"get":9172,"ett":8717,"tta":16393,"taz":15973,"azi":6405,"zio":17879,"one":13352,"ne,":12383,"roge":14822,"oget":13136,"gett":9173,"etta":8718,"tazi":15974,"azio":6406,"zion":17880,"ione":10248,"one,":13354,"ne, ":12384,"emb":8242," sem":1679,"semb":15330,"embr":8246,"bra ":6688," or":1432,"orm":13540,"rma":14742,"ai ":5616,"orma":13542,"mai ":11748,"o,":12975,"rto":14997,"to,":16247,"o, ":12976,"cert":6913,"erto":8556,"to, ":16248,"si ":15387," si ":1695,"sf":15368,"rà":15099," tr":1848,"tra":16317,"asf":6177,"sfe":15369,"eri":8490,"rir":14674,"rà ":15100," tra":1849,"tras":16329,"sfer":15370,"feri":8925,"erir":8503," a ":221,"oa":12985,"oal":12989,"ale,":5721,"ntr":12810," men":1235,"entr":8369,"ntre":12813,"all":5749," all":284,"alla":5752,"fin":8967," fin":788,"fine":8971,"ine ":10141,"nno":12637,"no ":12648,"anno":5941,"nno ":12638,"ono":13383,"part":13872,"arto":6144,"tono":16282,"ono ":13384," i ":955,"lav":11161,"avo":6351,"vor":17299,"ri ":14588," lav":1151,"lavo":11163,"avor":6353,"ori ":13524,"di ":7491," di ":602," ri":1597,"tru":16362,"rut":15044,"utt":17039,"ttu":16417,"ura":16920,"raz":14364," ris":1605,"rist":14681,"istr":10391,"stru":15718,"ttur":16418,"tura":16448,"razi":14366,"one ":13353,"deg":7410,"egl":8022,"li ":11329," deg":588,"degl":7411,"egli":8024,"gli ":9237," st":1741,"abi":5414,"bil":6609,"lim":11381,"ime":10080,"ti ":16124," sta":1743,"stab":15657,"tabi":15885,"abil":5415,"bili":6613,"lime":11383,"imen":10083,"enti":8366,"nti ":12790," via":1932,"via ":17224,"odi":13078,"paro":13871,"arod":6120,"57":5099,"7,":5147,"7, ":5148,"con ":7135,"tto":16412,"etto":8721,"tto ":16413,"onc":13343,"conc":7136,"once":13344,"nces":12292,"cess":6917,"ssio":15631," ed":678,"dil":7521,"izi":10544,"zia":17859," edi":681,"edil":7936,"izia":10545,"zia ":17860," gi":851," ap":314,"pes":13928," app":318,"ese ":8614,"'e":4389,"sul":15771,"ull":16789,"ll'":11442,"l'e":11074,"'es":4392,"ern":8520," sul":1761,"sull":15773,"ll'e":11444,"l'es":11076,"'est":4393,"tern":16064,"erno":8525,"rno ":14786," del":590,"dell":7421,"bb":6530,"fab":8876,"abb":5405,"ica":9726,"ca.":6793," fab":757,"bric":6698,"rica":14604,"ica.":9729,"ca. ":6794,"'o":4410,"op":13446,"l'o":11080,"ope":13451,"per":13916,"era":8441," l'o":1139,"oper":13454,"pera":13918,"ha ":9375," ha ":895,"cau":6855,"aus":6319,"usa":16978,"ato":6261," cau":487,"caus":6856,"ausa":6321,"ato ":6262,"mess":11898,"essa":8652,"cas":6842," cas":485,"teg":16009,"egr":8031,"nteg":12782,"tegr":16012,"egra":8032,"bu":6724,"uo":16889," bu":451,"rte":14975,"arte":6141,"rte ":14976,"mpi":12074,"pie":13961,"ieg":9839,"gat":9105,"impi":10100,"egat":8008,"gati":9106,"ati ":6248,"il ":10010," il ":972,"sor":15554,"org":13520,"rge":14569," sor":1727,"orge":13522,"rger":14572,"ere ":8467," nu":1356,"num":12841,"ero":8526,"ros":14863,"ose":13594," num":1359,"nume":12843,"umer":16822,"mero":11891,"eros":8530,"rose":14866,"ose ":13595,"pol":14034,"mic":11926,"ich":9746," pol":1512,"pole":14036,"emic":8256,"mich":11929,"iche":9750,"au ":6296," au ":352,"avr":6354,"ril":14641," avr":364,"ril ":14642,"17":4813,"017":4708,"2017":4972,"vic":17225,"rvic":15053,"vice":17226,"ices":9745,"asa":6168,"sam":15219,"ama":5808,"ma ":11725,"ama ":5809,"ont":13405," son":1725,"sont":15549,"ont ":13406," ac":235,"act":5471,"ctu":7216,"tue":16434,"uel":16679," act":241,"actu":5476,"uell":16682,"llem":11463,"eff":7989,"fec":8910," eff":687,"effe":7990,"ffec":8937,"fect":8911,"ectu":7913,"nk":12592," sh":1690,"ink":10182,"nka":12594,"nse":12725,"sen":15335,"shin":15382,"anse":5955,"nsen":12729,"sen ":15336,"sé":15828," sé":1782,"sér":15834,"éri":18214,"rie":14614," sér":1784,"séri":15835,"érie":18216,"rie ":14615,"7 ":5143,"99":5316,"199":4919,"997":5330,"97 ":5291," 199":139,"1997":4927,"997 ":5331,"ls":11576,"ils":10060,"ls ":11577,"ils ":10061,"ét":18224," ét":2152,"éta":18225,"aie":5619,"ien":9861," éta":2153,"étai":18226,"ient":9869,"ég":18179," ég":2147,"éga":18180,"gal":9088,"égal":18181,"gale":9089,"2.":4946,"2. ":4947,"ins":10199,"ses":15352,"inse":10202,"ses ":15353,"wa":17370," wa":1974,"was":17396," was":1978,"was ":17397,"als":5771," als":288,"als ":5772,"rf":14557,"fg":8944," er":720,"erf":8478,"fge":8945,"gen":9143,"nam":12236," erf":723,"gena":9147,"name":12237,"ame ":5824,"len":11264,"olen":13220,"len ":11265," een":684,"oe":13107,"oed":13109,"ede ":7930,"j ":10627,"rti":14988,"tij":16160,"ij ":9977,"arti":6143,"bo":6655,"oh":13150,"ms":12096," bo":433,"boh":6663,"ohe":13153,"hee":9446,"eem":7970,"ems":8275," boh":436,"ko":10917," ko":1103,"kon":10928,"nin":12556," kon":1106,"koni":10932,"onin":13374,"ning":12558,"wen":17429,"lau":11158," wen":1987,"ence":8300,"laus":11160,"aus ":6320,"ii":9964," ii":966,"ii.":9968,"ii. ":9969," 13":100,"130":4787," z":2059,"ze":17810," ze":2079,"ze ":17811," ze ":2080,"aar":5391,"naar":12208,"aar ":5392,"men ":11876,"geb":9121,"rac":14277," geb":832,"gebr":9125,"brac":6689,"rach":14279," er ":721,"pg":13939," op":1428,"gev":9174,"evo":8775,"voe":17282,"ed ":7920," ta":1799,"tan":15934," tan":1804,"tant":15942,"uw":17058,"wd":17408," hu":948,"toe":16260,"oen":13114," toe":1839,"oen ":13115,"7-":5149,"-j":4560," 17":110,"jar":10653,"ige":9930,"rige":14629,"ige ":9931,"ez":8815,"zz":17969,"ezz":8828,"zza":17970,"za ":17769," ric":1598,"rich":14606,"ezza":8829,"zza ":17971,"met":11899," met":1238,"met ":11900,"32":5015,"2-":4945," 32":177,"i,":9655,"ii,":9966,"i, ":9656,"ii, ":9967," die":605,"die ":7507,"aas":5394,"ast":6200,"ast ":6201,"ok":13183," oo":1426,"ook":13430,"ok ":13184," ook":1427,"ook ":13431,"ew":8778,"wo":17489,"gew":9175,"ewo":8785,"wor":17502,"ord":13504,"en.":8287," gew":847,"gewo":9177,"word":17503,"orde":13507,"rden":14416,"den.":7431,"en. ":8288,"rvo":15056,"vol":17286,"olg":13225,"verv":17209,"ervo":8567,"volg":17288,"olge":13226,"lgen":11319,"gens":9152,"ens ":8351,"hen":9459,"dri":7659,"rik":14638," hen":919,"hend":9461,"endr":8309,"ndri":12367,"rik ":14639,"wü":17546,"ür":18428,"rb":14376,"wür":17547,"rbe":14379,"ben":6568,"en,":8284,"en, ":8285,"bis":6625,"ssc":15615,"cho":6967,"hop":9567,"op ":13447," bis":426,"ssch":15616,"scho":15269,"u,":16576,"u, ":16577," bre":447,"bres":6695,"-g":4556,"in-":10112,"-ge":4557,"gem":9140,"ema":8235,"mal":11758,"ingi":10159,"ngin":12480,"emal":8238,"mali":11762,"lin ":11387,"kr":10952,"gek":9133,"ekr":8140,"kro":10960,"roo":14855,"oon":13435,"ond":13345,"ond ":13346," nam":1307,"taa":15881,"aan":5388,"orta":13567,"aan ":5389,"th ":16095," eli":699,"elis":8193,"abet":5412," aa":223,"an.":5868," aan":224,"an. ":5869,"05":4718,"05 ":4719,"baa":6485,"aard":5393,"doc":7606,"hte":9609," doc":624,"doch":7607,"ocht":13044,"chte":6985,"hter":9612,"ter ":16054,"agn":5587,"es.":8597,"agne":5588,"nes.":12433,"es. ":8598,"rw":15057,"erw":8568,"rwa":15058,"wac":17374,"verw":17210,"erwa":8569,"wach":17375,"hte ":9610," zo":2095,"poo":14049,"ool":13432,"ols":13251,"lse":11584," kr":1110,"oon ":13436,"zou":17922,"rve":15050,"erve":8565,"rven":15051,"kw":11014," kw":1124,"kwa":11015,"wam":17384," kwa":1125,"kwam":11016," ni":1334,"nie":12530,"iet":9893," nie":1336,"niet":12537,"iet ":9894,"mee":11855," mee":1230,"meer":11857,"eer ":7976,"md":11838," om":1416,"mda":11839,"dat":7366,"at ":6219,"dat ":7367,"ii ":9965," ii ":967,"ju":10736," ju":1054,"jun":10743,"uni":16859,"ni ":12507," jun":1059,"juni":10744,"uni ":16860,"sti":15683,"tie":16147,"ier":9871,"f. ":8873," sti":1745,"stie":15687,"tier":16151," hi":923,"rdo":14423," hie":924,"hier":9495,"ierd":9874," op ":1429," sl":1710,"sle":15492,"lec":11232,"hts":9614," sle":1712,"lech":11234,"echt":7885,"chts":6987,"9-":5217,"ft":9038,"jd":10657,"lee":11242,"eef":7964,"eft":7998,"fti":9044,"ijd":9979,"jd ":10658," lee":1157,"eeft":7965,"tijd":16161,"ijd ":9980," al ":275,"wed":17412,"edu":7951,"uwe":17060," wed":1983,"'al":4375,"tat":15957,"l'al":11069,"alim":5743,"ntat":12776,"tati":15961,"iel":9850," ind":985,"trie":16348,"iell":9854,"onv":13416,"conv":7146,"onvi":13418,"vien":17234,"rfa":14559,"fai":8883,"ite":10414,"tem":16030,"fait":8885,"teme":16034,"cro":7190,"san":15223," cro":536,"issa":10379,"ssan":15614,"sanc":15226,"iot":10261,"lt":11590,"adu":5531,"dul":7696,"ult":16797,"lte":11596,"te.":15993,"adul":5533,"ulte":16800,"te. ":15994,"èr":18152,"mén":12144,"nag":12219,"ère":18153,"ména":12145,"ère ":18154,"site":15439,"ite ":10415,"sup":15781,"upp":16904,"ppl":14090,"lém":11680," sup":1765,"supp":15783,"vit":17256,"ita":10404,"tam":15928," vit":1941,"vita":17257,"amin":5835,"mine":11957,"lc":11188,"iu":10479,"m.":11719,"alc":5712,"ciu":7056,"ium":10485,"um.":16810,"m. ":11720,"um. ":16811,"-a":4537,"de-":7391,"e-a":7797,"-a ":4538,"gu":9318," lu":1194,"lun":11639,"ung":16855,"ngu":12495,"gul":9330,"ul ":16773," lun":1200,"lung":11641,"eț":8867,"ți":18856,"ții":18863," vie":1935,"wat":17398,"ats":6271," wat":1979,"son ":15540,"fo":8992," fo":794,"fos":9013,"ost":13615," fos":800,"fost":9014,"ost ":13616,"tere":16060,"eres":8477,"aț":6468,"laț":11176,"ați":6471,"iil":9972,"lați":11177,"ații":6474,"iile":9973,"naț":12272,"țio":18867,"erna":8522,"nați":12273,"ațio":6475,"țion":18868,"iona":10247,"onal":13339,"tâ":16510,"ât":18085,"ât ":18086," din":609,"din ":7527,"vă":17354,"ă ":18469,"rsp":14954,"cti":7204," per":1483,"pers":13926,"ecti":7910,"ctiv":7208,"că":7293,"ă,":18470,"dip":7536,"ipl":10278,"plo":14003,"lom":11533,"oma":13273,"mat":11797,"tic":16134,"ică":9792,"ă, ":18471," dip":610,"omat":13277,"mati":11802,"atic":6249,"tică":16143," câ":553,"cât":7283,"cât ":7284," ș":2226,"și":18845," și":2227,"și ":18846," și ":2228,"ă.":18472," ec":675,"eco":7900,"ă. ":18473," eco":677,"econ":7902,"cono":7142,"onom":13386,"nomi":12667,"omic":13291," era":722,"era ":8442," cu":539,"cun":7240,"uno":16873,"nos":12680,"osc":13592,"scu":15287,"cut":7250,"ut ":17015," cun":546,"cuno":7241,"unos":16875,"nosc":12682,"oscu":13593,"scut":15290,"cut ":7251," dr":639,"rep":14514,"ept":8420,"pt ":14151," dre":641,"sar":15232," emi":704,"emis":8259,"sar ":15233,"eo":8393,"neo":12422,"ofi":13128,"ofic":13129,"icia":9757,"ial ":9680,"lui":11630," lui":1199,"lui ":11631,"ank":5925,"kli":10902,"rank":14327,"klin":10903,"oos":13443,"sev":15362,"elt":8218,"lt ":11591,"seve":15363,"elt ":8219," î":2155,"în":18298," în":2158,"în ":18299," în ":2159,"w ":17365,"new":12445,"ew ":8779," new":1333,"new ":12446,"yo":17699,"rk":14702," yo":2046,"yor":17707,"ork":13534,"rk ":14703," yor":2049,"york":17708,"ork ":13535,"mea":11847,"ea ":7807,"prim":14113,"rime":14650,"cv":7252,"fre":9024," fre":805,"frec":9025,"viz":17260,"zit":17883,"vizi":17261,"ita ":10405,"nor":12673," uno":1897,"nor ":12674,"mn":12008,"emn":8264,"mni":12011,"itar":10410,"tari":15950,"ari ":6090,"ră":15149,"ăi":18475," str":1747," 193":133,"ales":5727,"eș":8862,"șe":18842,"reș":14555,"eșe":8863,"șed":18843," pre":1526,"ședi":18844,"edin":7937,"dint":7531,"cam":6814,"rei":14475,"ei ":8054," cam":481,"came":6816,"amer":5827,"erei":8471,"rei ":14476,"rț":15169,"ome":13282,"come":7128,"omer":13285,"icc":9739,"c) ":6784,"ong":13363,"ngr":12488,"cong":7139,"ongr":13366,"ngre":12489,"resu":14536,"esul":8668,"sul ":15772,"bie":6602," bie":420,"bien":6604,"enal":8291,"fă":9067,"șu":18852,"urat":16926,"rat ":14348,"rli":14732," ber":411,"berl":6576,"erli":8514,"rlin":14735,"af":5552," af":253,"afi":5559,"fir":8974,"irm":10323," afi":256,"firm":8975,"irma":10324,"rmat":14751,"mat ":11798," că":555,"că ":7294," că ":556,"mot":12054,"ott":13660,"tou":16304,"oul":13681," mot":1266,"otto":13664,"nf":12452,"nț":12962,"țe":18855,"onf":13359,"nfe":12455,"inț":10229,"nțe":12965,"conf":7138,"onfe":13360,"nfer":12456,"erin":8501,"ste ":15671,"pac":13837,"ace":5439," pac":1463,"pace":13838,"ace ":5440,"lă":11694,"ală":5793,"lă ":11695,"mond":12041,"ondi":13349,"ndia":12347,"dial":7496,"ală ":5794,"rin ":14654,"al.":5699,"al. ":5700," ace":238,"aces":5444,"cest":6918,"dev":7476,"eni":8324," dev":598,"deve":7478,"even":8766,"veni":17187,"enit":8331,"nit ":12575,"slo":15495,"oga":13133,"anu":5966,"nul":12838," slo":1713,"anul":5968,"nul ":12839," ic":959,"bm":6653," ib":958,"bě":6778,"ěh":18561," bě":473,"běh":6780,"hem ":9457,"9.":5218,"19.":4840,"9. ":5219," 19.":129,"19. ":4841,"tí":16525,"í,":18250,"tol":16266,"let":11289,"etí":8729,"í, ":18251," sto":1746,"stol":15706,"tole":16267,"olet":13222,"letí":11296," s ":1638,"oz":13783,"zv":17946,"oj":13174,"roz":14894,"voj":17285,"oje":13175,"jem":10679," roz":1621,"rů":15165,"ům":18805,"prů":14146,"mys":12130,"slu":15497,"lu ":11611," prů":1534,"v ":17109," v ":1915,"dh":7489,"ří":18729,"í ":18249,"ří ":18730,"(s":4474,"lá":11671,"ář":18074,"tv":16463,"ví":17344," (s":56,"klá":10907,"stv":15727,"tví":16467,"ství":15728," ú":2171,"dk":7568,"pad":13840,"kem":10838,"kem ":10839,"ký":11041,"ýc":18456," ho":933,"hor":9568,"ors":13561,"rsk":14948,"ský":15482,"kýc":11043,"ých":18457,"ch ":6923," hor":940,"orsk":13563,"skýc":15484,"kých":11044,"ých ":18458," ř":2200,"ře":18716," ře":2201,"sel":15324,"mese":11895,"esel":8616,"sel ":15325,"či":18519,"ih":9958,"ař":6453,"iha":9959,"uh":16721,"hl":9524,"íř":18294,"ři":18725,"bud":6727,"uda":16648,"ři ":18726," bud":454,"(j":4462,"jm":10704,"tě":16550,"ě ":18555," (j":45,"jme":10705,"eno":8342,"nov":12691,"tě ":16551,"jmen":10706,"meno":11882,"enov":8347,"novi":12694,"vé":17340,"ové":13740,"vé ":17341,"ové ":13741,"hn":9539,"chn":6963,"hne":9541,"nei":12403,"eid":8063,"ide":9804,"chne":6964,"eide":8064,"ider":9808,"p,":13830,"lip":11399,"p, ":13831,"ilip":10038," š":2215,"št":18789,"án":18039,"n)":12185,"ště":18790,"n) ":12186,"pn":14007,"ně":12948,"pos":14057,"stu":15721,"tup":16445,"ně ":12949," pos":1517,"post":14064,"ostu":13622,"stup":15724,"dc":7379,"há":9635,"áz":18070,"ej":8105,"jí":10752," od":1393,"odc":13070,"chá":6996,"ház":9636,"áze":18071,"zej":17823,"ejí":8123,"jí ":10753," odc":1396,"cház":6997,"ejí ":8124," do ":622,"dol":7612,"olí":13268,"lí ":11683,"zd":17804,"dn":7580,"prá":14139,"né ":12910," prá":1531,"př":14210,"by":6745,"yt":17727,"tk":16214,"ky":11018," př":1553,"pří":14216,"byt":6752,"ky ":11019," pří":1556,"uj":16757," sk":1707,"sku":15472,"kup":11005,"upu":16910,"uje":16758,"je ":10662," sku":1709,"skup":15474,"uje ":16759,"aj":5646,"ji":10690,"maj":11752,"aji":5653,"tel":16021," maj":1218,"itel":10419,"tel ":16022,"í.":18252,"nst":12750,"í. ":18253," pan":1470," з":2749,"за":22011,"им":22241,"ае":20803," за":2751,"зан":22025,"ним":23089,"има":22243,"ает":20804,"ет ":21927," зан":2760,"зани":22026,"аним":20924,"нима":23091,"ает ":20805,"ят":25255,"ое":23399,"ято":25262,"ое ":23400,"сто":24362,"есто":21924,"сто ":24363,"ип":22290,"пт":23824,"их":22352,"хе":24863,"тих":24555," а":2544,"ав":20747,"вт":21380,"ке":22476,"еф":21944,"фа":24823,"ль":22784,"ьн":25144,"ны":23225,"ых":25117," ав":2550,"авт":20772,"вто":21381,"ток":24595,"аль":20886,"льн":22792,"ьны":25152,"ных":23234,"ых ":25118," авт":2551,"авто":20773,"альн":20888,"льны":22795,"ьных":25154,"ных ":23235,"ом":23495,"тн":24573,"пом":23773,"оме":23503,"стн":24359,"тны":24580," пом":3001,"естн":21923," ц":3203,"це":24889,"рк":24026,"кв":22472,"ей":21740," це":3204,"цер":24896,"ерк":21885,"ркв":24028,"ей ":21741," цер":3208,"церк":24897,"еркв":21886," ми":2878,"ра.":23855," мир":2880,"ра. ":23856,"ру":24127,"уп":24763,"пн":23749,"не":23034,"йш":22433,"ая":21076,"кру":22584,"руп":24141,"упн":24766,"ней":23047,"ая ":21077," кру":2843,"иг":22146,"оз":23417,"зн":22075,"рел":23963,"ели":21771,"лиг":22705,"иги":22148,"озн":23426,"зна":22076,"ная":23019,"озна":23427,"ная ":23020,"рг":23926,"га":21427,"ац":21051," ор":2961,"орг":23567,"рга":23927,"ган":21431,"низ":23077,"иза":22176,"зац":22035,"аци":21052," орг":2962,"орга":23568,"рган":23928,"гани":21432,"аниз":20921,"низа":23078,"изац":22177,"заци":22036,"ация":21055,"сс":24320,"си":24214,"ии":22196,"и,":22114," ро":3039,"рос":24094,"осс":23619,"сси":24321,"сии":24217,"ии,":22198,"и, ":22115," рос":3044,"росс":24095,"осси":23620,"ссии":24322,"ии, ":22199," у":3152,"ук":24732,"аи":20834," ук":3157,"укр":24736,"раи":23880,"ине":22265,"не ":23035," укр":3158,"укра":24737,"11 ":4765,"011 ":4694,"го":21464,"од":23367," го":2669,"год":21470,"од ":23368," год":2670,"по ":23751," по ":2992,"сл":24258,"лу":22775,"у ":24686," чи":3221,"чис":24972,"исл":22310,"слу":24267,"лу ":22776," чис":3222,"числ":24973,"хо":24870,"в,":21187,"при":23798,"рих":24019,"ихо":22355,"ход":24872,"одо":23388,"дов":21618,"ов,":23305,"в, ":21188," при":3011,"одов":23389,"ов, ":23306,"ух":24797,"тв":24471,"ва":21191,"дух":21651,"ухо":24798,"хов":24871,"ове":23316,"вен":21238,"енс":21831,"нст":23187,"ств":24340,"тва":24472,"ва ":21192," дух":2717,"ухов":24799,"овен":23319,"нств":23188,"ства":24341,"тва ":24473,"ку":22607,"ул":24740,"ьт":25166,"вы":21403," ку":2844,"кул":22615,"уль":24748,"льт":22800,"тов":24587,"овы":23349,"вых":21408," кул":2845,"ульт":24749,"вых ":21409,"оо":23545,"уж":24721,"ий":22202,"й,":22400," со":3089,"соо":24296,"оор":23547,"ору":23597,"руж":24135,"уже":24723,"ний":23081,"ий,":22204,"й, ":22401," соо":3093,"руже":24136,"ужен":24725,"жени":21986,"ений":21817,"ий, ":22205,"о,":23272," но":2930,"но,":23140,"о, ":23273,"но, ":23141,"ры":24156,"ым":25108," не":2918,"нек":23048,"еко":21755,"тор":24605,"оры":23600,"ым ":25109,"отор":23656,"торы":24611,"оп":23548," оп":2957,"опр":23557,"ам ":20892," опр":2960,"опро":23559,"прос":23819,"ач":21059,"нач":23015,"ача":21060,"чал":24941,"ало":20881,"ло ":22748," нач":2917,"нача":23016,"ачал":21061,"чало":24942,"ало ":20882,"15":4794,"015":4702,"15 ":4795,"2015":4970,"015 ":4703,"ода":23369,"да,":21510,"года":21471,"да, ":21511," не ":2919,"ич":22365,"че":24951,"ву":21384," ко":2828,"кол":22540,"лич":22724,"иче":22368,"чес":24962,"тву":24488,"ву ":21385," кол":2833,"коли":22543,"олич":23473,"личе":22725,"ичес":22370,"чест":24964,"еств":21920,"ству":24345,"ую":24815,"ющ":25206,"еру":21900,"ующ":24819,"ющи":25208,"щих":25048,"бе":21097,"ус":24779," бе":2578,"бел":21099,"лор":22765,"рус":24143,"усс":24786," бел":2580,"русс":24145,"лд":22665,"мол":22929,"дав":21514,"ави":20756,"ии ":22197," мол":2891,"(в":4481,"вк":21286,"кл":22504,"лю":22803,"юч":25202," (в":62,"вкл":21289,"клю":22512,"люч":22806,"вклю":21290,"ключ":22513,"тр":24618,"вь":21410,"ье":25128,"рид":23995,"дне":21605,"нес":23059,"стр":24368,"тро":24635,"овь":23350,"стро":24372,"тров":24636,"48":5063,"てお":29072,"おり":28988,"ては":29078,"その":29033,"いて":28977,"には":29143,"。そ":28949,"の一":29158,"など":29125,"なる":29128,"では":29091,"はな":29163,"もの":29171,"マキ":29264,"から":28993,"を受":29212,"受け":29361,"ており":29073,"おり、":28989,"。その":28950,"ではな":29093,"を受け":29213,"には、":29144,"いた。":28976,"た。 ":29038,"ており、":29074,"していた":29026,"ていた。":29069,"nel":12410," nel":1324,"nel ":12411,"08":4729,"8 ":5176,"008":4681,"08 ":4730,"2008":4962,"008 ":4682,"nso":12744,"sol":15530,"oli":13227,"cons":7144,"onso":13402,"soli":15533,"olid":13230,"rop":14856,"opr":13470,"prop":14128,"ropr":14861,"opri":13472,"nz":12883,"enz":8380,"nza":12885,"rese":14530,"esen":8618,"senz":15342,"enza":8381,"nza ":12886,"rca":14388,"cat":6849,"erca":8457,"cato":6854,"cq":7173,"acq":5468,"cqu":7174,"siz":15450,"acqu":5469,"quis":14247,"izio":10548,"del ":7418," ra":1568,"amo":5843," ram":1573," ti":1829,"ssu":15640,"sue":15765,"issu":10383,"ssue":15641,"sue ":15766,"ova":13716,"vac":17121,"aca":5433," nov":1354,"nova":12692,"care":6835,"are ":6078," lo ":1184,"ava":6333,"val":17127,"aval":6335,"val ":17128,"uas":16601,"asi ":6180,"tera":16057,"eram":8446,"ente":8365,"ded":7402,"dic":7499," ded":585,"dedi":7404,"edic":7935,"dica":7500,"icat":9737,"uz":17070,"duz":7709,"uzi":17075,"oduz":13101,"duzi":7710,"uzio":17076," ar":322," art":334,"rtic":14989,"tico":16141,"oli ":13228,"per ":13917,"aw":6360,"awa":6362,"way":17399,"ay ":6373,"way ":17400,"fro":9033,"om ":13272," fro":807,"from":9034,"rom ":14841,"hom":9561,"e).":7792," hom":937,"home":9562,"e). ":7793,"ві":21413,"ін":25338," ві":2654,"він":21421,"ін ":25339," він":2657,"він ":21422,"вед":21232,"еде":21700,"веде":21233,"сп":24305,"пі":23840,"іш":25372,"шн":25025,"ну":23208," ус":3165,"усп":24785,"спі":24315,"ну ":23209," усп":3166,"'є":4427,"кар":22461,"ру ":24128," кар":2817,"во":21318,"лі":22820,"іс":25350,"а:":20736," во":2628,"ока":23449,"кал":22453,"алі":20890,"ліс":22826,"іст":25354,"ста":24333,"а: ":20737,"іста":25355,"бер":21101,"ере":21872,"ре ":23938," бер":2581,"бере":21102,"уч":24800,"ть":24671,"ь ":25120," уч":3169,"уча":24801,"сть":24381,"ть ":24672," уча":3170,"учас":24802,"асть":21007,"сть ":24382," у ":3153,"рт":24119,"ах":21043,"кон":22553,"онц":23542,"нце":23218,"ерт":21899,"рта":24121,"тах":24465,"ах ":21044," кон":2835,"конц":22557,"онце":23543," та ":3120,"зб":22038,"бі":21181,"ір":25349,"рн":24041,"х,":24853," зб":2766,"рни":24044,"ник":23083,"ках":22467,"ах,":21045,"х, ":24854,"ника":23085,"ах, ":21046," і":3255,"і ":25287," і ":3256,"пу":23825,"ає":21078,"є ":25278,"вип":21271,"пус":23829,"уск":24782,"ає ":21079," вип":2619,"пуск":23830,"уска":24783,"ні":23254,"сол":24293,"оль":23486,"ьні":25155,"ні ":23255,"ольн":23489,"льні":22796,"ьб":25125,"бо":21124," ал":2557,"льб":22786,"ьбо":25126,"бом":21132,"оми":23505,"ми ":22884," аль":2559,"альб":20887,"льбо":22787,"ьбом":25127,"нг":23022,"гл":21454,"и.":22116," си":3074,"син":24224,"инг":22263,"нгл":23024,"гли":21460,"и. ":22117," син":3077,"нгли":23026,"рі":24163,"ім":25336,"крі":22586,"ім ":25337,"ог":23354," то":3134,"тог":24590,"ого":23361,"го,":21466," тог":3137,"того":24591,"ого,":23363,"го, ":21467,"ує":24820,"вик":21266,"ико":22217,"ону":23540,"ує ":24821," вик":2617,"вико":21267,"икон":22221,"ем":21788," те":3124,"тем":24509,"еми":21796," тем":3127,"еми ":21797," «":2116,"ік":25326,"» ":18005,"жел":21984,"елі":21787,"лік":22824,"a-":5369,"-3":4532,"3,":5004," ov":1452,"3, ":5005,"єм":25281,"мн":22913,"чо":24995,"ої":23700,"ї ":25387,"мни":22915,"нич":23105,"ої ":23701," л":2850,"ге":21441,"нд":23027," ле":2852,"лег":22669,"ген":21442,"енд":21810,"нда":23028,"іч":25368,"ічн":25369,"чно":24989,"ног":23151,"го ":21465,"ічно":25371,"чног":24991,"ного":23152,"ого ":23362,"св":24187,"іт":25360,"тл":24570,"а»":20738," св":3062,"сві":24195,"віт":21423,"а» ":20739," сві":3066,"світ":24196,"«б":17998,"іл":25329,"му":22949," «б":2118,"біл":21182,"іло":25330,"лом":22760,"ому":23514,"му ":22950,"ому ":23515," х":3192,"хр":24876,"ті":24682," хр":3199,"рес":23972,"сті":24386,"рест":23973,"78":5169,"978":5300,"78 ":5170,"1978":4906,"joh":10716,"ohn":13155,"hns":9545," joh":1047,"john":10718,"ohns":13157,"nson":12746," aw":366,"war":17390," awa":367,"awar":6363,"ward":17392,"ded ":7403," an ":299," am":291," ame":295,"meri":11889,"eric":8494,"ican":9734,"can ":6820,"tit":16200,"tut":16457,"ute":17019," ins":990,"inst":10205,"nsti":12754,"stit":15694,"titu":16205,"itut":10460,"tute":16458,"ute ":17020,"arc":6063,"hit":9521,"tec":16000,"cts":7214," arc":326,"arch":6066,"rchi":14395,"chit":6957,"hite":9522,"itec":10416,"tect":16003,"cts ":7215,"gol":9265,"old":13212,"ld ":11194," gol":865,"old ":13213,"eda":7925,"meda":11853,"edal":7927,"79":5171,"9 ":5212,"979":5301,"79 ":5172,"1979":4907," he ":912,"bec":6542,"eca":7870," bec":401,"beca":6543,"irs":10329," fir":789,"firs":8976,"irst":10330,"ipi":10276,"reci":14452,"ecip":7892,"cipi":7046,"tz":16495,"zk":17886,"itz":10465,"ker":10846,"ker ":10847,"ctur":7218,"ture":16449,"riz":14699,"ize":10541,"ize ":10542,"mos":12051," mos":1265,"most":12053,"tig":16155,"gio":9212,"iou":10263,"esti":8660,"stig":15689,"igio":9939,"ious":10264,"ous ":13697,"nat":12256,"rnat":14775,"nati":12260,"ral":14308,"ural":16923,"ral ":14309,"rd.":14405,"rd. ":14406,"att":6273,"tti":16406," att":348,"atti":6277,"tira":16192,"iran":10297,"rant":14330," ses":1683,"bs":6712," cl":513,"clu":7100,"lub":11615,"ubs":16617,"bs ":6713," clu":517,"club":7101,"lubs":11618,"ubs ":16618,"mei":11861,"eil":8072,"leu":11297,"urs":16963,"rs ":14932," mei":1232,"eill":8076,"leur":11298,"eurs":8746,"urs ":16964,"oue":13675,"ueu":16695,"joue":10726,"deu":7473," deu":597,"deux":7475,"hè":9639,"émi":18192,"isp":10375,"ères":18155,"nna":12623,"nay":12267,"aya":6378,"yan":17608,"onna":13381,"ayan":6380,"dro":7662,"oit":13172,"its":10447," dro":643,"its ":10448,"fu":9046,"dif":7511,"iff":9913,"fus":9058,"usi":16989," dif":606,"diff":7513," tv":1860,"x,":17553,"x, ":17554," ava":361,"avan":6336,"vant":17142,"ntag":12769,"tage":15903,"pop":14050,"opu":13476,"pul":14171," pop":1515,"popu":14052,"opul":13477,"pula":14173,"rè":15115,"aup":6316,"upr":16907,"prè":14141,"rès":15116,"près":14142,"rès ":15117," pu":1537,"ic ":9723," pub":1538,"lic ":11344,"rni":14780," gar":825,"arni":6118,"tad":15892,"stad":15659,"tade":15895,"ades":5508,"top":16284," top":1843,"top ":16285,"4 ":5035,"14 ":4790," 14 ":103,"est ":8657,"urd":16932,"sid":15401,"idé":9818,"dér":7744,"onsi":13401,"nsid":12737,"mme ":12000,"ham":9396,"amp":5847,"pio":13969,"cham":6933,"hamp":9399,"ampi":5850,"mpio":12076,"pion":13971,"ionn":10250,"nnat":12626,"nat ":12257," nat":1311,"ug":16704,"gb":9110," ru":1622,"rug":15020,"ugb":16708,"gby":9111,"by ":6746," rug":1624,"rugb":15021,"ugby":16709,"de.":7392,"onde":13348,"de. ":7393,"ço":18124,"ço ":18125,"có":7290," ja":1019,"jac":10636," jac":1021,"stá":15735,"tá ":16505,"está":8666,"stá ":15736,"loc":11520,"oca":13031," loc":1185,"loca":11521,"ocal":13032,"cali":6812," 7":203,"etr":8710,"tro":16351,"metr":11904,"etro":8714,"tros":16359,"ros ":14864,"ll ":11441," tel":1816,"tell":16026,"ell ":8198,"bal":6497,"ta,":15877," bal":388,"lata":11154,"ta, ":15878," na ":1300," ori":1437,"orie":13527,"rien":14622," ci":505,"cid":7014," cid":506,"cida":7015,"nab":12209,"blu":6652,"ro ":14793," den":592,"dent":7438,"ntro":12815,"tro ":16352,"cin":7034,"into":10212,"tei":16014,"iro":10326,"oste":13618,"stei":15675,"eiro":8093,"iro ":10327,"bir":6621," bir":425,"bir ":6622,"b.":6481,"ya'":17605,"b. ":6482," ent":714,"ntra":12812,"trad":16321," ig":963,"igr":9950,"rej":14482,"eja":8111,"ja ":10633,"igre":9952,"reja":14483,"eja ":8112," nos":1351,"nos ":12681,"rre":14916,"terr":16067,"erre":8535,"rren":14920,"reno":14509,"enos":8346,"ro,":14794,"ro, ":14795,"sce":15260,"cen":6900,"desc":7463,"esce":8606,"scen":15262,"cend":6902," as ":336,"sca":15256,"cad":6799,"esca":8605,"cada":6800,"rip":14670,"ipt":10284,"pta":14152,"crip":7187,"ript":14671," on":1418," ond":1421,"rva":15047,"vad":17122,"onse":13399,"nser":12730,"erva":8564,"vado":17123,"unt":16880,"junt":10745,"unto":16884,"com ":7125," \"":0,"eq":8428,"equ":8429,"uen":16683,"eque":8430,"quen":14238,"eno ":8343," gu":877,"gui":9326,"uin":16737,"nch":12293,"ho,":9548," gui":880,"guin":9328,"ho, ":9549,"ald":5715,"lde":11200,"de,":7389,"alde":5717,"de, ":7390,"ones":13358,"vot":17304,"oto":13652,"mui":12108,"tas":15954," mui":1273,"muit":12109,"uita":16750,"itas":10411,"tas ":15955,"las":11147," vel":1925,"vela":17174,"elas":8158,"las ":11148,"s\"":15171,"\".":4347,"\". ":4348,"cesa":6916,"umb":16815,"mba":11816,"ba ":6484,"jos":10722,"osé":13626,"sé ":15829," jos":1050,"josé":10724,"osé ":13627,"ao":5992," ao":311,"ao ":5993," ao ":312," nor":1350,"nort":12679,"orte":13568,"pré":14143,"dio":7532," pré":1532,"dio ":7533," ot":1445,"man":11765,"toma":16272,"oman":13275,"mana":11768,"ana ":5871,"marc":11786,"arca":6064,"cado":6802,"uma":16812," uma":1888,"uma ":16813,"nca":12280," bra":446,"bran":6690,"anca":5882,"-s":4576,"bus":6741,"-sa":4577,"nt-":12762,"geo":9155,"eor":8401," bus":459,"aint":5630,"int-":10208,"geor":9156,"eorg":8402,"rges":14573,"has":9416," has":905,"has ":9417,"bui":6729,"uil":16734,"ilt":10062," bui":455,"buil":6730," it":1002," its":1005,"ty":16479," id":960,"ity":10461,"ty ":16480," ide":961,"iden":9806,"ntit":12802,"ity ":10462," on ":1419,"ree":14461," gre":873,"gree":9294,"reen":14463,"mod":12022," mod":1258,"mode":12023,"odel":13075,"env":8375,"vir":17251,"ron":14847," env":715,"envi":8376,"nvir":12863,"iron":10328,"wi":17449," wi":1995,"wit":17476,"ith":10426," wit":2002,"with":17477,"ith ":10427,"ks":10966,"ark":6098,"rks":14715,"ks ":10967,"park":13869,"ns.":12718,"dens":7437,"ns. ":12719,"hey":9480,"they":16109,"hey ":9481,"epr":8417," rep":1589,"repr":14517,"epre":8418,"sent":15341,"55":5095," 15":104,"155":4801,"55 ":5096,"hec":9442,"tare":15949,"ares":6085,"ted":16004,"grat":9290,"ated":6236,"ted ":16005,"spa":15572," spa":1733,"spac":15573," 9":211," 9 ":212,"ki":10860," ki":1086,"kil":10873,"ilo":10056," kil":1088,"kilo":10875,"ilom":10058,"lome":11534,"omet":13287,"etre":8712,"(6":4444,"es)":8592," mil":1248,"iles":10027,"es) ":8593,"sof":15525,"oft":13130,"ft ":9039," sof":1722,"soft":15526,"nne":12627,"nec":12392,"onne":13382,"ting":16180,"nks":12599," lin":1175,"link":11393," 10":92," 10 ":93,"sq":15601," sq":1738,"squ":15602,"uar":16596," squ":1739,"squa":15603,"quar":14232,"cit":7051," cit":510,"city":7055,"re,":14436," cen":494,"cent":6904,"re, ":14437," 8":207," 8 ":208,"mor":12045,"ore":13514," mor":1264,"more":12047,"ore ":13515,"tha":16096,"han":9400," tha":1824,"than":16097,"han ":9401,"8,":5180,",2":4513,"200 ":4953," tre":1850,"tree":16337,"y.":17601,"tod":16257,"oda":13066,"day":7374,"ay.":6376,"y. ":17602," tod":1838,"toda":16258,"ay. ":6377,"o-":12977,"še":18782,"šen":18783,"mě":12166,"ěl":18568," mě":1294,"měl":12167,"ěl ":18569," měl":1295,"bý":6771,"ýt":18464," bý":469,"být":6772,"ýt ":18465," být":470,"být ":6773,"vy":17325,"yu":17730,"už":17102,"ži":18832," vy":1960,"uži":17103,"žit":18834," k ":1064,"vě":17355,"pře":14211,"pra":14098,"rav":14357,"vě ":17356," pře":1554,"prav":14100," 11":95,"110":4769,"100":4759,"22":4975," 12":97,"neb":12390,"ebo":7859,"bo ":6656," neb":1317,"nebo":12391,"ebo ":7860,"50":5083,"150":4799,"500":5085," 150":106,"500 ":5086," č":2188,"čí":18534,"ín":18275," čí":2198,"nsk":12741,"já":10751,"ák":18029,"ků":11061,"ů,":18800,"ů, ":18801,"čl":18523,"nů":12961,"ů ":18799," čl":2195,"ič":10592,"čn":18524,"ní":12918,"íh":18265,"xpe":17576,"ped":13895,"ční":18527,"níh":12924,"ího":18266,"expe":8798,"pedi":13897,"ního":12925,"ího ":18267,"sb":15249," sb":1658,"bor":6673,"oru":13575,"ru ":15011,"oru ":13576,"ač":6434,"če":18512,"pot":14065,"tla":16219,"čen":18513,"ení":8388,"ní ":12919," pot":1518,"čení":18514,"ení ":8389,"nep":12423,"epo":8415,"pok":14033,"oko":13189," nep":1327,"kor":10937,"eji":8114," kor":1108," dn":619,"dne":7583,"23":4977,"3.":5007," 23":154,"3. ":5008," če":2191,"čer":18515," čer":2192,"červ":18516,"venc":17184,"94":5249,"94 ":5250,"yp":17711,"lul":11634,"lul ":11635,"z ":17763," z ":2060,"ké":11026,"éh":18184,"ské":15478,"kéh":11028,"ého":18185,"nské":12742,"skéh":15480,"kého":11029,"ého ":18186,"ís":18280,"vu":17320,"íst":18283,"tav":15966,"avu":6356,"vu ":17321,"stav":15667," u ":1875,"vn":17272,"nost":12683,"osti":13619,"sti ":15684,"-k":4561,"ku ":10995,"mí":12151," za":2061,"zam":17783,"amí":5858,"řil":18727," zam":2069,"js":10730,"ejs":8119,"jsk":10732,"ejsk":8121,"u.":16581,"u. ":16582,"dop":7623,"ovo":13733,"vod":17280,"od ":13065," dop":631,"opro":13473,"prov":14131,"rovo":14888,"mu ":12104,"dě":7761," dě":666,"děl":7765,"lal":11121,"vý":17348,"ý ":18453,"lov":11560,"ový":13742,"vý ":17349,"ový ":13743,"g.":9077,"ng.":12469,"g. ":9078,"ng. ":12470,"kol":10920," kol":1104,"kole":10921,"lem ":11261,"ny":12870,"hod":9552,"iny":10221,"ny ":12871,"odin":13080,"iny ":10222," ran":1574,"25":4981,"5.":5081," 25":158,"5. ":5082,"nar":12247,"zil":17875," nar":1309,"jap":10650,"apo":6014,"ký ":11042," jap":1026,"japo":10652,"apon":6016,"ský ":15483,"sv":15791," sv":1768,"az ":6398,"ož":13823,"že":18829,"ný":12936,"lož":11566,"ože":13825,"žen":18831,"ený":8390,"ný ":12937,"ožen":13826,"ěn":18574,"chr":6976,"hrá":9598,"rán":15105,"něn":12954,"nýc":12938," chr":503,"ných":12939,"kř":11060,"iž":10618,"žn":18836,"ík":18268,"ník":12926,"ků ":11062,"uš":17099,"ši":18784," ak":271,"aki":5671,"kic":10866,"icu":9785,"ima":10073,"ima ":10074,"iw":10519,"kap":10802,"pit":13980,"itá":10470,"tán":16508,"án ":18040," kap":1071,"apit":6011,"wy":17526,"wy ":17527,"hei":9448,"eih":8071," hei":916,"óg":18316,"gó":9350," dal":572,"dal ":7344,"řík":18732,"kaz":10817,"přík":14217,"zas":17791," zas":2073,"asta":6202,"tave":15968,"aven":6341,"lod":11524,"dě ":7762,"ang ":5906,"ím":18271,"mez":11911,"ezi":8821,"tím":16527,"ím ":18272," mez":1240,"mezi":11912,"l,":11087,"il,":10011,"l, ":11088,"il, ":10012,"ná":12891,"ás":18058,"vá":17332,"oná":13424,"nás":12897,"ásl":18060,"led":11237,"edo":7946,"dov":7640,"ová":13737,"ván":17335,"pron":14127,"násl":12898,"ásle":18061,"sled":15493,"ován":13739,"ván ":17336,"u)":16575,"imo":10095,"mou":12057,"）に":29979,"によ":29146,"よっ":29176,"それ":29035,"）と":29978,"）の":29980,"られ":29183,"によっ":29147,"よって":29177,"amb":5818,"mbi":11822,"bit":6628,"tus":16454,"uth":17023,"cus":7249,"pla":13988,"aga":5571,"られる":29185,"fina":8969,"nali":12233,"によって":29148,"ambi":5820,"then":16104,"ntic":12792,"ticu":16142,"gali":9090,"リア":29275,"であ":29081,"であり":29084,"である":29086,"であり、":29085,"である。":29087,"ある。 ":28971," ق":3460,"قب":26381,"بل":25741,"ل ":26460," قب":3464,"قبل":26382,"بل ":25742," قبل":3465,"قبل ":26383," ع":3432,"عا":26270,"ام":25667,"م ":26660," عا":3433,"عام":26276,"ام ":25668," عام":3434,"عام ":26277," ب":3333,"با":25702,"ال":25554,"لض":26565,"بط":25729,"ط ":26238," با":3337,"بال":25710,"الض":25616," بال":3339," و":3539,"وب":26879,"بت":25716,"تا":25774,"ار":25510,"ري":26111,"يخ":27003,"خ ":25943," وب":3546,"تار":25776,"اري":25520,"ريخ":26116,"يخ ":27004,"تاري":25777,"اريخ":25521,"ريخ ":26117,"21":4973,"1/":4752,"/2":4639," 21":150," أ":3266,"أع":25415,"عل":26309,"لن":26626,"ن ":26764," أع":3277," ا":3295,"لب":26497,"بغ":25738,"غد":26338,"دا":25973,"اد":25505,"دي":26022,"ي ":26971," ال":3301,"الب":25570,"داد":25980,"ادي":25509,"دي ":26023," الب":3305," خ":3397,"خط":25959,"طة":26243,"ة ":25763," خط":3398,"طة ":26244," ه":3530,"هد":26842,"دم":26004,"دم ":26005,"لأ":26465,"أس":25410,"سو":26176,"وا":26863,"ر ":26043,"الأ":25556,"لأس":26468,"وار":26869,"ار ":25511," الأ":3302,"الأس":25559,"013":4698,"13 ":4782,"2013":4968,"013 ":4699,"ها":26835,"اج":25495,"جم":25886,"مت":26686,"ت ":25770,"مت ":26687," د":3402,"اع":25535,"عش":26301,"ش ":26184," دا":3403,"داع":25983,"اعش":25541,"عش ":26302," داع":3404,"داعش":25984,"اعش ":25542," س":3413,"سج":26155,"جن":25892,"ني":26824,"ين":27057,"ين ":27058," ف":3451,"في":26367," في":3457,"في ":26368," في ":3458,"د ":25967,"اد ":25506,"داد ":25981,"هم":26851,"ما":26666,"ا ":25463,"هما":26853,"ما ":26667,"لت":26508,"جي":25899,"الت":25578,"لتا":26510," الت":3306,"التا":25579,"وس":26911," وس":3552,"لم":26603,"مر":26708,"رك":26092,"زي":26134,"ي.":26972,"الم":25639,"لمر":26614,"ي. ":26973," الم":3326,"المر":25645,"ون":26952,"نج":26783,"حت":25908," ون":3567,"حت ":25909," ت":3360,"ته":25828,"هر":26848,"يب":26987,"ب ":25698,"يب ":26988,"أك":25419,"كث":26433,"ثر":25848," أك":3278,"أكث":25420,"كثر":26434,"ثر ":25849," أكث":3279,"أكثر":25421,"كثر ":26435," م":3496,"من":26741," من":3520,"من ":26742," من ":3521," 100":94,"1000":4761,"000 ":4664,"مع":26722,"عت":26283,"تق":25810,"قل":26402," مع":3515,"تقل":25813,"قل ":26403," .":79," . ":80,"raa":14272,"aad":5380,"ads":5528,"sli":15494,"id ":9795," gem":839,"geme":9142,"emee":8249,"meen":11856,"eent":7974,"(1":4430,"38":5027,"8)":5178," (1":20,"(19":4434,"938":5247,"8) ":5179," (19":24,"1938":4862,"bur":6739," bur":458,"burg":6740,"urge":16942,"mees":11858,"47":5061,"-1":4524,"70":5152,"0)":4643,"194":4864,"947":5260,"-19":4527,"970":5292,"0) ":4644,"1947":4872,"1970":4898,"bin":6616," bin":423,"nche":12294,"hij":9498," hij":926,"hij ":9499,"cie":7018,"ovin":13729,"vinc":17246,"ncie":12300,"cier":7022,"iera":9873,"46":5059,"946":5259,"46 ":5060," 194":134,"1946":4871,"95":5263,"58":5101,"8.":5184,"195":4875,"958":5273,"8. ":5185," 195":135,"1958":4884,"tia":16129,"iev":9900," ini":988,"init":10179,"niti":12577,"itia":10430,"atie":6250,"ieve":9901,"ven ":17183,"opl":13459,"ple":13996," her":920,"ople":13461,"levi":11302,"evin":8771," car":484,"arna":6116,"tte":16397,"stic":15686,"tich":16138,"icht":9754,"tte ":16398,"aal":5383,"aal ":5384,"mus":12121,"use":16982,"eum":8739," mus":1277,"muse":12122,"useu":16986,"seum":15360,"eum ":8740,"mas":11792,"ske":15462,"rs.":14935," mas":1223,"aske":6186,"kers":10848,"ers.":8541,"rs. ":14936," мн":2885,"мно":22916," мно":2886,"мног":22917,"л ":22635,"дел":21548,"ела":21766,"ал ":20864,"дела":21549,"дл":21595,"ля":22808," дл":2701,"для":21597,"ля ":22809," для":2702,"для ":21598,"пон":23775,"они":23526,"ман":22845," пон":3002,"мани":22847,"ания":20927,"ея":21965," де":2691,"дея":21565,"еят":21966,"яте":25259,"тел":24502,"ель":21781,"ьно":25147,"нос":23168," дея":2697,"деят":21566,"ятел":25260,"тель":24507,"ельн":21783,"льно":22794,"ьнос":25151,"ност":23171,"ости":23625,"м.":22833," м.":2861,"м. ":22834," м. ":2862,"в.":21189," в.":2605,"в. ":21190," в. ":2606," ло":2855,"омо":23509,"мон":22931,"оно":23532,"осо":23615,"сов":24286,"ова":23309," лом":2856,"ломо":22762,"омон":23511,"моно":22933,"онос":23535,"носо":23170,"осов":23617,"сова":24288,"ова ":23310,"лж":22694,"ой":23438,"дол":21623,"олж":23467,"жно":22003,"ной":23156,"ой ":23439," дол":2709,"долж":21624,"ной ":23157,"оц":23670,"нк":23114,"оце":23671,"цен":24894,"енк":21822,"нки":23116,"ки ":22483,"оцен":23672,"её":21967,"ё ":25272,"ез":21727,"нт":23193,"пре":23792,"рез":23957,"ези":21732,"зид":22060,"иде":22156,"ден":21553,"ент":21833,"нт ":23194," пре":3010,"през":23795,"рези":23959,"езид":21733,"иден":22157,"дент":21558,"ент ":21834," ак":2554,"кад":22447,"аде":20789,"дем":21551,"мии":22889," ака":2555,"акад":20849,"каде":22448,"адем":20790,"деми":21552,"мии ":22890,"ау":21037,"к ":22434,"нау":23008,"аук":21038," нау":2914,"наук":23009,"ы ":25088,"ины":22281,"ны ":23226,"дс":21642,"ерн":21890,"рна":24042,"адс":20798,"дск":21643,"кий":22492,"верн":21244,"ерна":21891,"адск":20799,"дски":21644,"ский":24242,"мя":22959," им":2791,"мя ":22960,"ря":24160,"яд":25228," ря":3049,"ряд":24162,"ду ":21650," ряд":3050," ру":3046,"сск":24324,"ких":22500,"их ":22353," рус":3048,"усск":24787,"ских":24245,"ких ":22501,"ои":23432,"пы":23838,"ыт":25116," ес":2739,"тес":24523,"тво":24482,"вои":21334,"исп":22314,"пыт":23839,"тат":24462,"ате":21016,"лей":22678," ест":2740,"ство":24344,"ател":21017,"теле":24504,"пра":23789,"рав":23859," пра":3009,"прав":23790,"уе":24719,"сос":24297,"осе":23605,"сед":24201,"едс":21716,"дст":21645,"ует":24720," сос":3094,"едст":21717,"дств":21647,"с ":24171," с ":3054,"име":22246,"мен":22869,"ене":21811,"нем":23049,"ем ":21789," име":2794,"имен":22247,"мене":22870,"пе":23719,"рв":23921," пе":2983,"пер":23724,"ерв":21866,"рво":23924,"вог":21326," пер":2984,"перв":23726,"ерво":21867,"вого":21327,"ког":22528,"сско":24325,"ског":24251,"кого":22529,"чё":25000,"ён":25275,"ов ":23304,"сов ":24287," x":2024,"xx":17589," xx":2029,"xx ":17590,"»)":18006,"век":21235,"ека":21752," век":2610,"ий ":22203,"кий ":22493,"зг":22048,"вл":21291,"ял":25240,"воз":21333,"гла":21457,"лав":22647,"авл":20761,"вля":21297," воз":2632,"глав":21458,"авля":20763,"ию":22384,"ю ":25180,"ком":22547,"мис":22899,"исс":22316,"ию ":22385," ком":2834,"коми":22550,"омис":23506,"мисс":22900,"исси":22317,"зу":22098,"уче":24803,"чен":24956,"нию":23107,"учен":24804,"чени":24958,"ению":21820,"нию ":23108,"асл":20992,"сле":24261,"лед":22670,"еди":21704,"дия":21592,"след":24263,"ун":24757,"кан":22456,"ану":20943," кан":2815,"0-":4651,"лет":22693,"етн":21934,"нег":23041,"его":21692,"него":23042,"его ":21693,"юб":25185,"би":21104,"бил":21107,"иле":22230," ег":2725," его":2726,"вой":21335,"вой ":21336,"аб":20740," ла":2851,"або":20743,"бор":21133,"ора":23564,"ори":23572,"рии":23998,"ии.":22200,"орат":23566,"рато":23904,"атор":21028,"тори":24608,"ории":23574,"ии. ":22201," tus":1858,"tuss":16456,"usse":17002,"ssen":15621,"kru":10961,"rui":15024," kru":1114,"sing":15428,"wes":17436," wes":1989,"west":17437,"sten":15679,"ten ":16038,"sw":15798,"isc":10345,"hof":9557,"swe":15800,"rda":14407,"bisc":6627,"isch":10347,"erda":8463,"rda ":14408,"waa":17372," waa":1975,"waar":17373,"nsl":12743,"aans":5390,"ansl":5957,"98":5302,"98 ":5303,"56":5097,"56 ":5098,"oost":13444,"tad ":15893,"bau":6522,"utz":17043,"tze":16497,"zen":17832," bau":393,"tzen":16498,"zen ":17833," is ":997,"weg":17417,"eg ":8002,"nge":12472,"rvan":15048,"vang":17140,"ange":5908,"ngen":12475,"gen ":9144,"8, ":5181,"6.":5117,"6. ":5118,"وع":26922,"عن":26323,"ند":26786," وع":3554,"عند":26325,"ندم":26788,"دما":26006,"عندم":26326,"ندما":26789,"دما ":26007,"وص":26916,"صل":26221," وص":3553,"وصل":26917,"صل ":26222," ج":3382,"نو":26819,"ود":26896," جن":3386,"جنو":25893,"ود ":26897,"لح":26527,"حم":25932,"مل":26735,"لة":26506,"الح":25592,"لة ":26507," الح":3309,"لف":26583,"فر":26353,"رن":26098,"نس":26792,"سي":26179,"ية":26989,"الف":25627,"لفر":26585,"فرن":26354,"رنس":26100,"نسي":26794,"سية":26182,"ية ":26990," الف":3322,"الفر":25628,"فرنس":26355,"سية ":26183," غ":3448,"غر":26339,"رب":26067,"غرب":26340,"رب ":26068,"مد":26704,"نة":26778," مد":3507,"مدي":26706,"دين":26028,"ينة":27062,"نة ":26779," مدي":3508,"مدين":26707,"دينة":26030,"ينة ":27063,"لإ":26474,"إس":25442,"سك":26162,"كن":26448,"در":25996,"الإ":25562,"لإس":26476,"رية":26114," الإ":3303,"الإس":25564,"رية ":26115," 2 ":141," ي":3572,"يو":27070,"ول":26937,"لي":26645,"و ":26860," يو":3586,"ولي":26945,"ليو":26659,"يو ":27071,"وليو":26946,"179":4824," 179":114," ز":3412,"فو":26366,"وا ":26864,"لى":26643,"ى ":26970," عل":3441,"على":26314,"لى ":26644," على":3442,"على ":26315,"لمد":26613,"المد":25644,"اح":25497,"تل":25818,"لو":26635,"وه":26956," وا":3543,"واح":26867,"احت":25499,"ها ":26836," واح":3544,"بع":25730,"عد":26285," بع":3347,"بعد":25734,"عد ":26286," بعد":3348,"بعد ":25735,"مق":26729,"قا":26374,"او":25688,"وم":26947,"مة":26684," مق":3517,"مقا":26730,"مة ":26685,"جا":25862,"ان":25675,"نب":26777," جا":3383,"جان":25868,"انب":25678,"أه":25431,"هل":26850,"له":26630,"لها":26632,"لها ":26633,"وح":26893,"حا":25901,"اك":25552,"كم":26444,"مه":26749," وح":3549,"مح":26699," مح":3504,"محم":26702,"حمد":25933,"مد ":26705," محم":3505,"حمد ":25934," ك":3470,"كر":26438,"يم":27051,"كري":26440,"يم ":27052,"دام":25985,"امت":25671,"سا":26139,"ات":25485," سا":3414,"ساع":26142,"عات":26271," ذ":3407,"ذل":26036,"لك":26591,"ك ":26415," ذل":3408,"ذلك":26037,"لك ":26592," ذلك":3409,"ذلك ":26038,"أخ":25405,"ذ ":26032," أخ":3271," ن":3525,"نا":26769,"اب":25476," نا":3526,"ابل":25481,"يون":27074,"ون ":26953,"يون ":27075,"يز":27015,"ف ":26346,"لق":26586,"اه":25685,"رة":26071,"الق":25629,"لقا":26587,"اهر":25687,"رة ":26072," الق":3323,"القا":25630,"طر":26245,"يق":27033,"ق ":26373,"طري":26246,"ريق":26119,"يق ":27034,"طريق":26247,"ريق ":26120,"نه":26813,"هو":26856,"ور":26901,"ر،":26046,"، ":25396,"منه":26747,"ر، ":26047," ح":3387,"حي":25938,"يث":26999,"ث ":25843," حي":3395,"حيث":25940,"يث ":27000," حيث":3396,"حيث ":25941,"اس":25524,"ست":26149,"تط":25803,"طا":26239,"ع ":26269," اس":3299,"است":25526,"اع ":25536," است":3300,"لا":26479,"لال":26490,"ال ":25555,"لال ":26491," ر":3410,"شي":26206,"يد":27005,"يد ":27006," 6":198," 6 ":199,"وو":26961,"لوا":26636," إ":3289,"إل":25446," إل":3290,"إلى":25449," إلى":3292,"إلى ":25450,"لر":26547,"رح":26077,"الر":25603,"مان":26678,"اني":25682,"نية":26827," الر":3313,"ماني":26679,"انية":25684,"نية ":26828,"هي":26858," وه":3568,"وهي":26959,"هي ":26859," وهي":3570,"وهي ":26960,"قر":26392," قر":3468,"قري":26394,"يل":27044,"الن":25656,"يل ":27045," الن":3327,"وف":26925," وف":3555,"وفي":26927," وفي":3556,"وفي ":26928," تل":3374,"أث":25401,"ثن":25856,"اء":25468,"ثنا":25857,"ناء":26771,"كا":26416," كا":3471,"كان":26420,"ان ":25676," كان":3472,"كان ":26421,"مم":26739,"يك":27038,"لمم":26622,"مما":26740,"مال":26674,"الي":25663,"المم":25652,"مالي":26676,"يع":27027,"دو":26012," يع":3578,"دون":26019,"يش":27022,"شا":26185,"اً":25696,"ً ":27079,"اً ":25697," ل":3481," لم":3490,"لمق":26620,"لج":26521,"وش":26915,"الج":25588,"لجي":26526," الج":3308,"بق":25739,"قي":26411,"يا":26977,"دة":25988," بق":3350,"قيا":26412,"ياد":26981,"ادة":25507,"دة ":25989,"ادة ":25508,"را":26052," مر":3509,"مرا":26710,"راد":26059," مرا":3510,"راد ":26060,"بك":25740," بك":3351,"لتق":26514,"التق":25582,"لقر":26589,"القر":25631," ش":3421,"شب":26188,"بر":25721,"اخ":25502,"خي":25966,"يت":26995," شب":3423,"برا":25723,"يت ":26996," 13 ":101,"إلا":25447,"لا ":26480," إلا":3291,"إلا ":25448,"أن":25427," أن":3282,"أن ":25428," أن ":3283,"وك":26934,"كي":26455,"كية":26457,"كية ":26458,"اض":25533,"رت":26073,"رت ":26074,"رج":26075,"جع":25882," فر":3455,"ة.":25765,"ة. ":25766,"صو":26225,"وت":26886,"ه ":26830,"ته ":25829,"لش":26560,"الش":25612," الش":3316,"مي":26756,"ز ":26124,"طي":26260,"زا":26126," مم":3519,"صا":26208,"حب":25905,"رس":26080,"سة":26147,"سة ":26148,"وط":26919,"طو":26257,"ور ":26902,"ّ ":27085,"تج":25783,"جد":25874," تج":3364,"جد ":25875," له":3493,"له ":26631,"مث":26691,"ثي":25859,"ا.":25464," مث":3501,"يلا":27046,"ا. ":25465,"وق":26929,"قد":26389," وق":3557,"وقد":26932,"قد ":26390," وقد":3559,"وقد ":26933,"عر":26293,"رف":26088," عر":3438,"عرف":26299,"رف ":26089,"حس":25925,"سن":26172," حس":3393,"لد":26538,"الد":25598,"لدي":26542," الد":3311,"الدي":25600,"لدين":26543,"دين ":26029,"خل":25961,"اص":25532,"ص ":26207,"خلا":25963,"بالإ":25711,"قرا":26393,"راء":26054,"تز":25796,"وال":26873,"الا":25566," وال":3545,"لط":26566,"ح ":25900,"الط":25617,"لطر":26568," الط":3319,"الطر":25619,"لخ":26535,"خا":25944,"الخ":25596,"لخا":26536,"خاص":25945," الخ":3310,"الخا":25597,"فن":26364,"بة":25714,"بة ":25715,"يني":27065,"اب ":25477,"لع":26569,"عو":26328,"اط":25534,"طف":26249,"الع":25620," الع":3320,"مخ":26703,"طب":26242," وم":3565,"عق":26308,"نف":26807,"فس":26357,"س ":26136," نف":3527,"نفس":26808," نفس":3528,"قت":26386,"الو":25661,"وقت":26931," الو":3329,"فك":26362,"مص":26719,"ائ":25470," مص":3514,"بي":25753,"لبي":26505,"البي":25575,"قت ":26387,"ير":27010,"الك":25633,"كثي":26436,"ثير":25860,"ير ":27011," الك":3324,"كذ":26437," وك":3560," الا":3304,"لس":26552,"الس":25607,"لسي":26559,"يرة":27013,"السي":25611,"يرة ":27014,"لعا":26570,"امة":25670,"العا":25621,"لعام":26572," لأ":3482,"ت،":25771,"ت، ":25772,"تم":25821,"تما":25823,"مام":26677,"لجا":26522,"الجا":25589,"قائ":26375,"فق":26361,"م.":26661,"م. ":26662,"ومن":26951," ومن":3566,"ات ":25486,"تح":25785,"حق":25928,"لتح":26511,"قيق":26414,"لما":26605,"بس":25727," بس":3345,"تف":25808,"فا":26349,"صي":26227," وت":3547,"تفا":25809,"أح":25403,"حد":25912,"اث":25492,"أحد":25404,"حدا":25914,"داث":25976,"حداث":25915,"تي":25840,"لتي":26517,"تي ":25841,"التي":25585,"لتي ":26518,"اف":25545,"راف":26062,"حيا":25939,"يات":26979,"اته":25490,"تهم":25832,"هم ":26852,"دس":25998,"ة،":25768,"ة، ":25769,"المق":25650,"وكا":26935," وكا":3561,"وكان":26936,"بح":25717,"حر":25921," بح":3341,"بحر":25718,"راً":26065,"راً ":26066,"خر":25955,"فة":26350,"لمع":26619,"معر":26725,"فة ":26351,"المع":25649,"بالت":25712,"سل":26163,"إسل":25443,"سلا":26165,"لام":26492,"امي":25674,"مي ":26757,"لإسل":26477,"إسلا":25444,"سلام":26166,"لامي":26493,"وأ":26861,"حو":25935," وأ":3541,"حوا":25936,"لعر":26574,"عرب":26296,"العر":25623,"لعرب":26576,"هن":26854," هن":3534,"هنا":26855,"نا ":26770,"فإ":26347,"إن":25452," فإ":3452,"فإن":26348,"إن ":25453," فإن":3453," قد":3466," قد ":3467,"از":25522," حا":3388,"از ":25523,"شه":26205,"هذ":26843,"ذا":26033," هذ":3531,"هذا":26844,"ذا ":26034," هذا":3532,"هذا ":26845,"مج":26694,"لمج":26610,"مجا":26695,"جال":25865,"المج":25642,"لأن":26471,"أنه":25429,"نه ":26814,"أنه ":25430,"يس":27017,"تخ":25788,"خد":25950," يس":3576,"يست":27019,"ستخ":26150,"تخد":25789,"خدم":25953," يست":3577,"ستخد":26151,"تخدم":25791,"خدم ":25954,"لمن":26623,"بر ":25722,"المن":25653,"ني ":26825,"إر":25441,"لإر":26475,"الإر":25563,"تو":25833,"عي":26331,"لتو":26516,"عية":26332,"والت":26875,"التو":25584,"عية ":26333,"مية":26758,"مية ":26759," ور":3550,"جت":25872,"جتم":25873,"مع ":26723,"كر ":26439,"يه":27066,"علي":26316,"ليه":26656," علي":3443,"عليه":26317,"لسل":26557," الس":3315,"السل":25610,"لذ":26544," ول":3562,"كل":26442," كل":3476,"رى":26109,"رى ":26110,"لبح":26501,"حري":25923,"رين":26122,"البح":25572,"لبحر":26502,"رين ":26123,"لم ":26604," لم ":3491,"تل ":25819,"ره":26101,"ا،":25466,"منا":26743,"رها":26103,"ا، ":25467,"فع":26360,"سب":26145,"ثا":25844," لا":3483," لا ":3484,"حص":25926,"صر":26216,"صر ":26217," فق":3456,"اعت":25539,"دار":25982," يق":3579,"أر":25409,"عة":26281," أر":3273,"بعة":25732,"عة ":26282,"بعة ":25733,"قو":26407,"تص":25799," مت":3500,"فص":26358," جد":3384,"مس":26714,"تر":25793," ست":3415,"لث":26519,"ثل":25851,"ثة":25846,"ثلا":25853,"اثة":25493,"ثة ":25847,"اثة ":25494,"أو":25432," أو":3285,"أو ":25433," أو ":3286,"د.":25968,"د. ":25969,"ane":5899," ari":329,"aria":6091,"rian":14598,"anes":5902,"espa":8642," ş":2207,"şi":18758," şi":2212,"irk":10318,"rke":14707,"ket":10851,"irke":10319,"rket":14709,"keti":10853,"eti ":8693,"'y":4420,"yı":17745,"ı,":18613,"ı, ":18614,"ps":14147,"kut":11011,"utu":17041,"psa":14149,"sal":15213,"sal ":15214,"eş":8853,"ş ":18750,"lı ":11698,"zama":17784,"aman":5814,"manl":11774,"anlı":5932,"yö":17738,"ör":18364,"rü":15141," yö":2052,"örü":18367,"rün":15145,"ler":11275,"ngel":12474,"gele":9138,"eler":8176,"lere":11281,"dec":7397,"ece":7873,"cek":6891,"dece":7398,"ola":13206," ola":1410,"olan":13208,"lan ":11126,"vl":17265,"gör":9353,"öre":18365,"evl":8773,"vle":17267," gör":887,"göre":9354,"evle":8774,"ler ":11276,"iç":10559,"çi":18119," iç":1009,"içi":10561,"çin":18120," içi":1010,"için":10562,"çin ":18121,"mı":12171,"ış":18679," uy":1910,"yar":17614,"anm":5933,"nmı":12619,"mış":12174,"ış ":18680,"lanm":11133,"anmı":5935,"nmış":12620,"mış ":12175,"fı":9068,"ır":18656,"tm":16231,"ırl":18661,"atm":6259,"tma":16232,"ırla":18662,"sis":15433,"mi ":11918," sis":1703,"sist":15436,"iste":10388,"stem":15678,"temi":16035,"emi ":8254,"rak":14305,"ak ":5663,"olar":13209,"lara":11141,"arak":6052,"rak ":14306,"kt":10973,"dı":7766,"paz":13884,"aza":6399,"zar":17788,"lam":11122,"mak":11754,"akt":5681,"kta":10975,"adı":5540,"dır":7771,"ır.":18658,"azar":6401,"rlam":14722,"lama":11123,"amak":5811,"makt":11757,"akta":5683,"ktad":10976,"tadı":15899,"adır":5543,"dır.":7772,"ır. ":18659,"ye":17641," ye":2041,"yet":17655,"lik":11374," yet":2045,"eter":8689,"terl":16062,"lik ":11375,"nı":12955,"ıt":18669,"anı":5987,"uç":17082,"çu":18129,"şu":18773,"und":16843,"da,":7320,"unda":16845,"nda,":12329,"da, ":7321,"ga ":9080,"ega ":8004," ana":300,"yü":17741,"ük":18407,"kü":11039,"ü ":18395,"yük":17742,"86":5200,"6,":5114,",8":4520," 38":183,"kg":10857,"ağ":6436,"ğı":18605,"ığ":18675," ağ":376,"ağı":6440,"rlı":14739,"lığ":11704,"ığı":18676,"ğın":18607,"ınd":18649,"dak":7341,"ki ":10861,"lığı":11705,"ığın":18678,"ğınd":18608,"ında":18650,"ndak":12331,"daki":7342,"aki ":5672," lar":1147,"lare":11143,"yd":17636,"ydu":17640,"usu":17011,"sun":15776,"unu":16886,"nu,":12830,"usun":17012,"nu, ":12831,"45":5057,"50 ":5084,"km":10909," km":1098,"km ":10910," km ":1099," yü":2054,"kse":10969,"sek":15323,"ekl":8136,"ikt":10005,"kte":10977,"eki":8133," yük":2055,"likt":11379,"ikte":10006,"eki ":8134,"dai":7338," dai":571,"ires":10312,"eye":8811,"ye ":17642,"eye ":8812," ç":2135,"çı":18139," çı":2141,"çık":18140,"ıka":18625,"kar":10803," çık":2142,"çıka":18141,"kara":10804,"arar":6056,"rara":14339,"69":5138,"9,":5215,",5":4516,",5 ":4517,"dere":7451,"erec":8469,"rece":14450,"elik":8189,"eğ":8843,"ği":18590,"ml":11987," eğ":754,"eği":8845,"iml":10091,"mle":11990,"imle":10092,"yer":17649,"rle":14727,"leş":11311,"eşt":8855," yer":2044,"yerl":17652,"erle":8513,"rleş":14731,"leşt":11312,"eşti":8856,"tirm":16195,"pli":14001,"appl":6020,"plic":14002,"lica":11345,"cati":6853,"ché":6998,"dép":7743,"épa":18203," dép":660,"épar":18204,"rtem":14981,"pé":14190,"coo":7147,"oop":13437,"pér":14191," coo":527,"érat":18212,"rati":14351,"rco":14398,"muna":12115,"unal":16835," fu":809,"nne ":12628,"anv":5971," jan":1025,"vier":17235,"ier ":9872,"17 ":4814,"017 ":4709,"nau":12263,"uté":17044,"-t":4581,"bou":6679,"urb":16927,"ds,":7670," bou":443,"bour":6680,"sera":15347,"eran":8447,"ds, ":7671," val":1917,"vall":17132,"hien":9494,"ien ":9862,"allo":5755,"uie":16730,"uier":16732,"iers":9880,"ers ":8539,"pou":14068,"ur ":16914," pou":1519,"pour":14069,"our ":13693,"é.":18161,"é. ":18162,"kat":10810," kat":1074,"tie ":16148,"nas":12253,"asc":6171,"ceu":6921," nas":1310,"cre":7180," cre":534,"cres":7182,"resc":14529,"dd":7383,"dl":7569,"mid":11933,"idd":9802,"dle":7572,"ebu":7865,"ury":16969,"ry ":15066," mid":1244,"midd":11934,"ury ":16970," no ":1343,"cond":7137,"onda":13347,"ndad":12330,"dado":7332,"hav":9425," hav":908,"have":9426,"tado":15897,"ctic":7205,"eus":8747,"seus":15361,"eus ":8748,"pai":13847," pai":1466,"sã":15824,"ão":18087," sã":1780,"são":15825,"ão ":18088," são":1781,"são ":15826,"cla":7093," cla":514,"clar":7094,"mark":11789,"ark ":6099,"tev":16086," ste":1744,"stev":15682,"teve":16087,"vens":17189," ai":265," ain":267,"aind":5626,"inda":10134,"nda ":12328," tem":1817,"tem ":16031," ir":995,"ão,":18089,"ão, ":18090,"mad":11736,"hama":9398,"amad":5810,"mado":11739," ry":1627,"rya":15071,"yan ":17609,"for":9004,"rmo":14760," for":799,"form":9010,"mpe":12070,"rau":14356,"aug":6307,"ug ":16705,"ompe":13309,"mper":12071,"erau":8451,"gh":9185,"hig":9496,"igh":9934,"gh ":9186," hig":925,"high":9497,"igh ":9935,"choo":6972,"hool":9566,"ool ":13433,"hb":9430,"out":13699,"ry,":15067,"sout":15564,"outh":13702,"ry, ":15068,"010":4690,"2010":4965,"010 ":4691," хо":3197,"онд":23524,"пъ":23834,"ър":25073," пъ":3017,"пър":23836,"ърв":25075,"рва":23922,"ват":21218," пър":3018,"първ":23837,"вата":21220," я":3244,"онс":23536,"нска":23184,"лн":22739,"том":24598,"моб":22920,"оби":23282,"лна":22740,"втом":21382,"томо":24601,"омоб":23510,"лна ":22741,"мп":22939,"па":23705,"омп":23512,"мпа":22940,"пан":23713,"комп":22551,"омпа":23513,"мпан":22941,"ния,":23111,"оя":23694,"коя":22568,"оят":23697," коя":2839,"коят":22569,"оято":23698,"ято ":25263,"ъз":25061,"зд":22049,"съз":24405,"ъзд":25062,"зда":22050,"ава":20749," съз":3114,"здав":22051,"дава":21515,"ава ":20750,"др":21636,"под":23757,"одр":23391,"дра":21637,"азд":20819,"зде":22054,"ие ":22160," под":2996,"разд":23872,"деле":21550,"ние ":23073,"за ":22012," за ":2752,"кс":22587," лу":2857,"соз":24290,"зни":22078,"ни ":23065,"ли ":22700,"били":21108,"или ":22232,"цел":24893,"ел ":21765," цел":3206,"тъ":24666,"ъп":25072,"пи":23734," ст":3103,"стъ":24379," зд":2769,"аво":20767,"во ":21319,"раво":23865,"мент":22873,"чу":24999,"жд":21974,"нн":23119," чу":3228,"ужд":24722,"жде":21978,"дес":21563,"тра":24619,"ран":23889,"анн":20929,"нни":23121,"стра":24369,"тран":24624,"ранн":23893," па":2978,"паз":23710,"аза":20815,"зар":22031,"ари":20964,"ози":23422,"зи ":22059,"ози ":23423,"мом":22930,"омен":23504,"цит":24908,"ците":24909," ек":2730,"екс":21757,"ксп":22591,"спо":24310,"пор":23777,"орт":23595,"рти":24122,"тир":24549,"ат ":21011," екс":2731,"експ":21759,"спор":24312,"порт":23779,"тира":24550,"рат ":23901,"ред":23947,"дим":21579,"пред":23794,"реди":23951,"мод":22924,"оде":23374," мод":2889,"моде":22925,"одел":23376,"ели ":21772,"о-":23274,"-с":4595,"по-":23752,"кро":22583,"ром":24087,"омн":23508," по-":2993,"йн":22413,"зай":22020,"айн":20841,"уд":24708,"дв":21530,"е,":21667,"обо":23288,"руд":24132,"два":21531,"ван":21209,"ане":20914,"не,":23036,"е, ":21668," обо":2942,"обор":23290,"оруд":23598,"дван":21533,"ване":21212,"не, ":23037,"наз":22984,"азн":20824,"аче":21062,"редн":23953,"азна":20825,"знач":22077,"наче":23017,"ачен":21063,"ени ":21814," ос":2964,"соб":24284,"обе":23281,"бен":21100," осо":2967,"особ":23616,"аг":20778,"баг":21089,"ага":20779,"гат":21437," баг":2574,"бага":21090,"агат":20781,"ати ":21020," кл":2822,"кли":22508,"нти":23200,"ти.":24533,"енти":21836,"ти. ":24534," сл":3081,"ед ":21696," сле":3083,"лед ":22671,"йо":22417,"той":24593,"ота":23639," той":3138,"ота ":23640," ни":2928,"нис":23095,"иса":22305,"сан":24182,"ан ":20904,"исан":22306,"ават":20753,"ват ":21219,"сво":24191,"ои ":23433," сво":3064,"бн":21121,"доб":21616,"обн":23286,"бни":21122,"подо":23760,"обни":23287,"ения":21821,"отв":23641,"тве":24475,"вет":21249,"тно":24577,"отве":23642,"твет":24479,"етно":21935,"тно ":24578,"ъс":25079,"със":24406,"ъс ":25080,"лекс":22681,"със ":24407,"нф":23216,"фи":24831," ин":2796,"фин":24833,"ити":22339,"тег":24498,"гия":21453," стр":3109,"трат":24625,"лз":22696,"зв":22039,"изп":22191,"олз":23468,"лзв":22697,"зва":22040," изп":2788,"изпо":22192,"полз":23767,"олзв":23469,"лзва":22698,"ех":21945,"хн":24867,"тех":24525,"ехн":21947,"хни":24868,"еск":21909," тех":3131,"техн":24526,"ехни":21948,"ниче":23106,"ческ":24963,"ески":21911,"скит":24244,"су":24388,"ур":24771,"урс":24778,"рси":24110,"си ":24215," ф":3173,"рм":24034,"а-":20733,"-м":4591,"йк":22409," фи":3178,"рма":24035,"мат":22851,"май":22841,"айк":20839,"ка,":22441,"рмат":24037,"мата":22852,"ка, ":22442,"вай":21202,"йки":22410,"вп":21360,"еч":21953," вп":2637,"печ":23732,"еча":21954,"чат":24947,"то,":24584,"то, ":24585," че":3216,"че ":24952," че ":3217,"ня":23242,"ям":25243," ня":2933,"ням":23252,"яма":25245,"ищ":22382,"ев":21677,"тин":24547,"зат":22033," зат":2764,"това":24589," чес":3220,"маг":22840,"газ":21429,"зно":22079,"нот":23172,"ното":23173,"са ":24177," са ":3058,"под ":23758,"дин":21580,"ин ":22255," еди":2728,"един":21706,"дин ":21581,"ив":22130,"пок":23764,"окр":23454,"кри":22580,"рив":23992," пок":2999,"крив":22581,"seg":15313,"egu":8036,"gun":9333," seg":1675,"segu":15315,"egun":8039,"gund":9334,"undo":16848,"so ":15515,"cens":6903,"enso":8357,"nso ":12745,"001":4665,"01,":4688,"2001":4955,"01, ":4689," ji":1038,"rib":14600,"iba":9710,"bam":6500,"inh":10166,"nha":12498," tin":1833,"inha":10167,"nha ":12499,"aç":6416,"çã":18130,"laç":11172,"açã":6418,"ção":18131,"laçã":11173,"ação":6419,"ção ":18132,"42":5051,"26":4984,"26 ":4985,"hab":9380," hab":897,"habi":9381,"abit":5416,"bita":6629,"itan":10409,"ntes":12787,"tes.":16078," os":1439," os ":1440,"íd":18263,"div":7557,"indi":10136,"ndiv":12355,"xo":17573,"sex":15364," sex":1687,"uli":16786,"masc":11794,"scul":15289,"ulin":16788,"lino":11394,"ino ":10192,"onst":13403,"49":5065,"% ":4363,"fem":8917," fem":777,"mini":11959,"inin":10177,"1%":4743,"ax":6369,"xa":17558,"tax":15971,"lit":11414,"aci":5454," lit":1178,"lite":11417,"iter":10421,"erac":8443,"raci":14280,"acia":5456,"73":5159,"3%":5001,"%,":4367,"%, ":4368,"upe":16896,"rio":14663,"ior":10252,"supe":15782,"uper":16898,"peri":13923,"erio":8502,"rior":14668,"ior ":10253,"nac":12210," nac":1302,"naci":12212,"acio":5458,"cion":7041,"59":5103,".5":4618,"5%":5072,"80":5186,"0%":4641," 80":209,"0% ":4642,"66":5132,"6%":5109,"m,":11716,"am,":5804,"m, ":11717,"am, ":5805," ab":225,"bai":6494,"aix":5645,"ixo":10523," aba":227," ano":307,"anos":5948,"cand":6823,"ndel":12339,"maz":11813," è":2143,"è ":18142," è ":2144,"rag":14297,"gaz":9109,"azz":6410," rag":1571,"agaz":5573," 15 ":105,"nni":12633,"anni":5940,"nni ":12634,"rima":14649,"sta ":15654,"orf":13519,"fan":8891,"sie":15405,"iem":9857,"insi":10203,"nsie":12738,"eme ":8248," ai ":266,"suo":15779," suo":1764,"lli":11469,"atel":6238,"elli":8202,"lli ":11470,"hos":9571," hos":941,"sana":15225,"o.":12979,"fac":8878,"do.":7601,"o. ":12980," fac":758,"do. ":7602,"giu":9223,"iud":10481,"udi":16655," giu":857,"dice":7501,"ice ":9741,"cis":7049,"ise":10350," dec":584,"deci":7399,"ecis":7893,"ise ":10351,"zzi":17973,"zi ":17858,"zzi ":17974,"von":17295,"dar":7359,"anda":5891,"ndar":12333,"dare":7362,"viv":17258," viv":1942,"vive":17259,"iver":10505,"vere":17198,"llo ":11479," zi":2086,"uan":16593,"za,":17770,"za, ":17771,"omo":13303,"omo ":13304,"co.":7112,"co. ":7113,"сы":24410,"ыв":25093,"рас":23896,"асп":20997,"спи":24309,"пис":23737,"ыва":25094,"вал":21203," рас":3031,"расп":23897,"вал ":21204,"мы":22957,"хра":24877,"рам":23887,"мы ":22958," хра":3200,"мс":22947,"кос":22562,"мск":22948,"кой":22537,"ой,":23440," кос":2837,"кост":22563,"остр":23627,"ской":24252,"ой, ":23441,"иж":22171,"иже":22172,"гор":21478,"оро":23585,"род":24065,"одс":23392,"горо":21479,"ород":23588,"кой ":22538,"вол":21338,"лог":22753," вол":2634,"воло":21339,"олог":23481,"гу":21496,"уб":24692," гу":2678,"губ":21498,"убе":24693,"ерни":21892," пи":2986,"сал":24179," пис":2987,"писа":23738," соб":3090,"собо":24285,"ора ":23565,"пет":23730,"етр":21938," пет":2985,"тра ":24620,"вла":21292,"ец":21949,"цк":24912,"оре":23570,"рец":23975," во ":2629,"рож":24074,"ожд":23409,"рис":24012,"ист":22318,"ва,":21193,"рист":24013,"исто":22322,"стов":24364,"ова,":23311,"ва, ":21194,"ый":25097,"пос":23780,"рое":24071,"оен":23403,"енн":21823,"нны":23128,"ный":23229,"ый ":25098," пос":3005,"пост":23783,"трое":24637,"роен":24073,"оенн":23404,"енны":21826,"нный":23130,"ный ":23230," гор":2672,"роде":24067,"оде ":23375,"рз":23983," ар":2566,"зам":22024,"ама":20893,"мас":22850,"ещ":21962,"ща":25034,"еща":21963,"ино":22272,"ном":23161,"ом ":23496,"ном ":23162,"кса":22588,"анд":20911,"ндр":23032,"дро":21639," але":2558,"екса":21758,"ксан":22589,"санд":24183,"андр":20913,"ром ":24088,"ха":24857,"йл":22411,"мих":22903,"иха":22354,"лов":22749,"вич":21281,"чем":24954," мих":2882,"миха":22904,"лови":22751,"ович":23328,"шни":25026,"вым":21405,"нико":23087,"иков":22218,"зя":22109,"тем ":24510," дв":2686,"дво":21537,"вор":21346,"оря":23601,"яни":25249," дво":2690,"ола":23461," ник":2929,"икол":22219,"кола":22541," як":3247,"яко":25238,"овл":23331,"вле":21294,"лев":22668,"еви":21682," яко":3250,"овле":23332,"ео":21847,"м,":22831,"тоб":24586,"сом":24294,"ом,":23497,"м, ":22832," сто":3108,"ом, ":23498,"ап":20950,"нап":22997,"апи":20953," нап":2911,"апис":20954,"ание":20920,"тре":24626,"рет":23974,"ета":21928," пор":3004,"трет":24630,"ета ":21929,"рог":24062," кот":2838,"торо":24609,"орог":23587,"рого":24063," иг":2781,"иго":22149,"рев":23942,"ев ":21678,"олу":23484,"луч":22779,"учи":24805,"чил":24969,"ил ":22226,"полу":23771,"олуч":23485,"лучи":22781,"учил":24806," зв":2767,"зван":22041,"вани":21213,"ху":24879," ху":3201,"худ":24880,"удо":24714,"дож":21621,"ожн":23414,"жни":22002,"ка.":22443," худ":3202,"худо":24881,"удож":24716,"ожни":23415,"ка. ":22444,"88":5204,"85":5198,"188":4836,"85 ":5199," 188":125,"оду":23394,"году":21473,"оду ":23395,"р ":23846,"тер":24518,"ер ":21859," мас":2869,"стер":24350,"вае":21199,"вает":21200,"нов":23143,"ово":23338,"воп":21345,"опо":23555," нов":2932,"ново":23150,"вски":21373,"ма ":22836,"бы":21173,"ыл":25100," бы":2599,"был":21175,"ыли":25104," был":2600,"были":21178,"ыли ":25105,"гот":21482,"ены":21841,"гото":21483,"отов":23655,"влен":21295,"ены ":21842," бо":2586,"вм":21299,"вме":21300,"вмес":21301,"кам":22454," уче":3171,"еник":21818,"ками":22455,"ами ":20898,"ып":25113," вы":2651,"вып":21406,"олн":23477,"нен":23050,"ена":21807," вып":2652,"полн":23769,"ена ":21808,"сь":24411,"осп":23618,"ись":22326,"сь ":24412,"ись ":22327,"н.":22970,"н. ":22971," сте":3106," э":3238,"эт":25176," эт":3241,"это":25178," это":3242,"это ":25179," ж":2742," же":2743," же ":2744,"вр":21361," вр":2638,"вре":21363,"рем":23964,"емя":21803," вре":2639,"врем":21364,"ремя":23966,"емя ":21804,"дан":21519,"нии":23079,"здан":22052,"дани":21520,"ании":20922,"нии ":23080,"овой":23342,"вн":21302,"овн":23333,"вно":21310,"овно":23336,"вной":21313,"сем":24210,"мин":22893,"нар":22999," сем":3072,"мина":22894,"нари":23000,"рии ":23999," он":2955," он ":2956,"иш":22379,"ше":25004,"ише":22380,"дом":21625,"мов":22922," дом":2710,"кви":22474,"ви ":21256,"ркви":24029,"кви ":22475,"оа":23278,"нна":23120,"бог":21127,"гос":21480,"осл":23610,"сло":24265,"ва.":21195,"слов":24266,"лова":22750,"ва. ":21196," 참":4286,"사 ":29723," 초":4290," 당":4090,"당시":29607," 당시":4091," 현":4333,"(o":4468," (o":51,"-c":4544,"인 ":29853,"ene":8310,"ne-":12385,"e-c":7798,"-co":4546,"mma":11997," sce":1661,"omma":13297,"mman":11998,"mand":11770,"nder":12342,"차 ":29911," 청":4289,"회 ":29967,"시 ":29752,"당시 ":29608," 당시 ":4092," 영":4216,"적이":29883,"다고":29595,"다고 ":29596," 부":4161," 김":4076,"일 ":29856,"28":4988," 28":164," 명":4139," 제":4269," 소":4183,"되어":29625,"간 ":29530," tro":1852," sin":1702,"ló":11689,"óm":18318,",4":4515,"iag":9675,"go ":9257," san":1651,"sant":15230,"ntia":12791,"iago":9676,"ago ":5592,"cac":6797,"ém ":18191,"foi":8993," foi":795,"foi ":8994,"ugu":16719,"gur":9337," ina":983,"inau":10126,"augu":6308,"gura":9338,"urad":16922,"rado":14290,"21 ":4974," 21 ":151,"34":5019,"934":5243,"1934":4858,"ados":5523,"rtir":14993,"ram ":14315,"hora":9569,"oras":13496,"taç":15975,"taçã":15976,"iá":10554,"ár":18050,"ári":18053,"ária":18054,"ues":16691,"te,":15990," sue":1758,"uest":16693,"te, ":15991,"isb":10344,"boa":6657," lis":1177,"ves":17213," atr":347,"atra":6267,"trav":16331,"rave":14359,"sand":15227,"ando":5894," rio":1603,"rio ":14664,"tej":16018,"ejo":8118,"jo ":10714,"arco":6068,"év":18234,"ra.":14270,"ra. ":14271,"dos,":7632,"va ":17115,"tava":15967,"ava ":6334,"nis":12568," min":1249,"inis":10178,"nist":12573,"stro":15717," das":576,"obr":13019," obr":1383,"obra":13020,"bras":6691,"pú":14200,"úb":18382," pú":1549,"púb":14201,"úbl":18383,"as,":6164," púb":1550,"públ":14202,"úbli":18384,"icas":9736,"as, ":6165,"dua":7685," dua":647,"uart":16599,"co,":7109,"ache":5448,"co, ":7110,"seu ":15359,"efe":7986,"fe ":8905,"gab":9083," gab":821,"bine":6619,"nete":12440,"rlo":14736,"los":11552,"carl":6838,"arlo":6108,"los ":11553,"lv":11654,"s;":15191,"; ":5341,"alv":5785,"lve":11656,"s; ":15192,"alve":5787,"dire":7540,"irec":10309,"ctor":7211,"tor ":16289,"gera":9161,"eral":8445,"sté":15740,"tér":16522,"io,":10232,"ério":18217,"io, ":10233,"aul":6310,"aul ":6311,"cos":7161," cos":530,"cost":7163,"osta":13617,"r;":14263,"cou":7166,"r; ":14264," cou":531,"ivi":10507," div":614,"divi":7559,"ivis":10510,"nstr":12755,"ção,":18133,"odr":13094,"igo":9948," rod":1611,"igo ":9949," sev":1686,"ever":8767,"veri":17201,"eria":8493,"ano ":5946,"o;":12983,"o; ":12984,"mont":12043,"onte":13408,"ntan":12773,"mpa":12066,"ompa":13308,"mpan":12068,"cami":6817,"inho":10168,"rtu":15003,"tug":16435,"gue":9322,"port":14056,"ortu":13574,"rtug":15004,"gues":9325,"eses":8620,"uí":17087,"sta,":15655,"nue":12835," man":1221,"manu":11779,"uel ":16680,"nç":12903,"ça":18109,"nça":12904,"çal":18113,"nsta":12752,"stan":15663,"ntin":12799,"tino":16182,"schr":15270,"lh":11323,"arv":6148,"alh":5733,"lho":11326,"arva":6149,"aq":6036,"aqu":6037,"im ":10068,"barr":6511,"arro":6130,"úl":18385,"lio ":11396,"anto":5964,"nr":12709,"enr":8348,"nri":12713,"riq":14672,"henr":9462,"enri":8349,"riqu":14673,"nea":12388,"eau":7840,"sone":15544,"mend":11879,"ende":8306,"a;":5377,"a; ":5378,"bara":6507,"rata":14349,"jor":10720," jor":1049,"rge ":14570,"nun":12845," á":2130,"ál":18030," ál":2131,"lva":11655,"var":17144,"sous":15563,"usa ":16979,"ego":8026,"rego":14472,"resi":14531,"esid":8624,"side":15403,"elh":8181,"elho":8182,"lho ":11327,"dm":7577,"adm":5515,"dmi":7578,"raç":14369," adm":247,"admi":5516,"dmin":7579,"stra":15714,"raçã":14370,"vas":17147,"sco":15276,"elo":8207," vas":1920,"asco":6173,"scon":15279,"ncel":12288,"elos":8212,"cor":7152,"orr":13558,"eia":8059," cor":529,"corr":7158,"orre":13559,"rrei":14919,"mov":12058,"vim":17243," mov":1268,"movi":12060,"nto,":12806,"arb":6059,"rbo":14383,"bos":6677,"arbo":6062,"osa ":13591," pi":1490,"pita":13981,"unta":16882,"nta ":12766,"oma ":13274,"reir":14479,"rof":14818,"ofe":13123,"fes":8929,"prof":14123,"rofe":14819,"ofes":13124,"fess":8931,"esso":8655,"ssor":15637,"sor ":15555,"ntó":12826,"óni":18323,"nio":12559,"nio ":12560,"ilh":10030,"lhe":11325,"na,":12202,"na, ":12203,"mpu":12093,"uls":16796,"dor":7625,"impu":10104,"onad":13338,"nado":12218,"ador":5522,"dore":7628,"ores":13518,"fora":9006,"ceb":6883,"ebi":7854,"bid":6601,"idos":9816,"arre":6128,"pelo":13908,"elo ":8208,"gov":9279,"ove":13721," gov":870,"gove":9280,"over":13726,"vern":17205,"dor ":7626,"civ":7058," civ":512,"civi":7059,"ivil":10509,"vil ":17241,"set":15355,"al,":5696," set":1684,"al, ":5697,"má":12132," má":1281,"ário":18055,"cai":6804,"aco":5465,"hou":9574," aco":240,"hou ":9575,"iva":10495,"comi":7129,"omit":13295,"miti":11977,"itiv":10436,"tiva":16207,"iva ":10496," out":1451,"outr":13703,"utra":17034,"alt":5774,"lta":11594," alt":289,"alta":5776,"idu":9817,"ual":16588,"ivid":10508,"uali":16591,"alid":5739,"mbo":11828,"boi":6664,"comb":7127,"iu ":10480,"rmad":14745,"como":7131,"omot":13306,"moti":12055,"otiv":13649,"uas ":16602,"rua":15012,"carr":6840,"agen":5577,"sag":15205,"sage":15206,"agem":5576,"gem ":9141," ofi":1402,"inf":10150,"nfa":12453," inf":986,"infa":10151,"nfan":12454,"fant":8892,"11,":4766,"11, ":4767,"coma":7126,"nen":12419,"te-":15992,"oro":13551," ten":1818,"tene":16045,"enen":8314,"nent":12421,"onel":13355,"rcu":14399,"scr":15284,"riv":14693,"is,":10336,"escr":8609,"scri":15286,"riva":14694,"ivan":10499,"anis":5921,"is, ":10337,"ndan":12332,"dant":7358,"íci":18260,"polí":14040,"anç":5979,"ça ":18110,"uran":16924,"ranç":14332,"ança":5980,"nça ":12905,"ca,":6791,"ica,":9728,"ca, ":6792,"sec":15304," sec":1673,"esco":8608,"scol":15278,"cola":7119,"gua":9320,"angu":5911,"ngua":12496,"guar":9321,"uard":16597,"arda":6071," emb":703,"emba":8243,"mbar":11818,"io.":10234,"io. ":10235,"bé":6758,"mbé":11835,"bém":6759," tam":1803,"tamb":15931,"ambé":5822,"mbém":11836,"bém ":6760,"uir":16743,"egui":8037,"lgu":11321,"uns":16878," alg":282,"algu":5732,"lgun":11322,"guns":9336,"uns ":16879,"mem":11873,"bro":6704," mem":1234,"memb":11874,"mbro":11833,"nic":12517," mun":1275,"muni":12118,"unic":16861,"nici":12522,"icip":9762," rei":1584,"reit":14481," lic":1168,"gam":9091," gam":823,"leg":11244,"gad":9084,"dele":7419,"eleg":8172,"lega":11245,"gado":9085,"dis":7542,"to.":16249," dis":612,"dist":7548,"rito":14687,"to. ":16250," لي":3495,"ليل":26652,"يلة":27047,"اي":25691," ما":3497," :":215," : ":216,"دخ":25993,"خل ":25962," مس":3511,"مسل":26717,"رم":26097,"ي،":26974,"ي، ":26975,"صم":26223,"محا":26700,"بار":25708," ،":3263," ، ":3264,"وذ":26900,"باس":25709,"خدا":25951," باس":3338,"استخ":25527,"تخدا":25790,"خدام":25952,"دام ":25986," سي":3420,"سيا":26181,"يار":26982,"ارا":25512,"رات":26057,"ارات":25513,"رات ":26058,"لغ":26580,"غو":26342,"به":25749,"به ":25750,"كما":26446,"كما ":26447,"أص":25413,"صد":26215," أص":3276,"در ":25997,"رسا":26082,"سال":26143,"الة":25576,"رسال":26083,"الة ":25577," ص":3426,"جل":25883,"أب":25399,"بو":25752,"دع":25999," جم":3385,"جمي":25890,"ميع":26760,"يع ":27028,"جميع":25891,"ميع ":26761,"لمس":26615,"لمي":26625,"مين":26762,"المس":25646,"مين ":26763,"لل":26598," لل":3487," ض":3427,"حك":25929,"كو":26451,"لحك":26533,"اق":25549,"عرا":26294,"راق":26063,"اقي":25551,"قية":26413,"لعرا":26575,"عراق":26295,"لاح":26484,"اح ":25498,"والأ":26874,"يا ":26978,"جب":25869,"ن.":26765," كم":3478,"ن. ":26766,"تس":25797,"هج":26841,"جر":25878,"لله":26602,"إلي":25451,"لي ":26646," إلي":3293,"رض":26084,"ض ":26228,"رض ":26085,"ة\"":25764,"\" ":4343,"لخل":26537,"لاف":26488,"افة":25547,"ضي":26237,"لأر":26467,"الأر":25558,"يط":27025,"يسي":27021,"يها":27068,"ليها":26658,"يها ":27069,"تن":25824,"نظ":26800,"ظي":26266,"لتن":26515,"تنظ":25826,"نظي":26804,"ظيم":26267,"التن":25583,"تنظي":25827,"نظيم":26805,"ظيم ":26268," سو":3419,"سور":26177,"وري":26906,"ريا":26113,"سوري":26178,"اق ":25550,"والع":26876,"وقا":26930,"قال":26377," وقا":3558,"قال ":26378,"أي":25437,"يض":27023,"ضا":26229," أي":3287,"أيض":25438,"يضا":27024," أيض":3288,"ذه":26039,"هذه":26846,"ذه ":26040," هذه":3533,"هذه ":26847,"لحر":26532,"حرب":25922,"الحر":25595,"ليس":26651," حر":3392," تن":3377,"لدو":26540,"دول":26016,"ولة":26941,"الدو":25599,"لدول":26541,"دولة":26017,"ولة ":26942," بل":3352," يت":3573,"دت":25990,"تها":25830,"تها ":25831,"مش":26718," مش":3513,"يرا":27012,"را ":26053,"نها":26815," أنه":3284,"نها ":26816," به":3356,"نت":26780,"عات ":26272," حو":3394,"حول":25937,"ول ":26938,"ه.":26831,"ه. ":26832,"яг":25227,"рот":24097,"гом":21477,"прот":23820,"ць":24916,"ьо":25156," ць":3210,"цьо":24918,"ьог":25157," цьо":3211,"ього":25158,"су ":24389,"рст":24115,"втор":21383,"торс":24610,"рств":24116,"тво ":24483,"ох":23666,"ать":21035,"ох ":23667,"иц":22356,"ці":24922,"ії":25381,"мпо":22945,"поз":23762,"зиц":22064,"иці":22364,"ції":24933,"ії ":25382,"пози":23763,"озиц":23424,"ції ":24934,"еп":21850,"ту":24656,"уа":24691,"реп":23971,"епе":21852,"рту":24125,"арі":20985,"рі ":24164,"гру":21494,"упи":24765," гру":2677,"груп":21495,"ув":24697,"ису":22325,"ува":24699,"лос":22766,"ося":23635,"ся ":24419,"увал":24701,"вало":21207,"алос":20883,"nke":12595,"anke":5928,"phe":13944,"hel":9454,"elg":8180," —":4021,"— ":28900," — ":4022," щ":3235," що":3236," що ":3237,"вон":21342,"она":23519," вон":2635,"вона":21343,"она ":23520," є":3253," є ":3254,"пло":23747,"лод":22756," пло":2990,"дом ":21626," сп":3097,"іль":25331,"ьни":25145,"них":23099,"ільн":25333,"льни":22793,"ьних":25146,"них ":23100,"уси":24781,"сил":24221,"иль":22239,"ль ":22785,"дж":21567,"жа":21969,"-д":4589,"жо":22005,"-р":4594,"рд":23934,"тт":24652,"тс":24645,"-в":4586,"йм":22412," дж":2698,"джа":21568,"гер":21445,"ера":21860,"джо":21571,"жон":22006,"річ":24169,"ард":20962,"айм":20840,"джон":21572,"жонс":22007,"win":17466,"kis":10886," win":1999,"wind":17467," –":4019,"– ":28896," – ":4020,"rek":14484,"ekt":8142,"kto":10984," rek":1585,"rekt":14486,"ekto":8145,"ktor":10986,"orat":13497,"til":16164,"ntil":12797,"till":16168,"llen":11464,"(f":4457,"-d":4547," (f":40,"-de":4548,"ce,":6876,"fort":9012,"-de-":4549,"nce,":12285,"ce, ":6877,"niq":12565,"ue,":16672,"mart":11791,"rtin":14992,"tini":16181,"niqu":12566,"que,":14236,"ue, ":16673,"h,":9369,"kre":10955,"eic":8061,"ch,":6924,"h, ":9370,"krei":10956,"reic":14477,"eich":8062,"ich,":9748,"ch, ":6925,"nia":12512,"lst":11589,"kolo":10923,"olon":13248,"loni":11540,"onia":13371,"stil":15690,"til ":16165,"hri":9591,"chri":6977,"hris":9592,"isti":10389,"stia":15685,"tian":16132,"ian ":9688,"hau":9423,"vet":17216," hau":907,"ette":8719,"uk":16765,"duk":7695,"ukt":16771,"kti":10982,"oduk":13100,"ktio":10983,"998":5332,"1998":4928,"ah":5600,"tau":15965,"sst":15639,"rah":14299,"ahl":5607," ers":726,"rsta":14957,"auss":6324,"ung ":16856," am ":292,"1.":4750,"1. ":4751,"ро ":24051,"про ":23811,"дже":21569,"ння":23133,"ня ":23243,"твер":24478,"джен":21570,"женн":21987,"ення":21827,"ння ":23134,"ку ":22608,"пере":23727,"обі":23301,"мобі":22921,"обіл":23302,"біль":21183,"іг":25304,"г ":21424,"дор":21629,"орі":23602," дор":2712,"заг":22017,"гал":21430," заг":2755,"агал":20780,"ьног":25149,"кор":22559,"сту":24377,"тув":24658," кор":2836,"кори":22560,"орис":23575,"исту":22324,"тува":24659,"уван":24702,"ванн":21214,"ання":20932,"рж":23980,"дер":21559,"ерж":21878,"ржа":23981,"жав":21970,"авн":20764," дер":2696,"держ":21562,"ержа":21879,"ржав":23982,"авно":20766,"вног":21312," зн":2773," зна":2774,"ченн":24959,"каб":22445,"нет":23060,"мі":22961,"ів":25295," мі":2898,"мін":22963,"іні":25344,"ніс":23264,"трі":24644,"рів":24165,"ів ":25296,"ніст":23265,"стрі":24374,"рів ":24166,"аї":21082,"їн":25392,"раї":23916,"аїн":21083,"їни":25393,"краї":22577,"раїн":23917,"аїни":21084,"тан":24455,"ано":20934,"оста":23623,"стан":24337,"тано":24459,"анов":20936,"нова":23145,"ік ":25327,"ід":25305,"від":21415,"ід ":25306," від":2655,"від ":21416,"16":4804,".0":4611,"09":4732,".2":4615," 16":108,"16.":4807," №":4028,"71":5155," im ":977,"erb":8452,"bst":6720,"beg":6549,"nn ":12622," beg":405,"bega":6550,"egan":8006,"ann ":5937," mit":1251,"mit ":11974,"den ":7429,"hz":9634,"zl":17890,"l-":11089,"zü":17985,"üg":18403,"sic":15395,"clas":7095,"lass":11150,"assi":6197,"ssic":15626,"nach":12211,"ach ":5446,"30 ":5010," 30 ":173,"jah":10638,"ahr":5611," jah":1022,"jahr":10639,"ahre":5613,"hren":9588,"ren ":14500,"rne":14776,"neu":12442,"eut":8750,"erne":8523,"v,":17110,"v, ":17111,"zu":17934," zu":2101,"zum":17938,"umi":16823," zum":2103,"mind":11956,"fl":8981,"gs":9308,"sz":15811,"flu":8987,"lug":11628," aus":357,"gen.":9146,"009":4683,"09 ":4733,"2009":4963,"009 ":4684,"wu":17523," wu":2012,"wur":17524," wur":2013,"wurd":17525,"urde":16933,"eiz":8103,"zei":17820,"erk":8507,"ehr":8048,"hr ":9581,"frei":9028,"zeit":17822,"verk":17202,"erke":8509,"ehr ":8049," „":4024,"tak":15912,"kt ":10974,"akt ":5682,"xpr":17581,"ss ":15609," rad":1570,"rade":14288,"expr":8801,"ess ":8651,"tä":16515,"äl":18098,"“ ":28908," ey":753,"eya":8809,"auf":6304,"ufg":16701," auf":355,"aufg":6306,"geno":9151,"enom":8344,"nomm":12668,"mmen":12001," und":1894,"und ":16844,"itt":10450,"wei":17419,"eis":8094,"ritt":14688,"weis":17421,"eise":8096,"sg":15373,"usg":16987,"sge":15374,"ewe":8781,"tet":16082,"et.":8675,"ausg":6323,"usge":16988,"gewe":9176,"weit":17422,"eite":8100,"itet":10423,"et. ":8676,"sei":15317," sei":1676,"seit":15320,"eit ":8099,"hrt":9595,"alle":5753,"- ":4522,"sonn":15546,"eie":8066,"eier":8067,"iert":9881,"vom":17293," vom":1951,"vom ":17294," 1.":90," 1. ":91," mai":1217,"bis ":6626,"zum ":17939," dri":642,"itte":10451,"tten":16401,"nnt":12640,"ag ":5570,"tag ":15902," ok":1404,"okt":13195,"tob":16253,"obe":13005,"er.":8439," okt":1407,"okto":13196,"ktob":10985,"tobe":16254,"ober":13007,"er. ":8440,"dab":7326,"bei":6554,"bei ":6555,"pen":13909," pen":1482,"pend":13912," ei":690,"ein":8079," ein":692,"ein ":8080,"ieb":9827,"wag":17378," tri":1851,"rieb":14618,"zw":17947," zw":2107,"zwe":17949,"tun":16443," zwe":2108,"zwei":17950,"eist":8097,"istu":10392,"unde":16846,"nden":12340,"zwi":17951,"wis":17473," zwi":2109,"zwis":17952,"wisc":17474,"sche":15266,"chen":6943,"hen ":9460,"echi":7882,"hing":9513,"inge":10158,"esb":8603,"sba":15250,"bah":6492,"ahn":5609,"hn ":9540," lan":1146,"bahn":6493,"(k":4463,"uc":16620,"hs":9599,"ck":7071," (k":46,"kur":11007,"sbu":15252,"buc":6726,"uch":16628,"chs":6979,"hst":9602,"eck":7894,"cke":7078,"kurs":11008,"chst":6982,"trec":16336,"reck":14453,"ecke":7895,"67":5134,"7)":5145,"sä":15827,"äc":18093,"upt":16909,"äch":18094,"chl":6958,"hli":9530,"chli":6960,"lich":11347,"ich ":9747,"eine":8083," his":930,"stor":15709,"tori":16292,"oris":13532,"risc":14677,"nb":12274,"an-":5867,"enb":8296,"nbu":12278,"chie":6951,"iene":9865,"zt":17930,"etz":8727,"tzt":16499,"zt ":17931,"eing":8084,"nges":12477,"gese":9170,"setz":15357,"etzt":8728,"(d":4452," (d":36,"fri":9030,"uf ":16698," fri":806,"ista":10387,"tabl":15886,"auf ":6305,"rz":15076,"fah":8881,"hrz":9597,"rze":15080,"zeu":17846,"eug":8736,"uge":16710,"fahr":8882,"euge":8737,"eß":8830,"ße":18011,"ieß":9905,"ßen":18013," ans":308,"schl":15268,"ließ":11361,"rka":14706,"kau":10815,"b ":6477,"ab ":5399," ab ":226,"dur":7702,"urc":16929," dur":651,"durc":7704,"urch":16931,"rch ":14393,"oder":13077,"dern":7455,"rne ":14777,"egi":8016,"o-s":12978,"hut":9628,"ttl":16410,"tle":16222,"regi":14470,"egio":8018,"ttle":16411,"tle ":16223,"rse":14940,"erse":8544,"rde.":14413," wei":1985,"hrte":9596,"rten":14982,"bt":6721,"gib":9196,"bt ":6722," gib":852," es ":728,"äh":18096,"ähr":18097,"hai":9389,"iger":9933,"her ":9465,"stk":15696,"tki":16216,"kin":10878,"ndl":12356,"sma":15500,"rkt":14716,"kind":10880,"tige":16158,"lä":11673,"än":18099,"län":11674,"seh":15316,"ehe":8042,"ehen":8043,"inen":10147,"nen ":12420,"-m":4567,"inu":10214,"nut":12855,"minu":11962,"inut":10215,"uten":17021,"uss ":17000,"uri":16945,"ika":9993,"bot":6678," tou":1846,"tour":16306,"uris":16949,"ikan":9996,"gebo":9124,"zu ":17935," zu ":2102,"lr":11574,"opo":13463,"lre":11575,"trop":16358,"ropo":14860,"opol":13465,"gion":9215,"tg":16092," stu":1748,"tutt":16459,"äu":18107,"uba":16607,"or.":13486," vor":1954,"or. ":13487,"'s":4412,"inn":10186,"eso":8638,"sot":15559,"'s ":4413,"minn":11960,"inne":10187,"nnes":12632,"stat":15666,"tate":15960,"ate ":6232," are":327," spr":1737,"spre":15594,"ead ":7813,"acr":5470,"oss":13611,"cros":7191,"ross":14868,"oss ":13612,"suc":15761," suc":1756,"such":15763,"uch ":16629,"hat":9420,"that":16098,"hat ":9421,"here":9467,"thin":16111,"hin ":9509," 50":192," 50 ":193,"80 ":5187,"m)":11714,"m) ":11715," ev":741,"ery":8574," eve":743,"very":17211,"ery ":8575,"ecen":7875,"eat":7835,"crea":7181,"reat":14447,"eate":7836,"lak":11120,"ake":5668,"ake ":5669,"verm":17204,"ilio":10037,"k,":10771,"rk,":14704,"k, ":10772,"rk, ":14705,"0.":4653,"10.":4757,"0. ":4654,"10. ":4758,"ly":11661,"cur":7244,"ntl":12803,"tly":16229,"ly ":11662," cur":548,"entl":8367,"tly ":16230,"rang":14325,"nge ":12473,"anz":5975,"nz ":12884,"ranz":14331," je":1028,"18 ":4827,"(4":4442," (4":28,"48 ":5064," to ":1837," sai":1648,"int ":10207,"ix ":10521," 34":179,"37 ":5026,",7":4519,"77":5167,"13,":4783,"74 ":5162,"a).":5365,"a). ":5366," tw":1862,"two":16476,"wo ":17490," two":1864,"two ":16477,"ncl":12306,"lud":11623," inc":984,"incl":10130,"nclu":12307,"clud":7102,"lude":11624,"ude ":16652,"reso":14532,"sour":15562,"urce":16930,"list":11413,"sted":15673,"atu":6280,"natu":12262,"atur":6283,"(b":4448," (b":32,"bog":6662,"og ":13132," bog":435,"ecr":7904,"ecre":7905,"eati":7837,"area":6081,"rea ":14442,"ca ":6790," ita":1004,"k)":10770,"six":15448,"nco":12308," enc":708,"enco":8302,"ass ":6194,"oric":13526,"ric ":14603,"harl":9413,"arle":6106,"rles":14730," a.":222,"db":7376,"erg":8480,"lind":11389,"berg":6575,"sn":15509,"g,":9074," sn":1716,"sne":15511,"ng,":12466,"g, ":9075,"nell":12413,"llin":11475,"ling":11391,"ing,":10156,"ng, ":12467,"mill":11950,"cs":7194,"cs ":7195,"kath":10813,"st.":15651," st.":1742,"st. ":15652,"oud":13673,"dan ":7352,"rgr":14577,"gro":9298,"rou":14876,"oun":13685,"derg":7452,"ergr":8485,"grou":9300,"roun":14879,"ound":13687,"ine,":10142,"lit ":11415,"ock":13049,"ck ":7072," roc":1610,"rock":14809,"ock ":13050,"ght":9190,"tho":16113,"ligh":11369,"ight":9936,"thou":16117,"hous":9576,"ouse":13698,"use ":16983,"s).":15179,"s). ":15180,"52":5089,"52 ":5090,"ites":10422," or ":1433,"ict":9781,"tric":16347,"rict":14610,"34 ":5020,"ota ":13633,"gis":9219,"egis":8019,"gist":9220," pla":1499,"plac":13990,"lace":11104,"rh":14579,"p)":13829,"ludi":11625,"udin":16658," 22":152,"22 ":4976," 22 ":153,"pm":14006,"lop":11543,"velo":17177,"elop":8210,"ruc":15015,"uct":16640,"cte":7199,"truc":16364,"ruct":15017,"cted":7201," by":461," by ":462,"dea":7394,"eal":7817,"al-":5698," dea":582,"ob ":13001,"ams":5852,"ms ":12097,"gram":9287,"930":5239,"1930":4855,"rok":14830,"oku":13198," rok":1613,"roku":14832,"oku ":13199,"952":5267,"1952":4878,"yl":17672,"byl":6747,"ylo":17680," byl":463,"bylo":6750,"ylo ":17681,"zem":17831,"emí":8279,"ln":11502,"kot":10940,"ote":13637,"eln":8205,"lní":11509,"níc":12922,"ích":18258,"teln":16027,"ních":12923,"ích ":18259,"jam":10644," jam":1024,"loz":11565,"oze":13787,"01 ":4687,"rů ":15166,"yh":17660,"át":18063,"tn":16237,"tát":16509,"tní":16243," stá":1750,"stát":15738,"tní ":16244,"ír":18279,"odn":13084,"dní":7592,"rodn":14812,"odní":13086,"dní ":7593,"cí":7286,"rez":14552,"eze":8818,"zer":17838,"ací":5484,"cí ":7287,"reze":14553,"mim":11952,"imo ":10096,"jin":10696," jin":1041,"pro ":14119," oc":1387,"hra":9582,"nu ":12829," och":1390,"hran":9584,"vz":17331,"zá":17975,"ác":18021,"cn":7105," vz":1962,"dru":7663,"ruh":15023," dru":644,"druh":7665,"stl":15697,"tli":16225," ros":1617,"rost":14869,"stli":15699,"tlin":16227,"nap":12245,"apř":6035,"lad":11107,"např":12246,"klad":10895,"lad ":11108,"dí":7745,"voz":17307,"ozd":13785,"py":14184,"yš":17759,"ý,":18454,"ý, ":18455," zl":2091,"zla":17891,"ohl":13154,"ek,":8127,"lato":11157,"ek, ":8128,"ka ":10777,"anka":5927,"kv":11013,"ět":18582,"rci":14396,"sok":15528,"vět":17358,"arci":6067,"ká":11024,"ám":18038,"mik":11946,"vs":17317,"tř":16563,"tý":16541,"vst":17319,"stř":15752,"tří":16567,"olis":13234," kar":1072,"arec":6082,"ech ":7879,"vys":17327,"ysk":17720,"sky":15475,"ytu":17729,"tuj":16437,"ují":16760," vys":1961,"ují ":16761,"zb":17799," zb":2076,"vc":17156,"cov":7170,"výc":17350," led":1156,"ovýc":13744,"vých":17351,"hy":9632,"hy ":9633,"ají":5657,"ají ":5658," mí":1288,"mís":12153,"sty":15732," mís":1289,"míst":12154,"klo":10904," skl":1708,"až":6465,"ž ":18827," až":378,"až ":6466," až ":379," 45":188,"45 ":5058,"ů.":18802,"ů. ":18803,"ním":12927,"ími":18273,"ími ":18274,"mam":11764,"amam":5813,"ami ":5830,"ved":17166," ved":1924,"vede":17168,"zel":17826,"ená":8384,"ná ":12892," zel":2082,"zele":17828,"elen":8175,"ick":9765,"ká ":11025," tur":1857,"turi":16450,"tick":16140,"zn":17896,"čk":18522," zn":2093,"zna":17897,"nač":12270," zna":2094,"dv":7713," dv":652,"dvo":7715,"orn":13545,"rní":14789,"rní ":14790,"eč":8840,"íse":18281,"zim":17876,"ji ":10691,"vš":17360,"ša":18779," vš":1969,"vša":17361,"šak":18780," vša":1970,"však":17362,"šak ":18781,"ská":15476,"ská ":15477," slu":1714,"ěk":18567,"kd":10823,"dy":7720," ně":1371,"něk":12951,"kdy":10826,"dy ":7721," něk":1372,"kdy ":10827," uz":1912,"uza":17072," uza":1913,"dů":7779,"ův":18809,"ůvo":18810,"ůvod":18811,"odu ":13098,"zp":17925,"ebe":7851,"bez":6590,"avin":6347,"lní ":11510," já":1062,"my ":12129,"ež":8860,"ží":18839,"zh":17855,"ozh":13789,"rozh":14895," 2.":144," 2. ":145,"néh":12913,"ného":12914,"oš":13820,"rko":14714," ná":1362,"nár":12895,"áro":18056,"náro":12896,"árod":18057,"rku":14717," js":1052,"jso":10734," jso":1053,"jsou":10735,"sou ":15561,"uč":17090,"čá":18531,"ouč":13712,"čás":18532,"ást":18062,"stí":15741,"tí ":16526,"souč":15565,"část":18533,"stí ":15742,"zle":17892,"leh":11248,"lé ":11678,"eny":8378," pra":1525,"eny ":8379,"lab":11101," lab":1144,"els":8214,"lsk":11585,"tels":16029,"elsk":8216,"tok":16265,"ít":18284,"ky.":11022,"ky. ":11023,"рои":24078,"оиз":23434,"изв":22179,"зво":22046,"вод":21328,"прои":23817,"роиз":24079,"оизв":23435,"изво":22181,"звод":22047,"водс":21330,"одст":23393,"мл":22909,"л-":22638,"-2":4528," мл":2883,"мл-":22910,"л-2":22639,"-20":4529,"20 ":4949," мл-":2884,"мл-2":22911,"л-20":22640,"-20 ":4530,"вел":21236,"ось":23633," вел":2611,"лось":22767,"ось ":23634,"ьк":25130,"тол":24597,"льк":22789,"ько":25137,"ко ":22518," тол":3139,"ольк":23488,"лько":22791,"ько ":25138,"зав":22014," зав":2754,"заво":22016,"авод":20768,"72":5157,"172":4818,"72 ":5158,"ерм":21888,"рми":24038,"ды":21657,"ы.":25091,"оды":23396,"ы. ":25092,"ме ":22863,"бу":21152," бу":2593,"кси":22590,"сир":24225,"иру":22303,"уди":24712," ору":2963,"руди":24133,"ыло":25106,"было":21179,"ыло ":25107,"ущ":24812,"ще":25037,"уще":24813,"щен":25039," ок":2951," око":2952,"окол":23453,"коло":22545,"оло ":23479,"40":5045," 40":186,"400":5047," ств":3105,"олов":23480,"аж":20807,"онт":23538,"нта":23195,"ажа":20808," мон":2892,"лл":22736,"йс":22421,"охо":23668,"одн":23384,"дно":21609,"но-":23142,"арт":20976,"тил":24545,"илл":22234,"лле":22737,"лер":22692,"рий":24000,"ийс":22206,"йск":22422,"оход":23669,"одно":23387,"арти":20978,"ийск":22207,"йски":22423,"уст":24788,"овк":23330,"вка":21287," уст":3167,"уста":24789,"ках ":22468,"(с":4489," (с":69," су":3111,"152":4800," ис":2799,"все":21370,"24":4979,"42 ":5052,"70 ":5153,"2,":4943,"2, ":4944,"ное":23154,"очно":23685,"ное ":23155,"исло":22311,"рь":24158," ва":2607,"вар":21216," вар":2608,"зл":22068,"азл":20822,"зли":22069,"ичн":22374,"чны":24992,"разл":23874,"азли":20823,"злич":22070,"личн":22727,"ичны":22378,"чных":24993," ист":2801,"ее":21719,"емн":21798,"иком":22220,"ком ":22548,"ала":20865," ста":3104,"стал":24336,"тала":24450,"ала ":20866,"мм":22912," 152":107,"шк":25019,"-г":4587," пу":3014,"пуш":23831,"ушк":24810,"шка":25020,"уби":24694,"ица":22357,"ца ":24886," пуш":3016,"пушк":23832,"ица ":22358,"вш":21396,"яс":25253,"нах":23011,"ахо":21049,"оди":23379,"див":21576,"ивш":22144," нах":2915,"нахо":23012,"аход":21050,"ходи":24873,"сер":24212,"йно":22416," сер":3073,"ве ":21231,"стве":24342,"тве ":24476,"956":5271,"1956":4882,"да.":21512,"да. ":21513,"нно":23123," дан":2685,"данн":21521,"анно":20930,"дие":21577,"мел":22868,"ело ":21779," ид":2782,"тич":24556,"ную":23214,"ую ":24816,"тичн":24558,"ную ":23215,"у.":24689,"бал":21092,"лис":22716,"тик":24542,"ику":22223,"ку.":22611,"у. ":24690," бал":2576,"лист":22717,"исти":22321,"ку. ":22612," w ":1973,"wic":17452,"cca":6862,"cz":7259,"ym":17684," ek":693,"kle":10898,"lek":11257,"kty":10990,"tyc":16485,"ycz":17634,"czn":7267,"zny":17904,"nym":12880,"ym ":17685,"ekle":8137,"lekt":11258,"tycz":16487,"yczn":17635,"czny":7270,"nym ":12881,"(r":4472," (r":54,"acz":5482,"cze":7263,"ej ":8106,"acze":5483,"zej ":17824,"żn":18823," ró":1633,"nyc":12878,"ych":17629,"nych":12879,"ych ":17630,"urt":16965," nur":1361,"tach":15889,"ws":17512,"pó":14194,"ół":18343," ws":2011,"wsp":17516,"spó":15600,"pół":14197,"zes":17842,"esn":8637,"neg":12400,"czes":7266,"nego":12401,"ego ":8027,"ań":6450,"ńs":18711,"ańs":6451,"stw":15729,"twa":16470,"wa ":17371,"stwa":15730,"twa ":16471,"ow":13746,"nsp":12747,"spi":15582,"pir":13973,"row":14889,"owa":13748,"wan":17385,"insp":10204,"nspi":12748,"spir":15584,"rowa":14890,"owan":13751,"wane":17386,"yż":17762,"pow":14072,"owy":13771,"sze":15817," pow":1521,"sad":15202,"ady":5535,"ady ":5536,"nie ":12531,"są":15849,"ą ":18491," są":1794,"prz":14136,"trz":16369,"zeg":17818,"ne.":12386," prz":1530,"prze":14137,"rzes":15088,"zest":17844,"strz":15719,"trze":16370,"ne. ":12387,"ię":10593,"ęg":18545,"ę ":18535," ks":1115,"ksi":10970,"się":15455," cie":507,"cien":7021,"ieni":9866,"eni ":8325,"oż":13821,"moż":12062," moż":1269,"ną":12944,"ć ":18508,"zac":17773,"rpn":14903," zac":2064,"czer":7265,"dow":7643,"owo":13766,"wol":17496,"oln":13244,"lne":11505," dow":637,"ód":18314,"dł":7776,"ła":18687,"ród":15136,"ła ":18688,"ąd":18501,"naw":12266,"ać":6432,"pis":13975,"ać ":6433," nap":1308,"apis":6010,"pisa":13976,"ją":10757,"ją ":10758,"emu":8276," sam":1650,"same":15220,"stn":15701,"tni":16240,"iej":9845,"eje":8113," ist":1001,"stni":15702,"tnie":16242,"niej":12532," co ":520,"naj":12225," naj":1306,"iej ":9846,"lk":11433,"ilk":10043,"lka":11435,"iko":10004,"kow":10945,"any":5972,"blik":6648,"kowa":10946,"wany":17389,"anyc":5974,"sj":15457,"wers":17435,"gi ":9193,"isan":10342,"uż":17100,"ży":18826,"uży":17101,"só":15838,"ób":18312,"osó":13628,"sób":15839," osó":1444,"osób":13629,"yk":17667,"ąc":18494,"cy":7253,"ują":16763,"jąc":10759,"ący":18497,"cyc":7255,"rakt":14307,"ując":16764,"jący":10762,"ącyc":18499,"cych":7256,"zne":17900,"czne":7268,"lsc":11583,"pols":14039,"sce ":15261,"dz":7728,"rdz":14431,"dzi":7731,"zie":17867,"bard":6508,"dzie":7733,"eż":8858,"leż":11313,"kam":10792," kam":1069,"kami":10794,"amie":5832,"mien":11939,"cot":7164," sco":1664,"scot":15283,"cott":7165,"otta":13661,"tta ":16394,"unn":16871,"ngh":12478,"gha":9187,"ma,":11726,"nnin":12636,"ma, ":11727,"jeg":10669," jeg":1032,"jego":10670,"ią":10586,"sią":15454,"zew":17847,"wod":17491,"dni":7584,"nik":12547,"rzew":15089,"zewo":17848,"wodn":17492,"odni":13085,"nik ":12548," dl":617,"dla":7570," dla":618,"dla ":7571,"otn":13650,"samo":15222,"otni":13651,"”.":28916,"mag":11741,"”. ":28917," mag":1215,"magi":11743,"ną ":12945," inn":989,"zy":17955,"yw":17734," wy":2014,"wyk":17534,"yko":17670,"orz":13582,"rzy":15093,"zys":17963,"yst":17724,"ywa":17735," wyk":2017,"wyko":17535,"rzys":15096,"zyst":17965,"ywan":17736,"jes":10683," jes":1037,"jest":10684,"lib":11340,"ibe":9711,"libe":11341,"iber":9712,"ber ":6572,"” ":28913,"aru":6147,"rum":15032," dor":632,"vali":17131,"alie":5740,"lien":11358,"nte,":12779,"jej":10673," jej":1034,"jej ":10674,"tc":15983,"hc":9431,"itc":10413,"tch":15985,"cra":7176,"raf":14294,"aft":5564,"aft ":5565,"for ":9005," tom":1840,"tomo":16275,"omor":13305,"kż":11063,"że":18821,"akż":5691,"kże":11064,"że ":18822," tak":1801,"takż":15918,"akże":5692,"kże ":11065,"eto":8707,"tow":16310,"owe":13753,"we ":17410,"rnet":14779,"towe":16312,"owe ":13754,"ąg":18502,"iąg":10588,"ni,":12508,"ni, ":12509,"ór":18325," kt":1116,"któ":10991,"tór":16532,"óre":18327," któ":1118,"któr":10992,"tóre":16533,"ane ":5900,"zez":17850,"ez ":8816,"rzez":15090,"zez ":17851,"ch.":6927,"znyc":17905,"ych.":17632,"ch. ":6928,"mg":11915,"ラー":29274,"ーマ":29309,"ャン":29266,"ディ":29249,"ラン":29273,"、ア":28931,"ナー":29254,"ード":29308,"ライ":29270,"後、":29425,"ドラ":29252,"ヴィ":29296,"し、":29017,"、1":28922,"2年":4995,"イン":29217,"とな":29102,"なり":29126,"87":5202,"mk":11986,"ジャ":29234,"との":29107,"あっ":28964,"9年":5336,"たこ":29045,"代表":29347,"とと":29101,"、19":28923,"972":5294,"した。":29022,"た。1":29039,"977":5299,"なり、":29127,"198":4908,"987":5311,"iad":9672,"であっ":29082,"あった":28965,"989":5315,"たこと":29046,"となっ":29103,"った。":29058,"1972":4900,"1977":4905,"1987":4916,"であった":29083,"1989":4918,"となった":29104,"なった。":29122,"った。 ":29059,"soa":15518,"oas":12997," pes":1484,"pess":13930,"cont":7145,"ontr":13411,"tra ":16318,"muc":12105,"uck":16636," muc":1271,"cker":7080,"sara":15234,"aram":6054,"ssin":15630,"sina":15425,"inad":10120,"imes":10085,"mes ":11894,"ibu":9720,"atri":6269,"trib":16346,"ribu":14601,"aos":5994," aos":313,"aos ":5995," 4 ":185,"aio":5632,"maio":11750,"aio ":5633,"187":4835," 187":124,"iã":10556,"eun":8741,"ião":10557," reu":1593,"ião ":10558,"casa":6844,"asa ":6169,"mau":11806,"aur":6317,"rer":14521,"aure":6318,"enç":8385,"tim":16169,"stim":15691,"tima":16171,"mada":11737,"100 ":4760," 500":194,"as.":6166,"as. ":6167,"cob":7115,"obi":13008,"bina":6618,"ina ":10116,"unc":16837," anu":310,"anun":5969,"nunc":12847,"unci":16839,"ncio":12302,"mund":12116," ord":1435,"nou ":12689,"xt":17582,"ext":8802,"xte":17583,"mín":12152," ext":752,"exte":8803,"dez":7481," dez":599,"deze":7482,"eis ":8095,"íl":18269,"íli":18270,"lia":11334,"ias":9696,"ias ":9697,"nim":12553,"mig":11942,"iga":9926,"gas":9103,"inim":10176,"mass":11795,"sacr":15201,"lia ":11335,"kas":10808,"el.":8152," kas":1073,"asse":6196,"ssel":15619,"el. ":8153,"rer ":14522,"eve ":8764,"eta":8677,"cret":7183,"reta":14539,"ado.":5521,"25 ":4982," 25 ":159," cat":486,"ator":6264,"orze":13583,"rze ":15081,"gos":9273,"migo":11943,"gos ":9274,"eim":8077,"mort":12050,"clus":7103,"lusi":11646,"usiv":16992,"ive ":10502,"ças":18115,"cria":7185,"मु":27848,"ुन":28601,"न्":27672,"्द":28792,"दु":27586,"ुम":28604," मु":3888,"न्द":27674,"ने":27667,"ेर":28667,"रि":27981," ने":3810,"ेरि":28668,"रिय":27987,"सा":28224,"ाड":28364," सा":3984,"जो":27421," जो":3746,"जो ":27422," जो ":3747,"ेव":28670,"वल":28084,"ल ":28031,"ेवल":28671," ए":3646,"एक":27221," एक":3647,"एक ":27222," एक ":3648,"पा":27716,"रं":27913,"ंप":27125,"पर":27703," पा":3827,"पार":27719,"ारं":28414,"परि":27705,"रिक":27982," पार":3828,"परिक":27706,"रिक ":27983,"पो":27732,"ाक":28355,"रल":27957,"दक":27562,"क्":27305,"्ष":28872,"षि":28161,"िण":28478,"ण ":27467," दक":3779,"दक्":27563,"क्ष":27314,"्षि":28878,"षिण":28162," दक्":3780,"दक्ष":27564,"क्षि":27317,"्षिण":28879,"हि":28280,"ला":28042,"ाओ":28352,"ओं":27227,"हिल":28282,"िला":28519,"ाओं":28353,"ओं ":27228,"ाओं ":28354,"शर":28134,"री":27991,"ीर":28568," शर":3956,"ीर ":28569,"िच":28475,"चल":27361," नि":3805,"िस":28536,"स्":28246,"्स":28882," हि":4000,"िस्":28543,"वर ":28080,"ाच":28359,"ची":27371,"ीन":28563,"्रा":28843,"चीन":27372,"ीन ":28564,"प्रा":27744,"ूप":28620,"प ":27685," रू":3920,"रूप":27998,"ूप ":28621," रूप":3921,"रूप ":27999,"की":27285," की":3683,"की ":27286," की ":3684,"सब":28203,"बस":27769," सब":3974,"सबस":28204,"बसे":27770," सबस":3975,"सबसे":28205,"बसे ":27771,"पु":27725," पु":3831,"पुर":27726,"ुरा":28606,"रान":27974,"ाना":28385,"ना ":27646," पुर":3832,"ाना ":28386," अ":3587,"अव":27165,"वश":28085,"शे":28146,"ेष":28675,"ष ":28156," अव":3606,"शेष":28147,"ेष ":28676,"शेष ":28148,"ु ":28576,"मू":27851,"ूल":28627," मू":3890,"ूल ":28628," ट":3751,"ुक":28583,"कड":27238,"ड़":27454,"़ा":28322,"कड़":27239,"ड़ा":27456,"़ा ":28323,"ड़ा ":27457,"ै ":28681,"है ":28300," है ":4008," य":3896," या":3902," या ":3903,"कम":27250," कम":3666,"कम ":27251," कम ":3667,"िध":28492,"धा":27612," पर":3819,"धान":27613," परि":3821,"धान ":27614,"मल":27821,"लय":28039,"ाल":28430,"याल":27893," '":18,"' ":4370,"ुनि":28602,"अर":27162,"्थ":28785,"थ ":27539,"अर्":27163,"र्थ":28018,"्थ ":28786,"कप":27247,"पड":27688,"़े":28327," कप":3664,"कपड":27248,"पड़":27689,"ड़े":27460," कपड":3665,"कपड़":27249,"जब":27387,"बक":27757,"ि ":28459," जब":3728,"कि ":27278," ऊ":3645,"री ":27992," च":3716,"चि":27369,"िह":28545,"ह्":28319,"्न":28797," चि":3720,"hw":9629,"hwa":9630," sw":1772,"ct ":7197,"ect ":7907,"vat":17150,"acti":5474,"ivat":10500,"vati":17153,"cap":6828,"aps":6027," cap":483,"icin":9760,"cep":6905,"pto":14158,"cept":6906,"epto":8423,"tors":16295,"ors ":13562,"duc":7687,"oduc":13099,"duct":7690,"yg":17657,"s:":15189,"ipo":10280,"ase":6174,"s: ":15190," lip":1176,"enas":8294," end":709,"ogen":13135,"ike":9997,"like":11377,"ike ":9998,"sub":15759," sub":1755,"subs":15760,"tanc":15937,"oc ":13030,"proc":14121,"atl":6256," aca":236,"acad":5434,"sci":15273,"ci ":7000," sci":1663," us":1904," usa":1905,"0).":4647,"(200":4440,"з ":22010,"ука":24733,"каз":22449,"аз ":20814,"83":5194," 58":197,"бр":21138,"р.":23849,".3":4616,"/1":4638,"04":4714,".1":4614,"81":5190," бр":2589,"14.":4792,"981":5305,"81 ":5191,"1981":4910,"г. ":21426," г. ":2660,"тд":24489,"отд":23643,"тде":24490,"еля":21785," отд":2971,"отде":23644,"тдел":24491,"еля ":21786,"с.":24174," с.":3055,"с. ":24175," с. ":3056,"лом ":22761,"а)":20729,"чер":24960,"рко":24031,"вна":21303,"а) ":20730," чер":3219,"ерко":21887,"рков":24032,"овна":23334,"зе":22055," зе":2770,"зем":22056,"лищ":22729,"ище":22383," зем":2771," му":2895," му ":2896,"жи":21991,"раж":23868,"тър":24667,"рно":24045,"вели":21237,"елик":21773,"лико":22712,"ски ":24239,"ръ":24155,"ъг":25056," окр":2953,"ъе":25059,"яв":25219,"иня":22282,"няв":23248,"ява":25220,"прис":23807,"нява":23249,"ява ":25221," къ":2846," към":2847,"бя":21180,"яла":25241,"сен":24211,"енск":21832,"'au":4381,"'aut":4382,"teu":16084,"aute":6327,"teur":16085,"rés":15128," ce ":491,"rém":15126," leu":1164,"res.":14527,"peu":13937," peu":1486," pau":1475,"paul":13882,"ecu":7914,"cue":7227,"recu":14456,"eil ":8073,"ball":6499,"lade":11110,"çai":18111,"nçai":12906,"çais":18112,"aise":5641,"ises":10354,"lq":11571,"lqu":11572,"quel":14237,"lque":11573,"ques":14240,"ues ":16692,"vai":17124,"ains":5629,"ins ":10200,"aux":6330,"aux ":6331," eu":739,"soi":15527,"sy ":15804,"ssé":15645," ;":217," ; ":218,"fern":8927,"nand":12242,"lna":11504,"cast":6848,"aste":6203,"stel":15677,"rê":15130,"aim":5623,"jul":10741," jul":1058,"juli":10742," rom":1615,"roma":14842,"man ":11766,"ce.":6878,"nce.":12286,"ce. ":6879,"воб":21322,"бод":21128,"своб":24192,"вобо":21323,"обод":23289,"ода ":23370,"нор":23167," пан":2980," ан":2562,"анг":20909,"лий":22708," анг":2563,"англ":20910,"глий":21461,"лийс":22709,"eed":7960,"dom":7614,"free":9027,"nora":12675,"rama":14316," нем":2924,"t)":15865,"afr":5562,"heit":9453,"уз":24727,"кла":22505," кла":2823,"зак":22021,"ако":20855," зак":2757,"зако":22022,"акон":20857,"рско":24114,"ични":22376,"чни ":24987,"юр":25193,"кц":22621,"кци":22622,"ции":24903,"озв":23419,"оля":23492,"ляв":22810," поз":2998,"аван":20752,"анет":20917,"нето":23061,"пуб":23826,"убл":24695,"кув":22613," пуб":3015,"публ":23827,"убли":24696,"блик":21119,"кува":22614,"дни":21606,"одни":23386,"дни ":21607,"рб":23918," тв":3123,"би ":21105,"твор":24486,"фо":24838,"аф":21041," фо":3183,"огр":23364,"раф":23906,"афи":21042,"огра":23365,"граф":21490,"рафи":23907,"сн":24276,"оза":23418,"зас":22032,"асн":20993,"ема":21790,"ани ":20919,"карт":22462,"ини ":22268," др":2714,"рх":24146,"хи":24864,"арх":20980,"рхи":24148,"тек":24501,"кту":22605,"тур":24661,"урн":24776," арх":2569,"архи":20981,"ктур":22606,"турн":24663,"ади":20792,"ради":23867," ск":3079,"ску":24257,"ури":24775,"ри ":23985," ил":2789," или":2790,"уг":24704,"дру":21640,"руг":24129,"уги":24706,"ги ":21447," дру":2715,"друг":21641,"руги":24130,"кти":22597," обе":2939,"екти":21761,"зк":22067,"изк":22185,"вот":21353,"твот":24487,"вото":21354,"кои":22535,"оит":23436," кои":2831,"коит":22536,"оито":23437,"ито ":22344,"тоя":24616,"оян":23696,"осто":23626,"стоя":24367,"тоян":24617,"нно ":23124,"изл":22186," изл":2787,"ично":22377,"чно ":24990,"без":21098,"ез ":21728," без":2579," тов":3136,"ажд":20809,"жда":21975,"пора":23778,"ражд":23869,"ажда":20810,"жда ":21976,"ару":20979,"уше":24809,"шен":25007," нар":2912,"шени":25008,"во,":21320,"во, ":21321,"кое":22530,"оет":23405," кое":2830,"коет":22532,"оето":23406,"дъ":21652,"дър":21655,"ърж":25077,"държ":21656,"ържа":25078,"аки":20853,"ива":22132,"таки":24446,"ива ":22133,"ут":24792,"ът":25082,"ату":21032,"тут":24664,"ът ":25083,"стат":24339,"а“":21085," ог":2947,"ича":22367,"чав":24938,"гран":21489,"рани":23892,"чава":24939,"оси":23606,"сит":24228,"носи":23169,"осит":23607,"сите":24229,"ител":22337,"теля":24508,"рски":24113,"рава":23861,"дп":21633,"едп":21714,"дпр":21635,"рие":23996,"ием":22166,"еме":21793,"редп":23954,"еме ":21794,"мер":22874,"рки":24030," мер":2875,"ащ":21068,"ащи":21071,"щит":25047," си ":3075,"ср":24316,"щу":25052," ср":3101,"сре":24317,"рещ":23979," сре":3102,"срещ":24319,"дат":21524,"здат":22053,"дате":21526,"тели":24505,"зпр":22089,"рост":24096,"анит":20925,"виз":21263,"алн":20877,"лни":22743,"ални":20879,"лни ":22744,"обр":23292,"бра":21139,"аже":20811,"обра":23293,"ажен":20812,"хв":24862,"тит":24552,"вана":21211,"анат":20908,"тите":24553,"одат":23373,"дата":21525,"ачи":21064,"начи":23018,"вя":21411," яв":3245,"юче":25203,"люче":22807,"ючен":25204,"чай":24940," оби":2940,"вил":21268,"ило":22235,"рави":23862,"авил":20758,"лят":22818,"ят ":25256," има":2793,"има ":22244,"ючи":25205,"чит":24974,"елн":21775,"лно":22745,"чите":24976,"телн":24506,"елно":21777,"риз":23997,"изи":22184,"ране":23891,"анен":20916,"нени":23052,"dah":7336,"hl ":9525,"nord":12676,"orda":13506,"roa":14798,"oad":12988,"road":14799,"ved ":17167,"rth":14985,"orth":13569,"rth ":14986,"nty":12824,"coun":7167,"ount":13688,"tran":16327,"rans":14329,"rint":14662,"ght ":9191,"rai":14300,"ail":5620," rai":1572,"line":11390,"ine.":10143," it ":1003,"add":5499," lim":1174,"limi":11384,"san ":15224,"cos ":7162,"do,":7599,"dido":7505,"do, ":7600,"lif":11362,"ifo":9920,"alif":5741,"lifo":11365,"ifor":9921,"forn":9011,"orni":13549,"rnia":14781,"nia,":12514,"ilin":10036,"dres":7658,"ocat":13033,"cate":6852,"rha":14580,"ham ":9397,"rive":14695,"uto":17029,"auto":6328,"uto ":17030,"ad,":5488,"ad, ":5489,"oth":13643," bot":442,"wh":17440," wh":1991,"whi":17444,"hic":9487," whi":1993,"whic":17445,"hich":9489,"ters":16068,"sect":15306," ea":671,"eas":7832," eas":673,"east":7834,"miss":11971,"issi":10381,"ad.":5490,"ad. ":5491,"sts":15720,"nsis":12740,"gle":9232,"ingl":10160,"ngle":12483,"gle ":9233,"tf":16091,"rm ":14741,"plat":13994,"orm ":13541,"k.":10774,"ack":5463,"ck.":7075,"k. ":10775,"trac":16320,"rack":14281,"ck. ":7076,"спа":24306,"пас":23716,"аси":20991,"рана":23890,"ящ":25269,"редс":23955,"ие,":22161,"ние,":23074,"ие, ":22162,"азу":20830,"нав":22979,"разу":23879,"нава":22980,"ане ":20915,"еш":21959,"реш":23977," реш":3037,"иб":22128,"гн":21463,"риб":23991,"приб":23800,"посл":23781,"осле":23612,"ледн":22673,"въ":21398,"зм":22071," въ":2648,"въз":21401,"змо":22073," въз":2650,"можн":22928,"ожно":23416,"жнос":22004,"лам":22653,"аме":20894,"амен":20895,"мени":22871,"руск":24144,"скат":24235,"я.":25213,"ево":21684,"олю":23491,"ия.":22390,"я. ":25214,"рево":23944,"ия. ":22391,"мо ":22919,"пар":23714," пар":2981,"парт":23715,"ият":22396,"ята":25257,"ията":22398,"ята ":25258,"бол":21129,"шев":25006,"та,":24431," бол":2587,"ата,":21014,"та, ":24432,"рич":24020,"кате":22465,"ричн":24022,"епа":21851,"тив":24535,"иве":22136,"атив":21021,"вен ":21239," ге":2662," гер":2665,"ерма":21889,"рман":24036,"ния.":23112,"гол":21474,"лям":22814," гол":2671,"голя":21476,"олям":23493," вл":2624,"вли":21296,"иян":22394," вли":2626,"ияни":22395,"сред":24318,"ред ":23948,"ойн":23442,"йни":22415,"ниц":23101,"ици":22360,"те,":24494," вой":2633,"войн":21337,"ници":23103,"те, ":24495,"раб":23857,"бот":21136,"отн":23651,"тни":24575," раб":3026,"рабо":23858,"абот":20745,"лян":22815,"едни":21710," а ":2545," ли":2853,"зап":22027,"апо":20955,"поч":23785," зап":2761,"запо":22030,"апоч":20956," ш":3229,"шв":25003,"йц":22432," шв":3230,"цар":24887,"рия":24023,"ария":20967,"цю":24919,"х.":24855,"х. ":24856,"нско":23186,"ома":23501,"кома":22549,"оман":23502,"манд":22846,"тай":24441,"прев":23793,"дера":21560,"ера ":21861,"ики":22214,"док":21622,"лад":22651,"дит":21587," док":2708,"клад":22506,"дите":21588,"чан":24943,"пле":23745,"иви":22137,"вия":21284,"уга":24705,"тру":24641,"удн":24713,"ци ":24900,"труд":24642,"рудн":24134,"ици ":22361,"рез ":23958," със":3115,"к.":22437,"к. ":22438," вла":2625,"alk":5748,"lk ":11434," tal":1802,"taki":15915,"fot":9015,"ulo":16793," fot":801,"foto":9017,"oulo":13684,"ulos":16795,"abo":5419," abo":231,"abou":5421,"bout":6681,"out ":13700,"zat":17793,"izat":10540,"capi":6831,"ital":10408,"tali":15924,"ist ":10386,"arke":6101,"ket ":10852,"roj":14828,"jec":10665,"proj":14125,"roje":14829,"ojec":13177,"ject":10666,"emo":8265,"moc":12020,"ocr":13054,"acy":5479,"demo":7427,"emoc":8266,"mocr":12021,"ocra":13055,"crac":7177,"racy":14284,"iven":10504," at ":342,"niv":12582," uni":1896,"univ":16866,"nive":12583,"rsit":14947,"sity":15442,"ermo":8519,"rmon":14761,"996":5328,"6, ":5115,"1996":4926,"fol":8996,"oll":13237,"low":11563," fol":796,"foll":8998,"ollo":13241,"llow":11480,"lowe":11564,"disc":7543,"iscu":10349,"ussi":17003,"kc":10821,"boo":6671,"in,":10110," boo":439,"book":6672,"in, ":10111,"odo":13087,"ff ":8935," cho":502,"chod":6969," oth":1446,"othe":13644,"hers":9471,"take":15914,"rt.":14967,"rt. ":14968,"deo":7439,"eo ":8394," vid":1934,"vide":17231,"ideo":9807," 3 ":169,"rts":15001,"ts.":16382,"arts":6145,"ts. ":16383," ret":1592,"retr":14543,"etri":8713,"nua":12832,"janu":10649,"anua":5967,"nuar":12833,"uary":16600,"ary ":6151,"014":4700,"2014":4969,"14. ":4793,"eks":8141,"ksa":10968,"ęk":18546,"wię":17480,"ięk":10599,"ęks":18547,"ksz":10972,"szy":15822,"zym":17960,"więk":17481,"ięks":10600,"ększ":18548,"zym ":17961,"uce":16625,"duce":7689,"ntem":12784,"ner":12424,"gii":9205," ene":710,"ener":8315,"ergi":8484,"ktr":10987,"try":16367,"ryc":15072,"nej":12405," ele":698,"elek":8173,"ektr":8146,"nej ":12406,"tana":15936,"anac":5873,"zj":17885," zj":2090,"jed":10667,"edn":7941,"dno":7589,"ocz":13062,"czo":7271,"zon":17912,"ony":13419,"jedn":10668,"edno":7944,"czon":7272,"zony":17918,"onyc":13421,"reni":14507,"enie":8327,"icz":9788,"zni":17901,"licz":11350,"iczn":9789,"czni":7269,"znie":17902,"tę":16547,"ęp":18549,"wys":17539,"stę":15749,"tęp":16548," wys":2019,"wyst":17540,"stęp":15750,"zł":17995,"ło":18694,"ża":18820," zł":2114,"zło":17996,"łoż":18698," zło":2115,"wc":17404,"ów":18335,"uro":16959,"ców":7291,"ów ":18336,"aln":5760,"lny":11508,"iner":10148,"nera":12426,"alny":5762,".i":4631," m.":1208,"m.i":11721,".in":4632," m.i":1209,"m.in":11722,".in.":4633,"kra":10953,"raj":14304,"ajo":5654,"jow":10729," kra":1111,"kraj":10954,"oweg":13755,"wego":17418,"wyd":17532,"dob":7603,"oby":13026,"yci":17633," wyd":2016,"doby":7605,"opy":13478,"py ":14185,"wej":17423,"owej":13756,"wej ":17424,"azu":6408," gaz":829,"mne":12010,"go,":9258," zie":2088,"ego,":8028,"go, ":9259,"iar":9694,"rki":14711,"ki,":10862,"ki, ":10863,"dt":7678,"adt":5529," pon":1514,"pona":14043,"ię ":10594," się":1706,"się ":15456,"fit":8978,"it,":10400,"graf":9286,"rafi":14295,"it, ":10401,"ips":10283,"ól":18317," só":1786,"enn":8339,"ienn":9867,"ryt":15075,"rud":15018,"udy":16668," rud":1623," ż":2218," że":2219,"laz":11170,"nez":12451,"magn":11744," 노":4082,"부 ":29714," 스":4187,"이트":29850,"시아":29753," -":77," - ":78,"사이":29726," 사이":4172," 선":4178,"선 ":29733," 운":4224," 종":4274,"만 ":29694,"적으":29880,"적으로":29881,"적으로 ":29882,"レス":29284,"スラ":29239,"ラウ":29271,"で、":29080,"ル・":29282,"ンの":29288,"とが":29098,"後に":29426,"らの":29182,"0年":4737,"ート":29307,"に入":29151,"5年":5105,"大学":29380,"8年":5208,"年の":29416,"シュ":29230,"ルー":29283,"れ、":29202,"ことが":29005,"10年":4762,"15年":4803,"した。 ":29023,"の後":29159,"ブル":29259,"ルク":29280,"レー":29285,"ンス":29291,"て、":29066,"\"h":4354,"h-":9371,"その後":29034,"ch-":6926,"heo":9463,"theo":16105,"reti":14541,"tisc":16197,"prac":14099,"ract":14283,"rsu":14959,"chu":6988,"hun":9623," unt":1898,"unte":16883,"ersu":8549,"rsuc":14960,"uchu":16634,"chun":6990,"hung":9625,"trum":16366,"umen":16821,"n\"":12179,"より":29179,"ータ":29304,"ルの":29279,"4年":5067,"スト":29238,"的に":29481,"参加":29360,"ス・":29240,"ホー":29263,"ファ":29257,"により":29149,"173":4819,"174":4820," lau":1150,"мос":22935,"оск":23608,"кая":22470," мос":2894,"моск":22936,"оско":23609,"сков":24250,"ская":24236,"кая ":22471,"пат":23717,"атр":21029,"три":24631,"риа":23988,"иар":22126," пат":2982,"патр":23718,"атри":21030,"триа":24632,"риар":23990,"иарх":22127,"еж":21721,"реж":23956,"ежд":21723,"жден":21979,"дени":21556,"вос":21350,"сла":24259,"авос":20769,"восл":21351,"осла":23611,"слав":24260,"лавн":22648,"яю":25270,"объ":23300,"бъе":21170,"юще":25207,"ее ":21720," объ":2945,"ы,":25089,"рук":24137,"укт":24738,"ы, ":25090,"стру":24373,"трук":24643,"рукт":24139,"укту":24739,"неп":23055,"епо":21857," неп":2926,"твен":24477,"венн":21241,"енно":21825,"ые":25095,"уко":24734,"ые ":25096," рук":3047,"руко":24138,"уков":24735,"ково":22526,"овод":23341,"води":21329,"ом.":23499,"ом. ":23500,"свя":24194,"хим":24865,"рит":24014,"ит ":22331," свя":3065,"щенн":25041,"наст":23004,"асто":21004," тр":3142,"ице":22359,"ерг":21869,"рги":23930," тро":3146,"кж":22479,"акж":20851,"кже":22480,"такж":24445,"акже":20852,"кже ":22481,"ты":24669,"ыр":25114,"сты":24380,"рей":23961,"ей,":21742,"мона":22932,"онас":23522,"ей, ":21743,"ею":21964,"рш":24152,"арш":20982,"рши":24154,"ших":25017,"ших ":25018,"й.":22403,"тав":24436,"вро":21366,"роп":24091,"опи":23553,"й. ":22404,"став":24335,"вроп":21367,"ced":6884,"dut":7708,"olo ":13246,"fal":8887," fal":761,"ello":8203,"tom ":16271,"nw":12866,"nwa":12867,"ders":7458,"ò ":18310,"aff":5556," aff":254,"affe":5557,"ffer":8939,"ferm":8926,"ome ":13283,"uno ":16874,"dei":7412," dei":589,"dei ":7413,"igl":9941," mig":1246,"igli":9942,"iori":10255,"atto":6278,"ttor":16415,"nem":12414,"tog":16261," cin":508,"cine":7037,"inem":10146,"nema":12416,"emat":8241,"mato":11803,"togr":16262,"afic":5560,"ici ":9756,"ell'":8199,"poca":14016,"rete":14540,"ete ":8686,"dall":7346,"all'":5751,"ll'i":11445,"nata":12258,"ata ":6225,"anza":5976,"modi":12024,"sso ":15635,"nga":12471,"nev":12444,"olm":13242," ing":987,"anne":5939,"evol":8776,"lmen":11495,"dot":7635," dot":634,"tato":15963,"grad":9285,"vole":17287,"voc":17278,"oce":13035," voc":1947,"oce ":13036,"arit":6097,"tona":16279,"cce":6863," acc":237,"acce":5436,"rita":14684,"nnic":12635,"nico":12524,"ico.":9774,"mol":12032,"olt":13253," mol":1261,"molt":12035,"olte":13255,"lte ":11597,"pell":13907,"lico":11349,"etat":8681,"ate,":6233,"sono":15547,"cord":7154,"thr":16118," thr":1828,"rill":14645,"ller":11465,"ioni":10249,"onie":13373,"nier":12535,"iero":9878,"ero ":8527,"mst":12098,"dam":7348,"mste":12099,"terd":16059,"rdam":14409,"dam ":7349,"940":5251,"1940":4865,"reb":14448,"ecc":7871,"ogl":13141,"glie":9240,"0),":4645,"0), ":4646,"bi ":6594,"tram":16326,"rett":14544,"etti":8720,"tti ":16407,"lf":11314,"alf":5730,"fred":9026,"red ":14458,"ck,":7073,"ck, ":7074,"itr":10445," rit":1606,"trat":16330,"ratt":14353,"5)":5073,"945":5257,"5),":5075,"1945":4870,"5), ":5076,"cui":7229," cui":543,"cui ":7230,"fig":8957,"igu":9954," fig":785,"figu":8959,"igur":9957,"ura ":16921,"bol":6665,"boli":6667,"olic":13229,"ico ":9772," lib":1167,"erti":8555," lor":1189,"ord ":13505," wo":2003,"tton":16414,"noi":12660," noi":1346,"spar":15575,"dra":7652," lon":1187,"lond":11537,"ndra":12365,"dra ":7653,"mant":11778," fan":763,"ntas":12775,"sig":15412,"gno":9255," sig":1699,"sign":15413,"ora ":13489," nei":1322,"nei ":12404,"egiu":8020," scr":1665,"crit":7189,"itto":10453,"tore":16291,"ley":11305,"ey,":8807,"ey, ":8808,"amm":5838," dra":640,"dram":7654,"ramm":14319,"amma":5839,"ume ":16819," amb":294,"ambr":5821,"ì ":18248," ves":1928,"vest":17215,"d'i":7307,"ghi":9189,"hil":9501,"ra,":14268," d'i":561,"lter":11599,"erra":8534,"ra, ":14269,"ebb":7849,"bbe":6531,"be ":6539,"ebbe":7850," rip":1604,"eso ":8639,"cina":7035,"iù":10584,"ù ":18381,"più":13983,"iù ":10585," più":1497,"più ":13984," tar":1805,"tard":15948,"rdi ":14419,"vv":17324,"'av":4383,"ntu":12820,"ll'a":11443,"entu":8371,"ntur":12822,"adr":5524,"6)":5110," σ":2460,"στ":20328,"τι":20435,"ις":19601,"ς ":20274," στ":2470,"στι":20341,"τις":20448,"ις ":19602," στι":2473,"στις":20343,"τις ":20449," α":2256,"αρ":19149,"ρχ":20254,"χέ":20567,"ές":18969," αρ":2273,"αρχ":19161,"ές ":18970," αρχ":2276," τ":2485,"το":20452,"ου":20044,"υ ":20495," το":2500,"του":20463,"ου ":20045," του":2503,"του ":20464," μ":2386,"με":19797,"εσ":19416,"σα":20286,"αί":19077,"ίω":19068,"ων":20612,"να":19863,"α ":19072," με":2395,"ίων":19069,"ωνα":20618,"να ":19864,"ωνα ":20619," ή":2249,"ήτ":19005,"τα":20391,"αν":19123,"ν ":19848," ήτ":2251,"ήτα":19006,"ταν":20401,"αν ":19124," ήτα":2252,"ήταν":19007,"ταν ":20402,"μέ":19773,"έρ":18961,"ρο":20234,"ος":20031," μέ":2388,"μέρ":19777,"έρο":18968,"ρος":20241,"ος ":20032," μέρ":2389,"ρος ":20242,"τη":20420,"ης":19474," τη":2494,"της":20429,"ης ":19475," της":2497,"της ":20430," δ":2303,"δι":19297,"ιό":19619,"όκ":20642,"κλ":19666,"λε":19719,"ει":19344,"ια":19537,"ας":19163,"ς,":20276," δι":2308,"λει":19721,"εια":19346,"ιας":19543,"ας,":19165,"ς, ":20277,"ας, ":19166," ε":2318,"εν":19374,"νό":19942,"ός":20668," εν":2331,"νός":19945,"ός ":20669,"νός ":19946," υ":2508,"υπ":20516,"πο":20117,"οτ":20039,"τε":20408,"ελ":19361,"λο":19752,"ού":20067,"ύς":20694," υπ":2509,"υπο":20518,"ποτ":20135,"οτε":20041,"τελ":20412,"ελο":19368,"λού":19762,"ούς":20073,"ύς ":20695," υπο":2510,"ποτε":20136,"οτελ":20042,"ούς ":20074," κ":2360,"κρ":19682,"ρα":20174,"ατ":19180,"ιδ":19549,"δί":19285,"ίο":19039," κρ":2375,"κρα":19683,"ρατ":20188,"ατι":19190,"ίου":19042,"κρατ":19684,"ίου ":19043," β":2282,"ζα":19439,"ντ":19923,"τί":20389,"υ.":20498,"αντ":19136,"ντί":19925,"ου.":20048,"υ. ":20499,"αντί":19137,"ου. ":20049,"ργ":20191,"γό":19277,"ότ":20672,"ερ":19396,"α,":19073,"αργ":19154,"ργό":20194,"γότ":19278,"ότε":20675,"τερ":20414,"ερα":19398,"ρα,":20176,"α, ":19074," αργ":2274,"αργό":19155,"ργότ":20195,"γότε":19279,"ότερ":20676,"τερα":20415,"ρα, ":20177,"βρ":19225,"ρέ":20163,"έθ":18935,"θη":19511,"ηκ":19455,"κε":19651,"ε ":19319," βρ":2289,"θηκ":19512,"ηκε":19458,"κε ":19652,"θηκε":19514,"ηκε ":19459,"τό":20485,"εντ":19381,"τός":20488," εντ":2332,"τός ":20489," π":2431,"πρ":20140,"ρι":20212,"ιγ":19548,"γκ":19252,"κι":19660,"ιπ":19598,"πά":20079,"άτ":18922," πρ":2451,"πρι":20141,"άτο":18924," ζ":2344,"έτ":18975,"τας":20404,"ας ":19164,"τας ":20405,"κα":19638,"αι":19096,"ι ":19528," κα":2363,"και":19641,"αι ":19097," και":2365,"και ":19642,"σε":20290,"ρβ":20190,"βί":19213,"ία":19009,"ς.":20278," σε":2462,"ίας":19015,"ας.":19167,"ς. ":20279,"ίας.":19018,"ας. ":19168,"ngo":12485,"ong ":13364,"ał":6441,"ała":6443,"ac ":5432,"bia":6595,"ńsk":18712,"ski":15464,"ańsk":6452,"ński":18713,"ski ":15465,"2)":4941,"2) ":4942,"uł":17095,"ł ":18686,"modu":12026,"orb":13500,"rbi":14381,"orbi":13501,"rbit":14382,"nacz":12213,"ony ":13420,"yme":17687,"tów":16536,"sper":15581,"tów ":16537,"bic":6600,"icie":9758,"cie ":7019,"łe":18691," ud":1879,"udz":16669,"iał":9706,"ałe":6445,"dzia":7732,"ział":17862,"zał":17798,"ało":6446,"ogo":13144,"gow":9281,"atk":6255,"kos":10938,"osm":13603,"smi":15504," kos":1109,"she":15378,"zho":17856," she":1692," 11 ":96," ora":1434,"oraz":13498,"raz ":14365," tow":1847,"towa":16311," te ":1808,"bę":6775,"ęd":18541," bę":471,"będ":6776," będ":472,"ił":10608,"ły":18701,"now":12698,"owi":13758,"ły ":18702,"tano":15941,"anow":5951,"nowi":12700,"tap":15944,"ap ":5997," nad":1303,"nad ":12215,"ką":11047,"ką ":11048,"łą":18705,"tał":15977,"stał":15669,"cj":7064,"acj":5460,"stac":15658,"tacj":15891,"esz":8669,"szc":15815,"zcz":17802,"mies":11941,"iesz":9892,"szcz":15816,"ał ":6442," zos":2098,"zost":17921,"tał ":15978,"wr":17508,"eś":8850,"śn":18740," wr":2009,"ześ":17852,"eśn":8851,"śni":18741,"ześn":17853,"eśni":8852,"nia ":12513,"016":4705,"16 ":4805,"2016":4971,"016 ":4706," r.":1566," r. ":1567," za ":2062,"kie":10868,"ety":8725,"ety ":8726,"chan":6934,"hang":9403,"źd":18813,"źdz":18814,"iku":10007,"ździ":18815,"zier":17871,"iern":9877,"erni":8524,"rnik":14784,"cum":7237,"umo":16826,"mow":12061,"wał":17401,"ował":13752,"wał ":17402,"iego":9841,"owy ":13772,"dw":7716,"wó":17544," dw":653,"ogi":13137,"kwi":11017,"wie":17456,"etn":8705,"niu":12580,"wiet":17462,"ietn":9895,"etni":8706,"niu ":12581,"dok":7611,"opa":13448,"pat":13876,"iow":10266,"patr":13879,"rzen":15087,"zeni":17835,"niow":12564,"рон":24090,"нал":22990,"онал":23521,"наль":22993,"єд":25280,"дини":21584,"ний ":23082," спо":3099,"спол":24311,"шт":25029," шт":3234,"шта":25030,"тів":24684,"ів,":25297,"ів, ":25298,"яки":25236," яки":3249,"який":25237,"має":22858,"має ":22859,"лас":22656,"влас":21293,"ласн":22657,"зі":22110," зі":2777,"рол":24085,"фі":24850,"ьм":25143," фі":3190,"філ":24851," філ":3191," з ":2750,"лін":22825,"іна":25340,"ж ":21968,"кож":22533,"ож ":23408,"тако":24447,"акож":20856,"кож ":22534," од":2948," оди":2949,"один":23382,"нато":23007,"торі":24612,"фор":24841,"орн":23582,"рні":24049,"нії":23269," кал":2813,"им ":22242,"ав ":20748,"тав ":24437,"арн":20970,"нол":23159,"рц":24149,"iš":10617,"mr":12095,"zek":17825," dob":623,"07":4726,"907":5224,"07 ":4727,"1907":4844,"bí":6761," tř":1873,"tře":16564,"řeb":18718,"jn":10709," ří":2202,"bad":6491," bad":384,"laa":11099,"asp":6191,"he,":9435,"he, ":9436,"sr":15605," sr":1740,"yl ":17673,"byl ":6748,"čes":18517,"esk":8630," čes":2193,"česk":18518,"eva":8759,"cký":7089," eva":742,"evan":8762,"geli":9139,"elic":8185,"ický":9769,"cký ":7090,"teo":16050,"eol":8396," teo":1819,"eolo":8397,"řek":18722,"el,":8150,"lada":11109,"date":7369,"el, ":8151,"blis":6650,"lici":11348,"dit":7549,"or,":13484,"edit":7939,"dito":7554,"or, ":13485,"hov":9577,"ovn":13731,"vní":17273,"ucho":16632,"chov":6974,"ovní":13732,"vní ":17274,"sko":15470,"ké ":11027,"ské ":15479,"cké":7086,"ické":9768,"oř":13813,"řá":18728,"ád":18024,"feso":8930,"esor":8640,"hus":9627,"uso":16995,"sov":15566,"ově":13745,"osl":13601,"slov":15496,"love":11561,"oven":13725,"ensk":8356,"cké ":7087,"fak":8886,"aku":5686,"kul":11000," fak":760,"kult":11002,"oho":13158,"(h":4459,"b)":6478," (h":42,"po ":14010," po ":1503,"roce":14807,"950":5265,"1950":4876,"kan ":10797,"kom":10924," kom":1105,"omen":13284,"mens":11883,"aze":6403,"lè":11676," col":524,"coll":7121,"bern":6577,"rnar":14774,"nard":12249,"rdin":14421,"ýv":18466,"býv":6774,"ýva":18467,"erci":8460,"lej":11256,"olej":13219,"íž":18295,"erz":8576,"rzi":15091,"ty.":16483,"verz":17212,"erzi":8579,"ity.":10464,"ty. ":16484,"zan":17785,"ikl":10002," zan":2070,"anik":5919," kd":1077," kdy":1079,"yli":17678,"yli ":17679," mn":1255,"áni":18043,"řen":18723,"na.":12204,"na. ":12205,"001 ":4666,"udo":16663,"budo":6728,"udov":16665,"zí":17980,"zís":17982,"ísk":18282,"ska":15460,"kal":10789,"získ":17983,"kala":10790,"ala ":5702,"idi":9810,"iec":9829," let":1163,"lete":11292,"etec":8687,"tech":16001,"4-":5041,"004":4671,"2004":4958,"-200":4531,"rob":14800,"obě":13028,"hla":9526,"prob":14120,"elk":8196,"lko":11438,"kov":10943,"vá ":17333,"ová ":13738,"eko":8138,"ruk":15027,"ekon":8139,"kons":10933,"ouž":13713,"uží":17104,"ouží":13714," ke":1080,"zdě":17808,"áva":18067,"ltu":11607," kul":1120,"ultu":16802,"ltur":11608,"turn":16452,"ním ":12928,"lů":11709," \"h":7,"roe":14816,"oes":13118,"s\" ":15172," eur":740,"euro":8745,"isio":10362," şa":2208,"rkı":14718,"kı ":11051," şar":2209,"şark":18755,"arkı":6102,"şm":18764,"sı":15850,"ı'":18611,"'n":4404,"rış":15162,"ışm":18681,"şma":18765,"ası":6215,"ı'n":18612,"'nı":4408,"nı ":12956," yar":2037,"yarı":17615,"arış":6159,"ışma":18682,"ması":11796,"36":5023,"65":5130," 36":181,"65 ":5131,"nla":12604,"anla":5931,"ı.":18615,"ndı":12377,"dı.":7768,"ı. ":18616," kaz":1076,"kaza":10818,"azan":6400,"zand":17786,"andı":5898,"ndı.":12378,"dı. ":7769,"bu ":6725," bu ":452,"rih":14632,"ihi":9960,"arih":6093,"rihi":14633,"ihin":9961,"hind":9511," ü":2176,"üç":18448,"çü":18138,"cü":7292," üç":2187,"üçü":18449,"ünc":18419,"uand":16594,"ndır":12379,"yn":17692," ay":368,"ayn":6385,"ynı":17697," ayn":369,"aynı":6386,"ynı ":17698,"ıl":18629," yı":2057,"yıl":17747,"ılı":18638,"lın":11701," yıl":2058,"yılı":17748,"ılın":18640,"lınd":11702," yan":2035," ilk":974,"ilk ":10044,"def":7407,"efa":7985,"fa ":8875," def":587,"iy":10524,"yi":17661,"iyi":10529,"yi ":17662,"biri":6623,"irin":10316,"tele":16024,"ele ":8167,"oy":13778," oy":1456,"yla":17674,"değ":7483," değ":600,"deği":7484,"lir":11403,"irl":10320," bel":409,"beli":6565,"elir":8192,"irle":10321,"hile":9504,"run":15034," run":1625,"gn ":9249,"camp":6818,"ampa":5848,"ign ":9944,"elec":8170,"lect":11236,"his ":9518,"rry":14929,"sher":15380,"herr":9470,"rry ":14930,"tsc":16384,"nk ":12593,"tsch":16385," lie":1170,"eute":8751,"tena":16041,"990":5318,"1990":4920,"hea":9437,"aly":5788,"ly,":11663,"ly, ":11664,"lp":11567,"elp":8213," hel":917," rob":1609,"robe":14802,"ert ":8551,"cru":7192,"ruit":15026,"uite":16751,"ited":10417,"mpl":12078,"oye":13780,"yed":17645,"empl":8272,"mplo":12082," bl":428," bla":429,"blac":6638,"lack":11106,"ack ":5464,"fis":8977,"ishe":10357,"herm":9469,"erma":8516,"rman":14748,"nj":12589," ben":410,"nt,":12760," hun":952,"nt, ":12761,"gai":9086," aga":261,"agai":5572,"gain":9087,"nst ":12751,"repu":14518,"thu":16121,"hur":9626,"arth":6142,"vene":17186,"enel":8313,"aly ":5789,"oug":13676,"ugh":16713,"ough":13677,"ncr":12313,"reas":14446,"ease":7833,"ase ":6175,"whit":17446," vot":1955,"oter":13641,"lay":11165,"yin":17663,"play":13995,"ying":17664," rac":1569,"fea":8906,"ear":7826,"ars":6132," fea":772,"ears":7831,"ars ":6133,"uth ":17024,"caro":6839,"arol":6121,"roli":14837,"olin":13233,"lina":11388,"ate.":6234,"sed":15308,"prom":14126,"romi":14844,"omis":13294,"sed ":15309,"who":17447," who":1994,"who ":17448,"had":9383," had":899,"had ":9384,"prio":14115,"drug":7664," arr":332,"rres":14922,"aid":5617,"aid ":5618,"nre":12712,"repo":14516,"epor":8416,"rted":14979,"but":6742,"ntri":12814,"ibut":9721,"utio":17027,"idl":9813,"law":11164,"aw ":6361,"i-":9657,"-i":4559,"これ":29008,"朝鮮":29461,"に、":29130,"にも":29145,"'or":4411,"m-":11718,"る）":29201,"）、":29975,"iei":9843,"）。":29976,"。ま":28951,"た、":29036,"。また":28952,"また、":29167,"がある":28996," sie":1698,"。また、":28953,"がある。":28997,"r-":14256,"）。 ":29977," sar":1652,"年1":29403,"1月":4937,"7日":5174,"日，":29451,"17年":4825,"年1月":29406,"best":6583,"」。":28959,"。2":28939,"2月":4997,"月1":29455,"5日":5106,"》，":28958,"5月":5107,"4日":5068,"获得":29498,"中央":29328,"6月":5142,"8日":5209,"發行":29479,"文化":29445,"中心":29329,"2月1":4998,"7月":5175,"月2":29457,"29":4990,"9日":5337,"第1":29486,"，成":29996,"成为":29433,"eet":7981,"12月":4780,"etin":8696,"工作":29399,"活動":29467,"oup":13689," gro":875,"roup":14880,"第一":29487,"一个":29314,"0月":4740,"电影":29478,"。20":28940,"10月":4763,"。201":28942,"世界":29322,"中，":29331,"hand":9402,"'en":4390," l'e":1136,"l'en":11075,"'ent":4391,"tart":15952,"arta":6140,"ipp":10282,"pe ":13890," phi":1488,"phil":13946,"hili":9505,"ppe ":14085,"-b":4542,"dou":7637,"azy":6409," dou":635,"uste":17007,"995":5326,"5, ":5078,"1995":4925,"don":7616," don":629,"donn":7620,"lain":11118,"ël":18246,"ël ":18247,"god":9263," god":864,"godi":9264,"éb":18165,"ouc":13672,"hé ":9641,"sur ":15786,"xe":17562,"كل ":26443," كل ":3477,"جة":25870,"جة ":25871,"خط ":25960," خط ":3399,"طول":26258,"طول ":26259,"قس":26395,"سم":26169,"60":5119," 60":200,"60 ":5120," 60 ":201,"دق":26001,"قة":26384,"يقة":27035,"وي":26964,"نق":26809," وي":3571,"سم ":26170," منه":3522," ث":3379,"ثان":25845,"ية.":26991,"ية. ":26992,"ويت":26968,"يتم":26997,"تم ":25822,"يتم ":26998,"كت":26428," كت":3475,"كتا":26429,"تاب":25775,"كتاب":26430," ط":3428," طو":3431,"قة ":26385,"يقة ":27036,"° ":18003," 27":162," هي":3537," هي ":3538,"دد":25994,"لمح":26611,"دد ":25995,"المح":25643,"ثو":25858,"الث":25586,"وان":26878," الث":3307,"اني ":25683," مع ":3516,"كس":26441,"سر":26156,"شر":26193," عش":3439,"عشر":26303,"شري":26197," عشر":3440," تم":3375,"بد":25719," بد":3342," عن":3445,"عن ":26324," عن ":3446,"أج":25402,"جز":25880,"ء ":25398," أج":3269,"اء ":25469,"تد":25792,"ري ":26112,"زء":26125,"جزء":25881,"غي":26343,"غير":26344,"وبا":26881," كما":3479,"مك":26731," يم":3583,"يمك":27054,"مكن":26733,"كن ":26449," يمك":3584,"يمكن":27055,"مكن ":26734,"تع":25804,"عب":26278,"لتع":26513,"بير":25758,"التع":25581,"بير ":25759,".4":4617,"33":5017,"33 ":5018,"رق":26090," شر":3424,"شرق":26195,"راء ":26055,"عم":26318,"لعم":26578,"عمل":26320,"ملي":26738,"ليا":26647,"العم":25625,"لعمل":26579,"عملي":26322,"يات ":26980,"ساب":26141,"ابي":25482,"بية":25756,"ية،":26993,"ية، ":26994," يتم":3574," تح":3365,"ويل":26969,"ياس":26983,"اس ":25525,"لز":26551,"زو":26133,"الز":25606,"ايا":25692," الز":3314,"ئر":25455,"لدا":26539,"ائر":25471,"تى":25838," حت":3389,"حتى":25910,"تى ":25839," حتى":3390,"حتى ":25911,"دل":26002,"مز":26713,"(ب":4492," (ب":72,"احد":25500,"حد ":25913,"واحد":26868,"اوي":25690,"وي ":26965,"180":4828," 180":117,"تب":25778,"لشر":26561,"رق ":26091,"الشر":25613,"الغ":25626,"علا":26310,"نص":26796,"صف":26219,"صف ":26220,"ربي":26069,"بي ":25754," الغ":3321,"إي":25454,"يج":27001,"بية ":25757,"لجم":26524,"جمع":25887," بي":3358,"بين":25761," بين":3359,"بين ":25762,"وخ":26895,"عرض":26298,"عاد":26273," ما ":3498,"تك":25815," تك":3372,"تكو":25816,"كون":26453," تكو":3373,"تكون":25817,"كون ":26454,"شم":26202,"شما":26203,"شمال":26204," تع":3370,"مو":26751,"قع":26399," مو":3523,"سط":26157,"ظا":26262,"نظا":26801,"ظام":26263,"نظام":26802,"يكا":27039,"ارت":25516," دي":3406,"يح":27002," يح":3575,"ند ":26787," عند":3447,"قط":26398,"عين":26335,"زم":26130,"مني":26748,"لمو":26624,"قع ":26400,"المو":25654,"ده":26009,"ده ":26010," و ":3540,"\"ا":4361,"\"ال":4362,"عال":26274,"لعال":26571,"عالم":26275,"المي":25655,"(u":4476," (u":58," إن":3294,"24 ":4980,"اعة":25537,"اعة ":25538,"يوم":27072,"وم ":26948,"يوم ":27073,"حل":25931,"مف":26728,"تت":25782," تت":3363,"رك ":26093,"للا":26599,"بم":25745," بم":3353,"دل ":26003,"(3":4441," (3":27,"لسا":26554,"حدة":25916,"الوا":25662,"إذ":25440,"اك ":25553,"شخ":26191,"خص":25958,"نط":26797,"طق":26250,"منط":26745,"نطق":26798,"طقة":26251,"منطق":26746,"نطقة":26799,"طقة ":26252,"3)":5002,"3) ":5003," فا":3454,"وج":26889,"جو":25896,"موج":26753,"وجو":26891,"جود":25897,"وجود":26892," °":2123,"واس":26870,"ظر":26264,"لنق":26629,"وسط":26914,"؛ ":25397,"يف":27029,"يف ":27030,"اسي":25530,"د،":25970,"لحد":26529,"حدو":25918,"دود":26013,"د، ":25971,"الحد":25594,"لحدو":26531,"حدود":25919,"يان":26984,"أل":25422," أل":3280,"فه":26365," وج":3548,"رو":26105,"رون":26108,"متر":26690,"دولي":26018," ut":1907,"تحد":25786,"حدي":25920,"ديد":26026,"ديد ":26027,"محل":26701," طر":3430,"فل":26363,"لكي":26597,"لطا":26567,"الطا":25618,"23 ":4978," 23 ":155," ia":956,"ie:":9825,"uari":16598,"arie":6092,"rie:":14617,"ie: ":9826,"bd":6535,"abd":5406,"lah":11115,"ah ":5601," abd":228,"ulla":16790,"llah":11453,"lah ":11116,"bin ":6617,"iz ":10534,"lazi":11171,"aud":6300,"ud ":16647," al-":276,"hm":9534,"ahm":5608,"hma":9536," fai":759,"urk":16951,"uha":16722,"d)":7311," 90":213,"90 ":5221," ani":304,"ege":8009,"rege":14469,"ege ":8010,"rab":14273," ara":324,"arab":6047,"rabi":14276,"iei ":9844,"audi":6301,"udit":16660,"dite":7552,"5-":5079,"005":4673,"2005":4959,"4)":5037,"924":5234,"4) ":5038,"1924":4852,"ún":18391," el ":696,"]​":5350,"​ ":28894,"]​ ":5351,"ía":18254,"abí":5429,"bía":6762,"ía ":18255,"abía":5430,"62":5124,"62 ":5125,"rso":14950,"erso":8547,"rson":14953,"sona":15542,"nas ":12254,"dien":7508,"iend":9864,"ipio":10277,"pio ":13970,"ensi":8355,"sida":15402,"pob":14013,"obl":13013," pob":1505,"pobl":14014,"obla":13014,"laci":11105,"ació":5459,"04 ":4715,"m²":12131,"km²":10912," los":1190,"tes,":16077,"mer ":11886,"aba ":5401,"pue":14167,"ompu":13314,"pues":14168,"esto":8663,"sto ":15705," %":14," % ":15,"blan":6639,"lanc":11128,"anco":5886," 0":83,",6":4518," 0,":84,"ran ":14322,"oam":12990," afr":258,"cano":6825,"27 ":4987,"otr":13656," otr":1447,"otra":13657," raz":1577,"zas ":17792," y ":2031,"tota":16303,"otal":13634,"span":15574," lat":1149,"atin":6251,"inos":10195,"cua":7222," cua":541,"cual":7223,"quie":14243,".[":4624,"a.[":5373,"لية":26648,"لية ":26649,"996 ":5329,"دا ":25974,"ذي":26041,"الذ":25601,"لذي":26545,"ذي ":26042,"الذي":25602,"لذي ":26546," سن":3417,"انو":25681,"( ":4428," )":73,"994":5324,"1994":4924,"طل":26253,"لاق":26489,"مى":26755,"وحد":26894,"دات":25975," تد":3366," بو":3357," سل":3416,"وية":26966,"وية ":26967,"السا":25608,"ذك":26035,"ر.":26044,"ر. ":26045," الذ":3312," حد":3391,"دود ":26014," مج":3503,"مجل":26696,"جلس":25885,"لس ":26553,"غا":26337,"لبا":26499,"البا":25571,"خت":25947,"ختل":25948,"تلف":25820,"لف ":26584,"ختلف":25949,"وض":26918,"ضع":26232," لت":3485,"طع":26248,"للم":26601," للم":3489,"نش":26795,"شت":26190,"دور":26015,"رها ":26104,"انت":25679,"نت ":26781,"كانت":26422,"انت ":25680,"قام":26379," أس":3274,"أسا":25411,"فية":26369,"فية ":26370," تا":3362,"ابع":25480,"بع ":25731,"ج ":25861,"للت":26600," للت":3488,"لاس":26486,"الاس":25568,"لثا":26520,"الثا":25587,"lm ":11488," mal":1220,"iii":9970," iii":968,"iii ":9971,"ورو":26905,"وات":26865,"وات ":26866,"هر ":26849,"دى":26020,"دى ":26021,"ارة":25514,"ارة ":25515,"لص":26563,"صح":26214,"الص":25614," الص":3317,"한민":29956,"적인":29884,"적인 ":29885," 좌":4275,"국민":29547,"민주":29710,"주의":29897,"0년":4741,"대 ":29609," 후":4340,"980":5304," 198":138,"1980":4909,"까지":29570,"지 ":29900,"까지 ":29571," 민":4147,"민족":29709,"l)":11085,")이":4506,"이라":29836,"라는":29660,"이라는":29838,"라는 ":29661,"이라는 ":29839,"운동":29807," 처":4287,"이들":29835,"중 ":29898," 이들":4237," 조":4270,"조선":29891,"국의":29548," 조선":4271,"국의 ":29549," 파":4307," 주":4276,"세력":29737," 세력":4182," 있":4249,"있었":29867,"지만":29903,"만,":29695," 있었":4254,"지만,":29905,"만, ":29696,"지만, ":29906," 비":4168,"며,":29700,"며, ":29701," 반":4151,"자들":29873,"들이":29647,"들이 ":29648,"대부":29610,"부분":29715," 만":4132,"하고":29930,"하고 ":29931,"그리":29559,"리고":29686," 그리":4071,"그리고":29560,"리고 ":29687," 그리고":4072,"그리고 ":29561,"들은":29641,"들은 ":29642," 국":4059,"를 ":29684,"해 ":29960,"하면":29939,"하면서":29940,"자신":29874," 자신":4258," 친":4296,"고,":29541,"고, ":29542," 평":4308," 과":4055," 경":4050," 안":4199," 점":4267,"지를":29901,"지를 ":29902," 마":4130,"스 ":29739,"한다":29953,"다는":29597," 한다":4324,"다는 ":29598," 하":4316,"된 ":29630,"서는":29728,"에서는":29788,"서는 ":29729,"에서는 ":29789," 힘":4341," 또":4121,"또한":29655," 또한":4122,"또한 ":29656," 또한 ":4123,"이고":29825,"이고 ":29826,"가지":29529,"있는":29862," 있는":4250,"있는 ":29863," 있는 ":4251," 때":4117,"하다":29936,"تعد":25806,"عدي":26292,"مط":26721,"الي ":25664,"اما":25669,"رئ":26049,"ئي":25458," رئ":3411,"رئي":26050,"ئيس":25461,"ياً":26985,"رئيس":26051,"ياً ":26986,"ظم":26265,"نظم":26803,"اعي":25543,"وني":26955,"وما":26949,"مات":26670,"ومات":26950,"مات ":26671,"لات":26481,"اتص":25487,"تصا":25800,"صال":26210,"الات":25567,"لاتص":26483,"اتصا":25488,"تصال":25801,"يدة":27007,"يدة ":27008,"حز":25924," sid":1697,"ide ":9805,"band":6503,"مسا":26715,"عيد":26334,"تأ":25773," تأ":3361,"رد":26078,"لتر":26512,"التر":25580,"fd":8902,"req":14519,"ncy":12318,"cy ":7254,"requ":14520,"uenc":16685,"mul":12110,"lti":11600,"tip":16186,"lex":11304," mul":1274,"mult":12113,"ulti":16801,"ltip":11602,"iple":10279,"plex":14000,"شار":26186,"حدة ":25917,"مثل":26692,"ثل ":25852,"مثل ":26693," عد":3436,"عدد":26290," عدد":3437,"كب":26423," كب":3473,"كبي":26424," كبي":3474,"كبير":26425,"مست":26716,"ستق":26152,"لمست":26616,"عبر":26279,"معل":26726,"علو":26312,"لوم":26642,"علوم":26313," مخ":3506,"قن":26406,"نوا":26820,"اتف":25489,"بإ":25701,"حة":25906," بإ":3336,"حة ":25907,"تش":25798,"غل":26341,"جدي":25876,"جديد":25877,"ثم":25854," ثم":3380,"ثم ":25855," ثم ":3381,"لأخ":26466,"أخر":25406,"خرى":25956,"الأخ":25557,"أخرى":25407,"لات ":26482,"فض":26359,"ائي":25474,"ئية":25459,"ائية":25475,"أم":25423," أم":3281,"أما":25424,"هو ":26857,"لاست":26487,"يلي":27050,"حين":25942,"قم":26405,"شك":26199,"شكل":26200,"شكل ":26201,"نز":26791,"لان":26494,"الان":25569,"فت":26352,"pha":13942,"phas":13943,"hase":9418,"ift":9922,"ift ":9923,"key":10855,"eyi":8813," key":1084," λ":2380,"λί":19710,"ίγ":19019,"γο":19264,"ο ":19959," λί":2381,"γο ":19265,"ιν":19579,"ριν":20221,"ιν ":19580,"πε":20100,"εθ":19342,"θά":19496,"άν":18901,"νε":19884,"ι,":19529," πε":2442,"άνε":18902,"νει":19887,"ι, ":19530,"άνει":18903," ο":2419," ο ":2420," ρ":2458,"ρό":20265,"τ ":20372,"πα":20089,"υσ":20530,"σί":20283,"ασ":19169," πα":2437,"παρ":20096,"αρο":19159,"ρου":20245,"ουσ":20061,"σία":20284,"σε ":20291," παρ":2440,"ην":19468,"την":20425,"ην ":19469," την":2496,"την ":20426," ι":2356,"δέ":19283,"έα":18928," ιδ":2357,"έα ":18929," γ":2291,"γι":19246," γι":2296,"για":19247,"ια ":19538," για":2297,"για ":19248," έ":2235,"έν":18945," έν":2241,"ένα":18946," ένα":2242,"ένα ":18947,"άρ":18910,"ρκ":20228,"κο":19670," πά":2433,"πάρ":20081,"άρκ":18912,"γλ":19257,"λυ":19763,"πτ":20150,"τώ":20492,"ών":20708,"τών":20493,"ών ":20709,"τών ":20494,"στο":20344,"το ":20453," στο":2474,"στο ":20345,"μό":19844,"όλ":20643,"λλ":19742,"τά":20373,"άμ":18899,"ν.":19851," μό":2408,"λλε":19747,"ντά":19924,"άμε":18900,"μεν":19803,"ν. ":19852," το ":2501," έρ":2243,"έργ":18964,"ργο":20193," έργ":2244,"ιέ":19536,"έχ":18977,"χε":20577,"περ":20102,"ερι":19403,"έχε":18978,"χει":20580,"ει ":19345," περ":2443,"περι":20104,"έχει":18979,"χει ":20581,"έκ":18937,"κα ":19639,"ά ":18879,"τά ":20374,"δη":19294,"ημ":19461,"μι":19814,"ιο":19589,"υρ":20519,"γή":19233,"ήθ":18990," δη":2306,"δημ":19295,"μιο":19819,"ιου":19594,"ουρ":20055,"υργ":20521,"ήθη":18991," δημ":2307,"ουργ":20056,"ήθηκ":18992,"απ":19141,"πό":20154,"ό ":20636," απ":2270,"από":19147,"πό ":20155," από":2272,"από ":19148,"ον":20008,"τον":20457,"ον ":20009," τον":2502,"τον ":20458," φ":2511,"φί":20549,"ίλ":19030,"λο ":19753,"λύ":19768,"ύπ":20691,"η ":19448,"τη ":20421,"σκ":20309,"ύλ":20684," σκ":2467,"σκο":20313,"κού":19680,"βά":19211,"άκ":18894,"βι":19221,"ικ":19556,"κ ":19625," βά":2283,"ule ":16784,"aks":5680,"svi":15793," ά":2230,"νο":19909,"οι":19980,"ιξ":19588,"ξε":19953," άν":2233,"άνο":18904,"νοι":19911,"ξε ":19954,"οκ":19986,"κτ":19687,"τω":20482,"ρί":20165,"βρί":19226,"ρίο":20169,"βρίο":19227,"ρίου":20170," 在":4030,"他们":29345,"达尔":29509,"尔文":29397,"，并":29995,"中的":29330,"。在":28956,"上的":29319,"后，":29366,"，是":29997,"达尔文":29510,"リカ":29276,"7%":5144,"ドの":29251,"主要":29333,"ース":29302,"ラス":29272,"グラ":29225,"ってい":29063,"っている":29064,"web":17411,"eb ":7847," web":1982,"uyg":17067,"ygu":17658,"rın":15157," uyg":1911,"uygu":17068,"ygul":17659,"gula":9331,"ulam":16778,"amal":5812,"mala":11760,"arın":6158,"rına":15159,"fed":8912,"lmi":11496,"iş ":10611,"dilm":7523,"ilmi":10054,"lmiş":11497,"miş ":11984,"üv":18439,"güv":9360,"üve":18440,"enl":8335," güv":891,"güve":9361,"üven":18441,"enli":8337,"nlik":12610,"uva":17049," sun":1763,"unan":16836,"nan ":12240,"hiel":9493,"ield":9852,"eld ":8163,"nü":12934," ür":2183,"ürü":18435,"ünü":18426,"nü ":12935,"ünü ":18427,"birl":6624,"irli":10322,"rlik":14734,"kte ":10978,"rfe":14560,"perf":13922,"cto ":7210,"hno":9543," tec":1810,"echn":7883,"chno":6966,"hnol":9544,"logi":11528,"ogie":13140,"lmu":11498,"muş":12126,"ur.":16918," olm":1413,"lmuş":11499,"muşt":12127,"tur.":16447,"ur. ":16919,"ün ":18418,"tica":16136,"icar":9735,"ret ":14538,"piy":13982,"iya":10525,"yas":17616,"sın":15852,"yasa":17617,"asın":6217,"sına":15853,"tı":16553,"akl":5675,"ışt":18683,"ştı":18771,"tır":16559,"ır ":18657,"akla":5676,"mışt":12176,"ıştı":18684,"ştır":18772,"eç":8831,"çe":18116,"geç":9179,"çer":18118," geç":849,"say":15245,"fas":8894,"sı ":15851," say":1656,"ası ":6216,"akte":5684,"kter":10981,"teri":16061,"eri ":8491,"şl":18760,"gir":9218,"işl":10613,"şle":18763," gir":855,"işle":10614,"leri":11282,"rine":14658,"rş":15163,"arş":6160,"rşı":15164,"şı ":18776,"karş":10807,"arşı":6161,"orum":13578,"ğl":18594,"sağ":15247,"ağl":6437,"ğla":18595,"amı":5860," sağ":1657,"sağl":15248,"ağla":6438,"tır.":16560,"ism":10369,"ini ":10170,"nct":12314,"ıd":18620," aş":377,"amas":5816,"ldı":11215,"ırı":18665," sal":1649,"aldı":5718,"dırı":7773,"kn":10913,"kni":10914,"ikle":10003,"kler":10901,"rini":14660,"sim":15421,"lend":11268,"ndir":12353,"af ":5553,"mel":11869,"emel":8251,"meli":11871,"eli ":8184,"r:":14261,"r: ":14262,"35":5021,"35 ":5022,"у,":24687,"у, ":24688,"йд":22408,"асс":20998,"клас":22507,"ыл ":25101,"был ":21176,"ими":22248,"ими ":22249,"ью":25169,"две":21534,"цат":24888,"ью ":25170," две":2688,"ща ":25035," учи":3172,"равл":23863,"авле":20762,"лен ":22687,"ете":21930,"ерб":21865,"рбу":23919,"бур":21161,"ург":24773,"етер":21931,"рбур":23920,"бург":21162,"уде":24711,"ты ":24670," сту":3110," ун":3160,"уни":24760,"нив":23070,"ерс":21897,"тет":24524," уни":3161,"верс":21245,"ерси":21898,"итет":22338,"при ":23799," одн":2950,"из ":22175," из ":2784,"сий":24219,"ась":21008,"вала":21205,"алас":20867,"лась":22659,"ась ":21009,"кры":22585,"дло":21596,"ога":23355,"га ":21428,"ум":24752,"оку":23455,"кум":22616,"уме":24754,"нто":23202,"умен":24755,"енто":21837,"нтов":23203,"тов ":24588,"туп":24660,"ступ":24378,"плен":23746,"ении":21816,"коп":22558,"опол":23556,"ь,":25121,"яло":25242,"ь, ":25122,"сост":24298," но ":2931,"посо":23782,"апр":20957,"напр":22998,"апра":20958,"нан":22996,"рвы":23925,"вые":21404,"ервы":21868," дн":2703,"еб":21675,"реб":23941,"рге":23929,"овар":23314,"вари":21217,"илис":22233,"лись":22718,"к,":22435,"к, ":22436,"дал":21516," дал":2684,"даль":21517,"еха":21946,"али ":20874,"ьс":25159," жи":2746,"жит":21997,"льс":22797,"ьст":25160," жит":2748,"жите":21998,"ельс":21784,"льст":22798,"ьств":25161," сн":3088,"нят":23253,"ией":22165," кам":2814,"менн":22872,"вг":21228," еп":2737,"1-":4748,"лин":22713,"лини":22715," ост":2968,"рова":24058,"нев":23040," нев":2920,"куп":22617,"ные":23227,"дере":21561,"ерев":21873,"нные":23129,"ные ":23228,"оват":23315,"вати":21222,"тю":24677,"ми,":22885,"ами,":20899,"ми, ":22886,"ному":23164,"нь":23236,"мал":22843,"ень":21843," мал":2866,"ален":20872,"ьком":25140,"кому":22552,"стол":24365," все":2641," три":3145,"лат":22660,"кн":22515," кн":2826,"кни":22516," кни":2827," шк":3232," им ":2792,"аны":20945,"аны ":20946,"нео":23054," нео":2925,"ежда":21724,"обу":23296,"був":21153,"т.":24427,"т. ":24428,"д.":21506,"д. ":21507,"ним ":23090,"сущ":24393,"щес":25042,"суще":24394,"ущес":24814,"щест":25043,"нных":23132,"роб":24052,"проб":23812," их":2804," их ":2805,"азо":20826,"зов":22081," обр":2943,"браз":21140,"разо":23876,"азов":20827,"зова":22082,"ован":23313,"чт":24996," чт":3226,"что":24997," что":3227,"что ":24998,"они ":23527,"нали":22991,"яз":25231,"зы":22102,"ык":25099,"зык":22105,"спр":24313,"ённ":25276,"спро":24314,"нног":23125," то ":3135,"яти":25261,"тия ":24560,"алис":20875,"ором":23590,"евн":21683,"вно ":21311,"ель ":21782,"rey":14551,"yno":17696,"lds":11210,"ds ":7669," rey":1595,"rn ":14768," bor":440,"born":6676,"orn ":13546," wie":1997,"aden":5506,"den,":7430,"ny,":12872,"germ":9164,"many":11780,"ny, ":12873,"whe":17441," whe":1992,"wher":17443,"fat":8895," fat":766,"athe":6245,"ilit":10041,"lita":11416,"tary":15953,"an,":5865,"man,":11767,"an, ":5866,"ned":12395,"ed.":7923,"ed. ":7924," now":1355,"ause":6322,"ily":10065,"mily":11951,"ily ":10066,"move":12059,"oved":13723," so ":1719,"fte":9041,"ften":9042,"ten.":16040,"liv":11423," liv":1179,"live":11424,"any ":5973,"arm":6110,"iana":9689,"ana,":5872," arm":330," bas":391,"base":6513,"ka,":10778," ala":277,"ka, ":10779,"nsa":12720,"ansa":5954,"ri,":14589,"isso":10382,"ssou":15638,"ri, ":14590,"long":11539,"onge":13365,"nger":12476,"ger ":9160," old":1411,"ugh ":16714,"ove ":13722,"lt.":11592,"lt. ":11593,"were":17433,"xtr":17584,"rem":14492,"ely":8226,"extr":8804,"trem":16339,"reme":14495,"ely ":8227,"vou":17305,"rew":14550," up":1900,"musi":12123,"usic":16990,"sic ":15396,"all ":5750," aro":331,"him":9507,"im.":10071," him":928,"im. ":10072,"how":9578," how":944,"ver,":17194,"olde":13215,"lder":11203,"wn":17484," ow":1454,"own":13763,"wne":17486," own":1455,"ned ":12396,"som":15537," som":1724,"some":15538,"lbu":11184,"bum":6734,"ums":16828,"albu":5710,"lbum":11185,"bea":6540," bea":400,"atle":6258,"les,":11286,"you":17709," you":2050,"ild":10020,"chil":6952,"hild":9503," lov":1193," air":268,"air ":5636,"guit":9329,"tar ":15946,"thei":16102,"heir":9452,"eir ":8091,"яб":25216,"ябр":25217,"бря":21147,"ря ":24161,"ября":25218,"бря ":21148,"е»":21671,"акт":20858,"кте":22595,"конт":22556,"акте":20859,"йт":22429,"жб":21973,"орд":23569,"ют":25195,"ояв":23695,"явл":25224,"ляю":22819,"ютс":25197,"тся":24650,"явля":25226,"ются":25198,"тся ":24651,"шо":25027,"бро":21146,"сив":24216,"ейс":21747," бро":2592,"пое":23761,"езд":21730," пое":2997,"шко":25022," шко":3233,"школ":25023,"коль":22546,"зве":22042,"вес":21247," изв":2785,"изве":22180,"звес":22043,"вест":21248,"стно":24361,"соц":24301,"оци":23673,"циа":24901," соц":3095,"соци":24302,"циал":24902,"иаль":22124,"ьной":25150,"ети":21932,"ети ":21933,"как":22451,"ак ":20846," как":2812,"как ":22452,"рин":24007,"пал":23711,"нко":23117," пал":2979,"кова":22524,"еред":21874,"ерш":21901,"рше":24153," сов":3091,"сове":24289,"овер":23320,"верш":21246,"ерше":21902,"нием":23075,"ием ":22167,"оу":23661,"йст":22425,"йств":22426," дел":2694,"«с":18002,"и»":22120," «с":2122,"фон":24839,"оне":23525," фон":3184,"аю":21072,"ающ":21075,"прое":23816,"езда":21731,"аниц":20926,"ня.":23246,"ня. ":23247,"».":18009,"». ":18010,"пока":23765,"азы":20831,"зыв":22103,"етс":21940,"оказ":23450,"азыв":20832,"зыва":22104,"аетс":20806,"ется":21942,"6-":5116,"тк":24561,"тка":24562,"тка ":24563,"олл":23476,"рен":23967,"енат":21809,"мб":22860,"на,":22974,"лина":22714,"на, ":22975,"дпо":21634,"ожи":23413,"едпо":21715,"ьно ":25148,"тот":24613,"еу":21943,"ц ":24884,"диц":21590," сло":3084,"нош":23174,"оше":23687," отн":2973,"отно":23652,"ноше":23175,"ошен":23688,"инт":22276,"нте":23198," инт":2798,"инте":22277,"нтер":23199,"терн":24522,"тст":24648,"вую":21388,"ветс":21251,"тств":24649,"рны":24048,"ным":23231,"ным ":23232,"ьз":25129,"льз":22788," исп":2800,"испо":22315,"поль":23772,"ольз":23487,"«р":18001," «р":2121,"нга":23023,"гар":21434,"арс":20973,"гарс":21436,"арск":20974,"стин":24355,"жив":21992,"иво":22141," жив":2747,"живо":21994,"лити":22722,"тиче":24557,"еска":21910,"аден":20791,"дена":21555," би":2582,"бив":21106,"вши":21397,"ивши":22145," рад":3027,"ално":20880,"лно ":22746,"астр":21005,"чл":24980," чл":3223,"чле":24981," чле":3224,"член":24982,"лено":22691,"енов":21830,"нове":23146,"ове ":23317,"емо":21799,"крат":22576,"атич":21023,"ичен":22369,"чен ":24957,"рум":24140," фор":3185,"тел ":24503,"дос":21631,"ега":21689," дос":2713,"еи":21739,"еда":21697,"седа":24202,"кия":22502,"ския":24246,"ият ":22397,"атур":21033,"ван ":21210,"рка":24027,"нак":22988," нес":2927,"глас":21459," вод":2630,"оден":23377,"лс":22770,"елс":21780,"авит":20759,"вите":21277,"кия ":22503,"итик":22341,"тика":24543,"вър":21402,"прив":23801,"опре":23558,"реде":23950,"едел":21701,"ъч":25084,"нед":23043,"едо":21712," нед":2922,"дост":21632,"ант":20940,"мун":22954," ант":2564,"анти":20942,"нист":23096,"стич":24357,"verl":17203,"tzu":16500,"zun":17940,"sein":15319,"eina":8081,"inan":10122,"tzun":16501,"zung":17941,"unge":16857,"stä":15739,"änd":18100,"ände":18101," war":1977,"war ":17391,"ietr":9896,"ht,":9605,"ucht":16633,"ht, ":9606,"mt":12100,"amt":5853,"mt ":12101,"zic":17863,"zich":17864,"hten":9611,"epl":8414,"plan":13991,"lant":11135,"utor":17032,"imm":10093,"imme":10094,"men.":11878,"geh":9131,"heim":9450,"eim ":8078,"fü":9062,"für":9065,"ür ":18429,"für ":9066,"ner ":12425,"sö":15840,"öh":18351," sö":1787,"ied":9831,"edr":7947,"frie":9032,"ried":14619,"edri":7948,"dric":7660," von":1952,"von ":17296," fü":816,"nbe":12276,"rg ":14564," für":818,"rste":14958,"tenb":16042,"enbe":8298,"nber":12277,"erg ":8481,"pä":14189,"ät":18105,"spä":15599,"äte":18106,"oha":13151,"joha":10717,"ohan":13152,"hann":9405,"got":9276," got":868,"ied ":9832,"dies":7510,"iese":9890,"eser":8619,"auc":6298," auc":353,"auch":6299,"erge":8483,"sses":15623,"sess":15354," pad":1464,"ader":5507,"derb":7449,"erbo":8455,"rbor":14385,"brin":6702,"gen,":9145,"chei":6940,"tert":16069,"erte":8554,"neh":12402,"hme":9537,"nfl":12459,"infl":10152,"nflu":12460,"bac":6488,"ttel":16399,"bach":6489,"dwe":7718,"lige":11368,"igen":9932,"rö":15140,"misc":11968,"hes":9472,"ches":6945," dah":570,"61":5122,"161":4809,"erdi":8465,"dina":7528,"bay":6523,"aye":6382," bay":394,"ern ":8521,"wä":17542,"wäh":17543,"hlt":9533," арт":2568," а.":2546," а. ":2547,"пам":23712,"тник":24576,"ники":23086,"ики ":22215,"адо":20797,"ры ":24157,"инс":22273,"инск":22274,"р. ":23850,"юс":25194,"рир":24010,"иро":22299,"стри":24371,"риро":24011,"иров":22301,"анны":20931,"-к":4590," спр":3100,"-х":4597,"инн":22270," вин":2618,"инни":22271,"лы":22783,"ын":25112,"рош":24105,"воро":21349,"опе":23550,"ропе":24092,"етро":21939,"дон":21627,"нец":23062,"рп":24107,"атс":21031,"тск":24646,"фр":24843," ив":2780,"фра":24844,"анк":20928,"иван":22135,"вано":21215,"фран":24845," ки":2821,"рово":24061,"овог":23340,"обл":23283,"бла":21113," обл":2941,"обла":23284,"блас":21114,"ласт":22658,"кие":22490,"ді":21662,"буд":21155,"уді":24717,"дів":21664," буд":2595,"буді":21156,"удів":24718,"84":5196,"984":5308,"1984":4913," 33":178," к ":2810,"л.":22641,"л. ":22642,"орм":23579,"ули":24743,"форм":24842,"(5":4443," (5":29,"юл":25191," 174":112,"пов":23754," пов":2995,"тац":24466,"ации":21053,"ции ":24904,"расс":23898," о ":2937,"дк":21593," тел":3126,"(17":4432,"176":4822," (17":22,"ाध":28382,"सु":28241,"दर":27567," सु":3989,"दर ":27568,"सि":28235,"िं":28460," सि":3987,"ां":28339," मा":3883,"ां ":28340,"दे":27590,"ेह":28678,"ंत":27110," दे":3791,"हां":28276,"ांत":28342,"ंत ":27111," त":3758,"ब ":27754,"हु":28287,"ुआ":28578,"आ ":27168," हु":4003,"हुआ":28288,"ुआ ":28579," हुआ":4004,"हुआ ":28289,"जब ":27388," जब ":3729,"वे":28120," वे":3950,"वे ":28121," वे ":3951,"र्ष":28029,"्ष ":28873,"वर्ष":28083,"र्ष ":28030,"े,":28635,"े, ":28636,"जिस":27410," जिस":3741,"वह":28090,"् ":28747," वह":3940,"ंस":27132,"सा ":28225," औ":3657,"और":27231," और":3658,"और ":27232," और ":3659,"िर":28513,"निर":27660," निर":3808," ड":3755,"उन":27207,"्ह":28884,"हो":28309,"ोन":28734," उन":3637,"उन्":27210,"न्ह":27682,"्हो":28887,"होन":28317,"ोने":28735,"ने ":27668," उन्":3639,"उन्ह":27211,"न्हो":27684,"होने":28318,"ोने ":28736,"अप":27155,"पन":27693," अप":3598,"अपन":27156,"पना":27694," अपन":3599,"पना ":27695,"रो":28006,"ोध":28733,"ध ":27610," क्":3696,"क्र":27311,"्रो":28854," क्र":3698,"ाई":28349,"ाई ":28350,"मि":27840,"िश":28526,"शन":28132,"नर":27638,"ीय":28566,"यो":27904," मि":3885,"रीय":27994,"यों":27905,"यों ":27906,"पे":27730," पे":3835,"ा,":28335,"िका":28467,"काल":27275,"ाला":28433,"ा, ":28336," निक":3806," ल":3924,"ोग":28717," लो":3932,"लोग":28064,"ोगो":28719," लोग":3933,"लोगो":28065,"सत":28197,"ता":27495,"तान":27497,"ाने":28390,"ाने ":28391,"लग":28034,"गे":27348," लग":3925,"नक":27627,"उनक":27208,"नके":27632," उनक":3638,"उनके":27209,"नके ":27633,"अस":27166," अस":3607,"अस्":27167,"स्थ":28254,"्था":28787,"था ":27541," अस्":3608,"स्था":28255,"कर":27252,"रन":27942," कर":3668,"करन":27260,"रने":27945," करन":3671,"करने":27262,"रने ":27946," ध":3799,"्म":28806,"र्म":28021,"्म ":28807,"चु":27373,"नो":27669,"ोत":28726,"ती":27507," चु":3721,"ोती":28729,"ती ":27508,"ोती ":28730,"लि":28045," लि":3927,"लिय":28050,"िये":28509," लिय":3929,"लिये":28052,"िये ":28510,"ाइ":28344,"बल":27768," ख":3700,"दा":27571,"दा ":27572,"सका":28191,"सका ":28192,"न्न":27676,"्ना":28799,"पने":27698,"अपने":27158,"पने ":27699,"त्":27522,"मित":27842,"ित्":28485,"त्र":27531,"ित्र":28487,"त्र ":27532,"सम":28209,"मन":27817," सम":3978,"जल":27392," जल":3732,"ला ":28043,"दिय":27580,"या।":27895," दिय":3786,"दिया":27581,"िया।":28508,"या। ":27896," ती":3766,"ात":28367,"तो":27515,"तो ":27516,"ैल":28697,"टर":27436,"पर ":27704," पर ":3820," आ":3609,"आत":27171,"ाह":28453," आत":3611,"त्म":27527,"दाह":27576,"पह":27712,"हल":28269," पह":3824,"पहल":27714,"हले":28270," पहल":3826,"पहले":27715,"हले ":28271," स्":3993,"नान":27649,"या,":27885,"या, ":27886,"वह ":28091," वह ":3941,"कर ":27253," कर ":3669,"रह":27963,"हे":28295," रह":3911,"रहे":27968,"हे ":28296," रहे":3914,"ोर":28740,"कह":27266," कह":3673,"कहा":27267,"हा ":28273," कहा":3674,"कहा ":27268,"च्":27375,"्च":28752,"चा":27362,"च्च":27376,"चा ":27363,"रम":27951,"ेश":28673,"श्":28150,"्व":28860,"श्व":28155,"्वर":28863,"अग":27145,"गर":27340,"्वर ":28864," ने ":3811,"ति":27500,"व ":28070,"स्त":28250,"्ति":28778,"त्व":27537,"्व ":28861,"स्ति":28252,"त्व ":27538,"्हे":28885,"न्हे":27683,"उस ":27216," उस ":3643,"ात ":28368,"नह":27642,"ही":28283,"ीं":28550," नह":3801,"नही":27643,"हीं":28285,"ीं ":28551," नही":3802,"नहीं":27644,"हीं ":28286," हो":4012,"होत":28313,"ोता":28727,"ता ":27496," होत":4014,"होता":28314,"ोता ":28728," तो":3767," तो ":3768,"अत":27146," अत":3592,"करत":27256,"रते":27935," करत":3670,"करते":27259,"रते ":27936,"अं":27139,"ः ":27138," अं":3588,"अंत":27141," अंत":3590,"भो":27808," भो":3874,"ुल":28610,"लन":28037," ये":3906,"मस":27822," मस":3878,"्क":28748,"िद":28488,"ुए":28581,"ए ":27219,"हुए":28291,"ुए ":28582," हुए":4006,"हुए ":28292,"ाथ":28378,"थो":27559," हा":3999,"थ्":27560,"साथ":28227," साथ":3985,"द्":27602,"रु":27996,"टा":27438," द्":3797,"द्र":27607,"्टा":28762," [":219,"] ":5348," 이 ":4236," 받":4152,"는다":29585," 축":4293,"축생":29912," 동":4100,"때문":29652,"문에":29707," 때문":4119,"때문에":29653,"문에 ":29708," 때문에":4120,"때문에 ":29654," 속":4184,"한다.":29954,"한다. ":29955,"사람":29724," 사람":4170," 고":4053,"에는":29782,"에는 ":29783," 들":4111," 못":4142,"하며":29937," 따":4115,"ч ":24935,"ич ":22366,"вич ":21282,"[1":5342,"вня":21315,"ревн":23943,"о)":23271,"рха":24147,"хан":24859,"кое ":22531,"арст":20975," ап":2565,"т-":24426,"-п":4593,"ссий":24323,"сийс":24220,"имп":22251,"мпе":22942," имп":2795,"импе":22252,"мпер":22943,"пери":23728,"й-":22402,"миро":22898,"т,":24424,"икл":22216,"кло":22509,"лоп":22764,"ст,":24329,"т, ":24425,"ст, ":24330," хи":3196,"мик":22891,"ик ":22209,"хими":24866,"зик":22061,"ёл":25273,"зич":22065,"еско":21912,"реме":23965,"емен":21795,"тал ":24449,"шир":25016,"рну":24047,"прог":23814,"рогр":24064,"грам":21488,"ко-":22521,"мич":22905,"миче":22906,"ледо":22674,"едов":21713,"дова":21619,"аний":20923,"яр":25251,"уля":24750,"ляр":22816,"ярн":25252,"о-к":23275,"кин":22497,"олек":23466,"уляр":24751,"лярн":22817,"тео":24514,"еор":21848," тео":3128,"теор":24515,"еори":21849,"ория":23577,"рия ":24024,"теп":24516,"епл":21855," теп":3129,"тепл":24517,"сх":24397,"едв":21698,"дста":21646,"тавл":24440," мат":2870,"мате":22853,"атер":21018,"тери":24521,"оги":23357,"фу":24846," фу":3188,"фун":24847,"унд":24759,"дам":21518,"ента":21835,"нтал":23197,"таль":24452,"ле ":22667,"сле ":24262,"дно ":21610,"рмо":24040," тер":3130,"дина":21582,"зал":22023,"жил":21995," зал":2758,"осн":23613,"сно":24280," осн":2966,"осно":23614,"снов":24282," ас":2570,"трон":24639,"оном":23534,"ибо":22129,"боро":21135,"гео":21444," гео":2664,"мет":22879," мет":2877,"мета":22880,"фил":24832," фил":3179,"рик":24001,"стор":24366,"еа":21672,"еал":21674," ген":2663,"гене":21443,"поб":23753," поб":2994,"борн":21134,"орни":23583,"ник ":23084,"азв":20816,"зви":22044,"разв":23871,"азви":20818,"звит":22045,"вити":21278,"теч":24527,"ече":21955,"тече":24528,"осв":23604,"све":24189,"щени":25040,"эк":25172," эк":3239,"эко":25173,"ки.":22486," эко":3240,"экон":25174,"коно":22554,"номи":23163,"ки. ":22487,"зр":22090,"азр":20829,"зра":22091,"разр":23878,"зраб":22092,"бота":21137,"оек":23401,"роек":24072,"оект":23402,"тви":24480,"стви":24343," наз":2907,"назв":22985,"азва":20817,"ь.":25123,"ь. ":25124,"отк":23649,"ткр":24567," отк":2972,"откр":23650,"ичи":22371," нал":2909,"личи":22726,"тм":24572,"сф":24395,"фе":24825," ат":2571,"сфе":24396,"фер":24828,"нер":23056,"енер":21812,"нера":23057,"тски":24647,"овет":23321,"оф":23662,"роф":24100,"офе":23663,"фес":24830,"есс":21917,"ссо":24326,"ор ":23563,"проф":23821,"рофе":24101,"офес":23664,"дей":21545," дей":2692,"дейс":21546,"ейст":21749,"ьный":25153,"пера":23725,"ерат":21863,"5) ":5074,"ёт":25277," поч":3007,"коро":22561,"роле":24086,"рим":24004,"прим":23804,"риме":24006,"чел":24953,"rsa":14937,"is)":10335,"ersa":8542,"sali":15217,"kó":11032,"wk":17482,"a”":6476,"ków":11033,"(g":4458," (g":41,"odz":13104,"rodz":14815,"odzi":13105,",9":4521,"ha,":9376,"ha, ":9377,"isk":10364,"ska ":15461,"orc":13502,"rcz":14400,"czy":7273,"zyk":17959,"yka":17668,"rus":15042,"usz":17013,"tne":16239,"nny":12643,"inny":10190,"hro":9593,"chro":6978,"hron":9594,"roni":14851,"onio":13375,"nion":12561,"unk":16867," gat":827,"atun":6282,"ków ":11034,"oś":13815,"śl":18739,"nny ":12644," zes":2085,"w.":17368," pt":1536,"ów.":18339,"w. ":17369,"ów. ":18340," 태":4303," 무":4143,"들의":29645,"들의 ":29646," 매":4138,"우 ":29805,"았다":29764,"았다.":29765,"았다. ":29766," 《":4029," ·":2124,"· ":18004," · ":2125,"에게":29780,"에게 ":29781,"린 ":29692,"라 ":29657," 역":4213," 최":4291,"이자":29847,"이자 ":29848,"였으":29798,"으며":29815,"으며,":29817,"으며, ":29818,"이에":29846,"하며 ":29938," 건":4043,"것을":29534," 것을":4046,"것을 ":29535," 것을 ":4047," 요":4222," 천":4288,"하게":29928,"하게 ":29929," 거":4042,"하였":29943,"였다":29795,"하였다":29944,"였다.":29796,"하였다.":29945,"였다. ":29797,")의":4504,")의 ":4505,"(金":4493," 군":4061," 하는":4317,")에":4503," 필":4315,"장하":29878,"iniz":10180,"nizi":12586,"sse ":15618," 24":156," 24 ":157,"sett":15356,"ttem":16400,"temb":16033,"06":4722,"006":4675,"06,":4724,"2006":4960,"006,":4677,"06, ":4725,"bc":6534,"nzo":12890,"canz":6827,"anzo":5977,"zone":17915,"uov":16891,"rimo":14652," ep":716,"epi":8412,"sod":15524," epi":717,"epis":8413,"piso":13978,"rain":14301,"ain ":5625,"f,":8870,"f, ":8871,"rza":15078,"erza":8577,"rza ":15079,"stag":15660,"tagi":15904,"agio":5584,"erat":8450,"ewi":8783," hou":943,"ives":10506,"ube":16610,"liu":11422,"ius":10490,"ius ":10491,"max":11808,"axi":6371,"ilia":10033,"lian":11338," gen":840,"ax ":6370,"lea":11225,"aum":6313,"uill":16736,"aume":6314,"* ":4507,"17.":4815,"17. ":4816,"feb":8908,"bru":6707," feb":773,"febr":8909,"ebru":7864,"brua":6708,"ruar":15013,"186":4834," 186":123,"15.":4798,"932":5241,"1932":4856," geh":837,"imer":10084,"nra":12710,"t) ":15866,"zien":17870," mic":1243,"chel":6941,"els ":8215,"–1":28897,"(18":4433,"–19":28898," (18":23,"toc":16256,"gus":9340,"gust":9341,"usta":17006,"kö":11035,"öy":18372," kö":1127,"köy":11038,"yde":17639," köy":1129,"öğ":18378,"ğr":18598,"öğr":18379,"ğre":18599,"öğre":18380,"etim":8695,"tim ":16170,"ulu":16803," oku":1408,"rdı":14432," var":1919,"vard":17145,"ardı":6076,"rdır":14433,"cak":6806," anc":301,"ncak":12282,"cak ":6807,"nıl":12957,"ılm":18636,"lma":11489,"kull":11001,"llan":11455,"lanı":11136,"anıl":5989,"ılma":18637,"çm":18123,"uyu":17069,"şe":18756," şe":2210,"bek":6559,"eke":8131,"kes":10849,"beke":6560,"kesi":10850,"esi ":8623,"asy":6211,"syo":15807,"yon":17704,"anal":5876,"asyo":6212,"syon":15808,"yon ":17705,"yok":17701,"ktu":10988," yok":2047,"yokt":17702,"oktu":13197,"ktur":10989,"tt ":16392," şu":2213,"şub":18774," şub":2214,"besi":6582,"acen":5442,"tesi":16079,"ğlı":18597,"ık ":18624,"ağlı":6439,"lık ":11700,"ğı ":18606," oca":1388,"vi ":17222," evi":744,"ım":18641," ul":1884,"laş":11174,"ımı":18643,"mı ":12172,"laşı":11175,"ımı ":18644,"laya":11167,"yol":17703," yol":2048,"alt ":5775,"lup":11642,"trik":16349," sab":1645,"lef":11243,"efo":7996,"fon":9000,"elef":8171,"बि":27780," बि":3858,"ार ":28413,"हार ":28279,"तत":27484,"ली":28053,"्का":28750,"ाली":28435,"ुख":28586,"ख्":27326,"यम":27875,"मं":27810,"मुख":27849,"ुख्":28587,"ख्य":27327,"ंत्":27113,"्री":28849," मुख":3889,"मुख्":27850,"ुख्य":28588,"ंत्र":27114,"त्री":27535,"्री ":28850," ला":3926,"रस":27960,"्रस":28841,"प्रस":27743,"अन":27150," अन":3595,"अन्":27153,"न्य":27679," अन्":3597,"अन्य":27154,"न्य ":27680,"ेत":28656,"ेता":28657,"पश":27708," पश":3822,"पाल":27720,"लन ":28038,"ग ":27329,"ाग ":28358,"भाग ":27795,"ेक":28644," ले":3930,"लेक":28057," लेक":3931,"खा":27322,"ाब":28400,"जी":27413,"जी ":27414,"िए":28463,"लिए":28047,"िए ":28464," लिए":3928,"लिए ":28048,"गए":27331," गए":3705,"ोड":28724,"़ ":28320,"ोड़":28725,"ड़ ":27455,"ुप":28603,"पय":27700," रु":3919,"कथ":27245,"थि":27549,"थित":27550,"थित ":27551,"िग":28474,"गल":27341,"आर":27181,"िम":28500,"डि":27463,"िज":28476,"ज़":27395," आर":3619,"र्क":28010,"ज़ ":27396,"यू":27901,"ून":28619,"नी":27662,"ानी":28388,"χι":20585,"ιμ":19577,"μή":19781,"ρχι":20257,"भग":27791," ई":3629,"पू":27727,".) ":4602," यू":3905,"हन":28265,"वा":28093," वा":3942,"वाल":28099,"ाले":28437," वाल":3943,"वाले":28101,"ाले ":28438,"गण":27332,"णि":27469,"्ञ":28757," गण":3706,"गणि":27333,"णित":27470,"ज्ञ":27424," गणि":3707,"गणित":27334,"तिक":27502,"इं":27183,"ंज":27104,"यर":27877," इं":3622,"निय":27658,"आव":27182,"िष":28532,"रक":27915," आव":3620,"िष्":28533,"ष्क":28169,"कार":27271,"िष्क":28534,"ोल":28741,"गोल":27352,"ास्":28450,"्त्":28784,"ास्त":28452,"ीव":28572,"वन":28077," जी":3742,"जीव":27415,"वन ":28078," जीव":3743,"रे":28000,"बार":27778,"ारे":28425,"रे ":28001," बार":3857,"ारे ":28426,"बह":27772,"ुत":28595," बह":3853,"बहु":27773,"हुत":28293,"ुत ":28596," बहु":3854,"बहुत":27774,"हुत ":28294,"कु":27287,"ुछ":28590,"छ ":27378," कु":3685,"कुछ":27288,"ुछ ":28591," कुछ":3686,"कुछ ":27289,"ूम":28622,"ै,":28682,"है,":28301,"ै, ":28683," है,":4009,"है, ":28302,"ेकि":28646,"किन":27279,"लेकि":28058,"ेकिन":28647,"किन ":27280,"हें":28297,"्हें":28886,"हें ":28298,"ाश":28443,"श्च":28151,"ात्":28375,"त्य":27529,"त्य ":27530,"सभ":28206,"यत":27869," सभ":3976,"वै":28122,"ञा":27430,"्ञा":28758,"ञान":27431,"ानि":28387,"कों":27301,"ज्ञा":27425,"्ञान":28759,"कों ":27302," मान":3884,"माना":27836,"जात":27402,"ाता":28369," जात":3737,"जाता":27403,"ाता ":28370,"ंन":27122,"हों":28311,"ोंन":28712,"ंने":27123,"्हों":28888,"होंन":28312,"ोंने":28713,"ंने ":27124,"न,":27625,"्थि":28790,"िति":28482,"विज":28107,"न, ":27626," स्थ":3994,"स्थि":28256,"्थित":28791,"थिति":27552,"रव":27958,"व्":28124,"्रव":28840,"व्य":28125,"्ध":28794,"सिद":28237,"िद्":28489,"द्ध":27603,"्धा":28796,"ान्":28393,"न्त":27673,"्त ":28774,"सिद्":28238,"िद्ध":28490,"द्धा":27605,"रद":27937,"्रद":28832,"रदा":27940,"दान":27573,"प्रद":27739,"्रदा":28833,"दान ":27574,"कई":27235," कई":3662,"कई ":27236," कई ":3663,"शी":28143,"ं,":27088,"ं, ":27089,"नम":27636,"जिन":27409,"नमे":27637," जिन":3740," शा":3957,"शाम":28137,"ामि":28405,"मिल":27844,"िल ":28518," शाम":3958,"शामि":28138,"ामिल":28406,"मिल ":27845,"ैं":28684,"हैं":28303,"ैं ":28685," हैं":4010,"हैं ":28304," घ":3715,"बं":27755,"ंद":27115,"दी":27584,"दी ":27585,"यं":27864,"इसक":27192," इसक":3627,"इसके":27193,"अल":27164,"ाव":28439," अल":3605,"ावा":28441,"वा ":28094," ऐ":3651,"ऐस":27226,"सी":28239," ऐस":3652,"सी ":28240,"नों":27670,"नों ":27671,"कल":27264,"ल्":28066,"्प":28800,"नी ":27663,"ानी ":28389,"जह":27393," जह":3733,"जहा":27394," जहा":3734,"ठा":27451,"कत":27240," सक":3971,"सकत":28188," सकत":3972,"थी":27553," थी":3774,"णो":27473," दर":3781,"दर्":27569,"णों":27474," दर्":3782,"णों ":27475,"रय":27954,"्रय":28838,"रयो":27955,"योग":27907,"ोग ":28718,"प्रय":27742,"्रयो":28839,"रयोग":27956,"योग ":27908,"वो":28123,"गा":27343,"आध":27175," आध":3614,"ोगों":28720,"वास":28102,"विक":28105,"कता":27241,"कता ":27242,"साम":28229," साम":3986,"lum":11637,"umu":16829,"topl":16287,"bü":6767,"üy":18442," bü":467,"büy":6769,"üyü":18443,"ük ":18408," büy":468,"büyü":6770,"üyük":18444,"yük ":17743,"ıs":18666," kı":1131,"kıs":11056," kıs":1132,"kum":11003,"zm":17894,"yaz":17621," yaz":2039,"iğ":10602,"diğ":7564,"iği":10605,"ği ":18591," bil":422,"bilm":6615,"diği":7566,"iği ":10606,"olla":13238,"sre":15607,"redi":14460,"isi ":10359,"deb":7395," ede":680,"liş":11432,"eliş":8195,"tiri":16194,"iril":10315,"rilm":14646,"mesi":11896,"ön":18355,"yön":17739,"öne":18358,"elm":8204," yön":2053,"yöne":17740,"ğin":18592,"ğini":18593,"sav":15243,"unm":16870,"şla":18761," sav":1655,"şlar":18762,"lard":11142,"ül":18409," ül":2179,"ülk":18412,"lke":11436,"ken":10840," ülk":2180,"ülke":18413,"enin":8329,"nin ":12557,"lece":11233," aç":372,"açı":6422,"ısı":18667," açı":373,"ısın":18668,"sınd":15854,"edd":7928,"ddi":7386,"pek":13901," ço":2139,"çok":18126," çok":2140,"çok ":18127,"onu":13412,"konu":10935,"uda ":16649,"ç ":18108,"maç":11814," ama":293,"liğ":11430,"liği":11431,"içe":10560,"eris":8504,"risi":14679,"sele":15326,"eles":8177,"yr":17714,"ayr":6389,"yrı":17715,"rıl":15155,"lmı":11500," ayr":370,"ayrı":6390,"lmış":11501,"aml":5836,"mla":11988,"amla":5837,"alı":5795,"alı ":5796," osm":1441,"osma":13604,"sman":15501,"üs":18436,"ubu":16619,"lubu":11619,"yla ":17675,"ime ":10081,"eder":7932,"rken":14708,"ken,":10842,"tama":15930," az":371,"rba":14377,"erba":8453,"tü":16538," tü":1870,"tür":16539,"ürk":18434,"siy":15449,"iyl":10530,"yle":17676," tür":1871,"türk":16540,"iyle":10531,"yle ":17677,"upl":16901,"yay":17619,"ayı":6394,"yın":17749,"ın ":18646," yay":2038,"yayı":17620,"ayın":6396,"yap":17611,"apm":6013," yap":2036," दी":3787,"ाल ":28431,"यान":27890,"नाथ":27647,"ाथ ":28379,"नाथ ":27648,"दो":27595," दो":3794,"दोन":27599,"ोनो":28737," दोन":3796,
[...]
